#version: 0.2 - Trained by `huggingface/tokenizers`
Ġ ì
Ġ ë
Ġ ê
Ġì Ŀ
Ġ í
Ġí ķ
Ġ .
ĠìĿ ´
ĭ ¤
Ġì ķ
Ĭ Ķ
Ġì Ĺ
ã ħ
Ġë ĬĶ
Ġê °
³ ł
§ Ģ
Ġì ŀ
ì Ŀ
Ġë ĵ
Ġíķ ĺ
Ġê ³ł
Ġë ĭ¤
Ġë Ĥ
Ġë §
ı Ħ
Ġëĵ ¤
ì Ħ
Ġê° Ģ
ãħ ĭ
ì ŀ
Ġê ²
¸ ë
Ŀ ¼
Ġìķ Ħ
Ġì ł
ê °
¸ °
Ġì §Ģ
ë ĭ
ĠìĿ Ģ
ĠìĹ Ĳ
ì ļ
´ ë
Ġì ĸ
ì ķ
Ġê ±
Ġë ³
ì ł
Ĥ ¬
Ġë ıĦ
Ġë Ħ
Ī ë
¦ ¬
Ġíķ ľ
ìĿ ´
ìĦ ľ
¡ ľ
ì §Ģ
Ġì ĭ
Ġ ?
¼ ë
Ġë °
Ġë ĭ
í ķ
Ġê ·
ì ĭ
© ´
ĠëĤ ĺ
į °
ë Ĥ
Ġì ľ
Ġì Ħ
Į Ģ
ì §
ë ¦¬
ĠìĿ Ħ
ë §
ãħĭ ãħĭ
Ġê± °
ê ¸°
Ġ ãħ
ìŀ Ĳ
ê µ
Ġì Ĥ¬
ľ ë
ĠëĦ ¤
Ġì ĺ
ìļ Ķ
Ġë ª
Ġì §
ê ²
Ġì ĥ
ì Ĺ
Ġìĸ ´
ê ³ł
ë ŀ
Ġë³ ´
Ġë ©´
Ġì ¢
ê° Ģ
Ġë ¶
Ġê² Į
ë į°
Ġê ¸°
ì ĥ
Ġë Ŀ¼
Ġê· ¸ë
ëĭ Ī
Ġ. .
Ġë Ĳ
ë Ŀ¼
Ġë§ Į
Ġ ãħĭãħĭ
Ġì £
Ġíķ ´
ì ĺ
Ġìŀ Ī
Ī ĺ
Ġìľ ¼ë
ëĤ ĺ
Ģ ë
ĠìĿ ¸
Ġë į
ĠìĿ ĺ
Ġë ¬
Ġìķ Ī
Ġê ³
Ġë ¹
Ġìŀ Ĳ
Ġë ħ
Ġì Ļ
ìķ Ħ
í ĺ
ì ĸ
Ġê µ
ë ł
Ġì ļ
Ġë ĮĢ
Ġê ¹
ë ĭ¤
ì Ĭ
Ġë ¥
Ġë ĥ
ë °
¯ ¸
Ġì °
Ġê° Ļ
ê ¹
Ġë¥ ¼
Ġ !
ì Ľ
Ġì ¤
Ġë ²
ĺ ë
ê ·
Ġëĭ Ī
Ġëĥ Ĳ
ê ¸
ìĿ ¸
ì Ĩ
ĠìĹ Ĩ
Ġë ı
ĠìĹ ¬
Ġìł ķ
ì Ĥ¬
êµ Ń
Ġì ¡
Ġìĭ ľ
Ġ ~
Ġë ¡ľ
Ġí ĸ
ĠëĬĶ ëį°
ê² Į
Ġìľ¼ë ¡ľ
ê ±
ìĥ ģ
ìķ ¼
ìĭ ł
Īë ĭ¤
ë ³
Ġì Ĭ
Ġì¢ ĭ
ë ¶
ë ¬
ì ¹
ģ ¼
ì ľ
Ġì Ĩ
Ġì£ ¼
Ġì Īĺ
ĠëĲ ĺ
Ġëį Ķ
Ġë§ Ĳ
Ġì ²
Ł ¬
Ġì Ĥ
ĠìĹĲ ìĦľ
Ļ Ķ
ë ıĦ
ë ĵ
ĠëĤ ¨
ĠìĤ¬ ëŀ
ìł ķ
ìĭ ľ
Ġê² ĥ
Ġìŀ ĺ
Ġê² ł
ì £
ëĭ Īëĭ¤
Ġì§ Ħ
Ġí ĺ
ë ¥
ë§ Ī
íķ ĺ
Ł °
Ġíĸ Ī
Ġê ¸
Ġìĥ Ŀ
ì ²
Ġë ´
ĠìĦ ¸
ĠìĿ Į
ìł ľ
Ġìĸ ´ë
ì§ Ħ
ĠìĿ ¼
Ġë ķ
ĠìĤ¬ëŀ Į
ë§ Į
Ġë Ń
Ġê° ľ
¯ ¼
ĠìķĦ ëĭĪ
í ŀ
ĠìĿ´ ë
ê ³
ë ¡ľ
Ġê· ¸
Ġìķ ¼
¨ ¹
ì °
ìĸ ´
Ġëª »
ì ¤
Ġë Ĩ
ì§ ľ
ë ĮĢ
í ĥ
Ġì Ľ
ê¹ Į
ìļ °
ì Īĺ
Ġíķ ł
Ġí Į
Īë ģ¼
Ġëª ¨
ìŀ ¥
êµ ¬
ã Ħ
Ġì ¹
íķ ´
ĠìĹ °
ìĬ ¤
íķ ľ
íŀ Ī
Ġì Ķ
ë ĬĶ
ìĽ Ĳ
Ġí Ķ
Ġìł ģ
Ġìł Ħ
Ġëķ Į
ì£ ¼
ì ¡
Ġë Ķ
Ġì¡ °
Ġìĥ Īëģ¼
Īë ¬
Ġë§ Ī
ĠìĹ Ī
ĠìĻ ľ
ìĺ ¤
ë ¹
Ġìķ ł
Ġìŀ ¬
Ġêµ ¬
ĠìĦ ľ
Ġë§ İ
Ġë ŀ
ĠìĹ¬ ìŀĲ
Ġìĺ ¤
Ġì ¶
Ġ ãĦ
Ġë¬ ¸
Ġì ĵ
Ġê¹ Į
ê° Ħ
Ġëħ Ħ
ĠìĤ ´
ìĹ ¬
Ĥ ĺ
Ġë¬ ´
Ġë ĺ
ì Ļ
Ġë ©
ì Ĥ
ì ¶
Īë¬ ´
ê± °
ł ¤
ĠëĤ ´
ìł Ħ
Ġë Ī
Ġê± ´
Ġí ĥ
ìĦ ±
Ġì§Ħ ì§ľ
ìĥ Ŀ
ĠìĦ ±
Ġì¢ Ģ
Ġë¹ Ħ
Ġë° Ķ
Ġëį ĺ
Ġë¶ Ģë
ì¹ ĺ
Ġê ´
Ġë¶ Ģ
ĠìĨ Į
Ġì¤ ĳ
Ġ 1
ìŀ ¬
í ĻĶ
Ġìľ¼ë ©´
ª ¨
Ġí Ļ
Ġìŀ Ħ
Ġìł Ģ
ë ¯¸
Ġëħ ¸
í Į
ı Ļ
ĠëĦ Īë¬´
Ġìĭ ł
ĠìĬ ¤
ìĨ Į
Ġê³ µ
Ħ °
ìĿ ´ë
ë ²
ŀ ĺ
ê¸ Ī
Ġìķ Į
Ġëĭ ĺ
Ġíķ ´ë
ĠëĿ¼ ê³ł
ë ¦
Ġ.. .
ê° ģ
ì ģ
Ġë ¯¸
Ġê³ ¼
Ġëĵ ¯
ĠìĶ ¨
Ġ~ ~
Ġãħĭãħĭ ãħĭ
Ġìĵ °
³ Ĳ
Ġí ı
ë¥ ´
ĠëŃ Ĳ
Ġë´ Ĳ
Ġë Ĭ
ħ Į
ĥ ¥
Ġìľ ł
ëĵ ¤
ë¶ Ģ
ĠëĤ¨ ìŀĲ
ìĿ ¼
ìĭ ¬
ìĹ °
Ġêµ Ń
Ġìķ ĺ
ĠëĦ¤ ìļĶ
ë¬ ¸
í Ĭ
ĠìĿ ¸ë
ìĿ Į
Ġì° ¨
í Ķ
Ġë ¨¹
Ġìķ Ĭ
Ġìĥ ģ
Ġëĭ ¹
ê· ¸ë
ë ¯¼
Ġë° ©
ì ¦
ĠìķĦ ëĭ
ìľ ł
ì ¢
Ġë³ ´ë
ëł ¤
í Ħ°
Ġìŀ ħ
Ġë° °
ìĿ ĺ
ë ħ
Ġëĭ¤ ê³ł
ìĭ Ŀ
ĠìĻ Ģ
Ġìļ °
Ġê¹Į ì§Ģ
ë Ħ
Ġíķľ ëĭ¤
ĠìĥĿ ê°ģ
í ħĮ
ìļ ´
Ġë° Ľ
Ġíķ ¨
Ĥ ¤
Ġí Ĭ
ì ĭ¤
Ġê ¼
Ġë³ ĳ
Ġíķ´ ìĦľ
íĺ Ħ
Ġì§Ģ ë§Į
Ġê¹ Ģ
ĠìĹ Ħ
ìĦ ł
Ġëı Ī
ê° ľ
´ë Ĥĺ
Ġìĺ ģ
ëł Ī
Ġìł Ģë
Ġì£ ½
Ġìĭ ¶
í ĸ
! !
í Ĩ
Ġí İ
Ġìļ Ķ
Ġì ³Ĳ
ìł Ģ
ëĭ ¨
Ġãħ İ
Ġãħ ł
Ķ Ķ
Ġëĵ ľë
ĳ Ĳ
ì§ ģ
Ġë¶ Ħ
ëĤ ´
ìĺ Ī
ĠìĦ¸ ìļĶ
í Ļ
Ġê² °
Ġë©´ ìĦľ
ĠëĪ Ħ
ł ĩ
Ġíķľ íħĮ
ë§ Ĳ
ĠìĿ¸ë į°
Ġë§ ŀ
ë ª
ë Ĭ
Ġê·¸ë ĥ¥
Ġíķ ©
Ġìĺ Ī
Ġì§ ĳ
ë³ ´
ìĤ °
ĠìĦ ł
ìĺ ģ
ļ Į
ìĻ Ģ
Ġ 2
Ġì¤ Ħ
Ġë į°
ìĦ ¸
ìļ ©
Ł ¼
íĺ ¼
ľë ĭ¤
Ġë¶ Ī
Ġë¹ ¨
µ ľ
ĠìĿ´ ëĤĺ
ľë °
Ġìŀ ¥
ĠëĨ Ī
Ġí ĻĶ
ìŀ ĳ
ê ´
ĠëĦ ĺ
ĠìĽ Ĳ
ëŀ ĺ
ë¹ Ħ
ì¤ ĳ
Ġì Ī
ëĭ ¹
Ġëĺ Ĳ
í Ŀ
Ġíķľ êµŃ
Ġìľ Ħ
Ġë ¯
ĠëĤĺ ëĿ¼
Ġë² Ħ
ë ©´
Ġë ĸ
ê· ¸
ì Ķ
ìĨ ¡
ìķ Ī
Ġì ĭ¤
Ġëŀ ĳ
Ġì² ĺë
Ġëı Ļ
Ġ ãħĭ
ì¡ °
Ġê° Ĳ
Ġë ģ
Ġìĸ´ ìļĶ
ëł ¥
ìķ ł
ëĤ ¨
ê³ Ħ
Ġìļ ķ
ê± ´
ì² ´
Ġìł ľ
ĠëĤĺ ìĺ¤
ì Ī
ŀ ĺë
ë Ł¬
ëŀ ĳ
Ġë ¨
ìĽ Į
Ġë³´ë ĭ¤
ë ıĻ
Ġí Ľ
Ġí Ĺ
Ġë° ķ
Ġì µľ
ì¤ Ģ
Ġãħ Ī
Ġìĺ Ģ
. .
í İ
ĠìĿ´ë Ł°
Ġìľ ¼
Ġì¡ ´ëĤĺ
ìĸ ´ë
ë¬ ´
ìģ ĺ
Ġí ĭ
ê¸ Ģ
Ġëª ħ
ľë° ľ
¸ë ¦¬
ĠìĬ µ
ģ ¬
ëĤ ľ
Ġê¸° ìĤ¬
Ġíķ´ë Ŀ¼
ĠëĦ Ī
Ġìĺ ¬
ĠìĹĦ ë§Ī
Ġìķ ħ
ãħ İ
íĬ ¸
ãħ ł
í ı
¼ë ³
¶ Į
Ġìĸ´ ìĦľ
íĥ Ģ
Ġê± ¸
Ġë Į
Ġëı Į
Ġíķ© ëĭĪëĭ¤
Ġê¸ ¸
íĿ ¬
ĵ ¤
Ġãħ ħ
ìŀ Ħ
Ġì¹ ĺ
ë ¡
Ġí Ŀ
ë° ľ
ĠëĬ Ĳ
Ġìŀ ¡
ìĨ į
ëłĪ ê¸°
Ġëĭ ¬
Ġë² Į
Ġëª¨ ë¥´
ĠíĶ Į
ĠãĦ ·
ë į
ĠëĭĪ ê¹Į
ĠìĹ° ê¸°
Ġì ħ
Ġíķĺ ëĤĺ
ĠìĦ ¤
Ġíķ´ ìķ¼
ë° ķ
Ł ½
ì° ¨
Ġë¶Ģ íĦ°
Ġë Ĵ
ê² ½
ĠìķĦëĭ Į
ĠìĹ Ń
Ġëĭ¤ ëĬĶ
ĠìĹĲ ê²Į
Ġë³ ¸
Ġê² ½
ì¹ ľ
ë¥ ¸
Ġë ł¤
Ġìĭ «
Ġê° ķ
Ġì° ¸
Ġìłķ ëıĦ
Ġíĺ Ħ
ĠìĬµ ëĭĪëĭ¤
í Ĺ
Ħ ë¡ľ
êµ ´
Ġê³ Ħ
ë³ µ
ê° Ĳ
ì² Ń
Ġë´ ¤
Ġê´ Ģ
½ Ķ
ë ¨¹
ĠìĿĢ ëį°
ì§ Ī
Ġëħ ¸ë
ì¢ ħ
Ġì ±
ìĹ ħ
ĠëĿ¼ ëĬĶ
í ļĮ
ìĬ ¨
ëª ħ
Ġë§ ¤
Ġê·¸ë Ł°
ë¶ Ģë
ĠëĶ °
Ġë³ĳ ìĭł
^ ^
ë £
¼ë į°
ì§ ĳ
Ġíĸ ī
Ġìŀ ĳ
Ġëĵ ł
Ġìĸ ¼
Ġãħ Ĥ
Ġê¹ ¨
ì¶ ©
íĨ µ
Ġê·¸ë łĩ
ë ı
ĠëĲ ľ
Ġë°© ìĨ¡
Ġê²° íĺ¼
Ġí Ĩ
ĠëĤ ľ
ĠëŃ Ķ
Ġë§İ ìĿ´
Ġìĵ° ëłĪê¸°
Ġì »
Ġë ł
Ġëĭ ¨
ìĹ Ń
íĺ ¸
Ġ 3
Ġë² ł
ĳ ľ
Ġê·¸ë ¦¬
ĠíĶ ¼
Ġì¶ Ķ
Ġãħł ãħł
ĵ ê¸Ģ
ëŀ Ħ
íĸ ī
Ī ¬
Ŀ¼ ë§Ī
Ġë¹ ł
Ġí Ĥ¤
Ġì¢ Ĩ
Ġë² Ī
ĠìĿ´ ìłľ
ìĦ Ŀ
Ġìĭ ¬
Ġë¬´ ìĬ¨
Ġë¶Ģë ª¨
ê´ Ģ
Ġì²ĺë Ł¼
ìł ¸
Ġìłķ ë§Ĳ
ĠëįĶ ëĿ¼
ì¡ ±
Ġê º
ë° ©
Ġëĵ ±
ĺë ª
ĠìķĦ ìĿ´
Ġìĸ´ë ĸ
ĵ ľ
¼ë §
ĺëª »
Ġë° ľ
Ġãħ ľ
Ġë§Į ëĵ¤
Ġê°Ļ ìĿ´
ĠìĽ ĥ
Ġê¸ ´
Ġê° Ħ
Ġì§ Ī
Ġìĺģ íĻĶ
ĠìķĦ ìĦľ
ê¹ Ģ
ì ħ
ĳ ĺ
Ġì ´
ĠìĿ´ ëŀĳ
ë¶ Ħ
íĮ Į
êµ Ĳ
ìĹ Ĩ
ìľ Ħ
ë¹ ł
Ġëĵľë Ŀ¼ë§Ī
ë Ķ
í Ĥ¤
ĠìĿ´ íķ´
Ġêµ °
Ġìļ ©
ê³ ¼
; ;
Ġìŀ ĺëª»
Ġìľ¼ ëĭĪ
Ġìĥ Ī
ê³ µ
ĠëĴ ¤
Ġìĸ¼ êµ´
í ĭ
ĠëĬĶ ì§Ģ
Ġìĸ ĳ
ĠìĿ¸ ê°Ħ
Ġãħİ ãħİ
ĠìĿ ĳ
ĠëĤ ´ë
ê¸ ī
Ġë¬¸ ìłľ
¸ Į
Ġëĭ¤ ê°Ģ
Ġë° ĺ
ê² ©
Ġ â
Ġë ĳĲ
Ġãħ ĩ
Ġëª °
íĺ ľ
ĠëķĮ ë¬¸
¦ °
Ġë Ł¬
Ġê° ľë
ê° Ļ
Ġë³´ ìĿ´
ĠëĲ ł
íĺ ķ
Ġì¶ ©
Ġë°° ìļ°
ĠìĿ´ ìĥģ
Ġëįĺ ëį°
Ġíķ´ë ıĦ
ì¦ ĺ
íİ ¸
Ġì¹ ľ
ê² ¨
Ġì¤ ĺ
ìĶ ¨
¼ë³ ¸
§ Į
ĠëĶ ±
Ġíĥ Ģ
ì ¼
ãħ ī
ĠìĹ° ìĺĪ
í Ľ
Ġë ¿
Ġë§ Ŀ
ë° Į
Ġíİ ¸
Ġë§ Īë
Ġì§Ģ ê¸Ī
Ġ? ?
íĶ Ħ
ĠëĮ ĵê¸Ģ
Ġãħ ī
Ġê·¸ë Ł¬
ë¬ ¼
ĠìłĢë Ł°
ª ½
ĠëĤĺ ìĺ
Ġì§ ĵ
ìģ ľ
Ġ~~ ~
Ġìļ° ë¦¬
Ġë ¯¼
íĥ ľ
¼ ì§Ģ
ë ĳĲ
ľ ´
Ġì§ ģ
ĠìĿ¸ ê°Ģ
Ġë¬ ¼
Ġìķ ŀ
íķ Ļ
Ġãħ ¡
ĠëĨ ĵ
ĠíĻ į
ĠêµŃ ë¯¼
Ĥ ´
ħ Ĳ
ê°Ģ ë¦¬
ë³ ĳ
Ġë© °
ë Ł½
Ġ 5
Ġ ^^
Ġí ŀĺë
Ġê° Ī
Ġëĭ¤ ëĭĪ
Ġê± ´ë
ë² Ħ
ëĦ ¤
ĠíĽ Ħ
ìķ Ļ
ëĵ ľ
ĠíĶ Ħë¡ľ
ë¦ °
Ġìĭ ľë
ëł ĩ
Ġìŀħ ëĭĪëĭ¤
ëĬ ¥
Ġë° ±
Ġì² ĺ
Ġê¸ Ģ
Ġìŀ¬ ë¯¸
ĠìĿ´ ëłĩ
ãħ ľ
´ë ¦¬
ê¸ ´
Ġêº ¼
¾ ¸
í ģ¬
ìķ ħ
ë§ ¤
ëĵ ł
Ġíĺ ¸
¶ Ħ
ĠìĿ´ ìģĺ
Ġëĭ¤ ë¥¸
Ġì£ ł
ìĬ ¹
Ġìłķ ìĭł
ìĤ ´
Ġëĭ¤ ìĭľ
ìŀ ħ
ê° ķ
ìļ ¸
ê ¶Į
Ġì ī
Ġí Ĵ
ìĿ Ģ
ĠëĪ Ī
Ġê·¸ë¦¬ ê³ł
ĠìĿ´ëłĩ ê²Į
í Ĵ
Ġìŀ ĸ
Ġê· Ģ
ê± ¸
Ġëģ Ŀ
ì§Ħ ì§ľ
ĠíĮ Į
Į į
Ġì ½Ķ
Ġí ģ
Īë Ĥĺ
íķ ľë
ì¶ ľ
ë¦ Ħ
ë ©
Ġì į
Ġìĸ ¼ë§
Ġìĭ ¸
Ġêµ Ĳ
ĠíĮ ¬
ĠìĨĮ ë¦¬
Ġíı ī
ĠìĹ°ìĺĪ ìĿ¸
Ġìĸ µ
ê² ĥ
ìĹ Ĳ
ĠìĿ¸ ì§Ģ
ë° °
ĠìĨ Ĳ
Ġë© ĭ
ĠìĿĳ ìĽĲ
ê »
ì ©
Ġìł ľë
ì£ Ħ
Ġìŀ¬ ë°Į
ĠíĬ ¹
Ġëĵ¤ ìĸ´
¸ë ĭ¤
Ġìĸ ¸
ìł Ĳ
Ġì¢ ħ
ĠëĿ¼ ëıĦ
ĺë ¯¸
Ġë¯ ¿
Ġì ¦
Ġë ¦¬
Ġí ŀĺ
ìĸ ĳ
ĠìĿ ¼ë³¸
ìł ĳ
Ġëĭ µ
ĠìĿ¸ ìĥĿ
ĠìĻ ¸
ĠìĨ į
ĠìĤ¬ëŀ ĳ
Ġíĺ ķ
Ġëĺ ĳ
Ġ1 0
íĶ ¼
¶ Ģ
ĠìĹ ´
ĠëĤĺ ìĿ´
ëĬ ĺ
¤ ì¶©
Ġë³ ¼
Ġì£ Ħ
ìĨĮ ë¦¬
Ġíı ¬
Ġëĸ ¨
ì ´
Ġì§ ±
ĠëĲ ľëĭ¤
Ġ ï
Ķ ì§ģ
ĠìķĦ ìļĶ
Ġì¢ Į
Ġê´ ĳ
¸ ı
Ġìĭ Ŀ
Ġì° į
Ġì² ľ
Ġêµ¬ ëĤĺ
ìĪ ł
Ġï ¸ı
¸ë ĭ
Ġìĸ ĺ
êµ °
ĠíĨ µ
Ġìĸ´ëĸ »
· ¨
ĠëĤ ł
Ġë³ µ
ĠìĪĺ ì¤Ģ
ĠìĤ °
ìĹ¬ ìŀĲ
ĠìĪ ľ
Ġãħī ãħī
í Ī¬
Ŀ ½
Ġíķ Ħ
ĠìķĦ ì§ģ
ĠìŀĲ ê¸°
Ġ! !
ë¡ Ŀ
Ġë ĳĺ
ìĦ ¤
Ġì§Ģ ëŀĦ
ĮĢ ë¡ľ
ĠëĲ ¨
ĠãĦ ´
Ġëĺ ¥
ŀĺë ıĦ
¡ ł
Ġ 4
ĠíĮ Ķ
ĠãĦ ¹
ĠìĹ Ķ
ĠíĮ ¨
Ġìŀ¬ ìķĻ
íĮ ħ
¶ ģ
Ġê°Ģ ì§Ģ
Ġìĺ Īë
ê² ¼
Ġë¶ Īë
Ġê·¸ë §Į
Ġê³ ¤ì¶©
ë ª¨
ì ³Ĳ
Ġ '
Ġë ľ
Ġê »
Ġí ļĮ
Ġë§ ī
Ġì¶ ľ
ĠíĻ ķ
ëħ Ħ
ĠëĪĦ ê°Ģ
Ġíĭ °
Ġìĸ¼ë§ ĪëĤĺ
Ĭ ¥
Ġë ģ¼
ĠìĦ¸ ìĥģ
ëħ Ģ
ì ī
ìķ ½
Ġë¬ ´ë
ìĬ µ
ĠìĶ ¹
ê±° ë¦¬
Ġë´Ĳ ëĿ¼
Ġë¯ ¸ë
Ġãħľ ãħľ
Ġë¿ Ĳ
Ķì§ģ íŀĪ
ĠëĬĶ ëĭ¤
Ġë³ Ģ
ĠìĻ Ħ
ê¹ Ŀ
ì² ľ
ì° ½
Ġì¤ĳ êµŃ
ĠìĶ¨ ë°ľ
ĠìķĦëĭ ĺ
íĨ ł
ĠìļĶ ì¦ĺ
íĭ °
¹ Ħ
Ġí ģ¬
Ġë° ĸ
ĠëĤĺ ìĻĢ
Ġìĺ ¨
Ġëı ħ
ì¦ Ŀ
ĠíĬ ¸
ëį Ķ
Ġë ĩ
Ġìĸ´ ìķ¼
Ġê·¸ë ŀĺ
Ġë© Ķ
ì¶ Ķ
Ġê¼ ´
Ġíĭ Ģ
ìŀ Ī
ìł ģ
ê· ¼
Ġì² Ń
Ġíĺ ¼
ĠëĶ ¸
ħĲ ëį°
Ġê ¶Į
Ġê± ¸ë
ìł Ī
ëĤ ł
ìķĦ ëĭĪ
ĠëĬĲ ëĤ
Ġëł Ī
¸ëĭ Ī
² Ī
ļ ¨
Ġí ĳľ
ë§ Ŀ
Ġë§Į ëĤĺ
Ġëħ Ģ
íĺ Ģ
ë° Ķ
ì£¼ ìĿĺ
Ġê¼ ¬
Ġë¨ ¸ë¦¬
Ġê·¸ëłĩ ê²Į
Ġìŀĸ ìķĦ
ëĭ ¬
Ġê· ¼ëį°
Ġëª ĩ
ê² °
ê· ¼ëį°
ì¡ Į
íĻ ©
Ġì» ¤
ë Ī
ĠìķĦ ìķ¼
Ġíİ ĺë¯¸
íĴ Ī
? ?
Ġí ħĲëį°
íķ ¨
ìĥ Ī
Ġìĸ´ë ıĦ
Ġê¼ Ń
ĠëıĮ ìķĦ
Ġíĸī ë³µ
Ġíŀĺë ĵ¤
Ġìĸ´ëĸ» ê²Į
ê ¾¸
ì ĻĶ
Ġìŀ ¼
ê· Ģ
ĠìĬ ¹
Ġëł¤ ê³ł
Ġëĵ ľ
Ġëª ©
ë³ Ħ
Ġì¶ ķ
Ġ... .
ë£ ¨
» Ĳ
í ĳľ
Ĩ Ī
Ġí Ħ°
Ġíķ Ļ
ĠìĤ¬ ì§Ħ
ĠìĤ¬ ìĭ¤
ĠëĮĢ ëĭ¨
Ġì° ½
ì Įį
ħ Ģ
ķ Į
Ġìķ ½
Ġëĭ ®
ĠìĤ¬ íļĮ
ĠëĲ Ĳ
Ġë² ķ
Ġì¡ ´
ĠëĨ Ģ
Ġëŀ Ģ
ĠíĶ¼ íķ´
į ¼
Ġíķ´ ìļĶ
Ġë§Ī ìĿĮ
Ġ2 0
Ġìħ ¨
Ġê±´ë į°
ë ĶĶ
Ł ģ
Ġì ª½
Ġìĸ´ ì©
ê¹ Ĳ
ĠíĮ Ĳ
Ġê´ ľ
Ġìµľ ê³ł
Ġâ Ģ
ìĿ´ íĮħ
¼ë ¦¬
Ġãħ ģ
ëĿ¼ ëıĦ
Ġëħ¸ë ŀĺ
ëı ħ
ĠëĬĲëĤ Į
ì ±
ĠìĿ´ ìľł
Ġëĵ £
Ġìĭľ ê°Ħ
Ġê¸ ī
Ġìĸ´ë ĶĶ
Ġë´Ĳ ìķ¼
Ġëĸ ł
Ł ´
Ġì ·¨
Ġê ½
ãħ ¡
Ġê° ĳ
ìĥ ī
Ġë¯¸ ì¹ľ
!! !!
ĠíĹ Ī
Ġë³¸ ìĿ¸
ë£ Į
íķľë ¯¼
Ġëĺĳ ê°Ļ
ĠìĿ ¼ë
ãħ ĩ
ĠìķĦ ëĵ¤
íķ ł
Ġë³´ ìĹ¬
ëł ¹
ĠëĮĢ ê°Ģë¦¬
ĠìĹĨ ìĿ´
ĠìĥĿ ê²¼
ĠìĿ´ë ¯¸
ĠëĪĦ êµ¬
ĠíķĦ ìļĶ
ë Ń
ĠìĿ´ ê²Į
Ġìĭ ľë°ľ
ëĭĪ ê¹Į
ë° ±
ĠìĦ¸ ê³Ħ
Ġì¡° ìĦł
Ġêµ¬ ë§Į
íĮ Ĳ
ĠìĪ ł
Ġíģ °
íķľë¯¼ êµŃ
° ĺ
ìĿ ĳ
ê¹ ¨
íķľ êµŃ
ĠëĶ Ķ
ëħ ¸
ëĦ Ī
íĻ ľ
Ġíŀĺ ëĤ´
ê ¼
ë Ŀ½
ì ¸
í ľ´
Ġì ¼
Ġê ¿
Ġíķ Ń
Ġìł Ĳ
ìł Ģë
ëŀ Į
ìĸ ¸
Ġíĺ Ĳ
Ġëŀ Ħ
ìŀ¬ ìĿ¸
ĠìĬ¤ íĥĢ
Ġì± ħ
Ġíĺ¼ ìŀĲ
¦ Ħ
ë ¨
ì ¾
Ġì ¥
Ġë ¸
Ġë ½
ĠëĤ ³
¸ë Ŀ¼
Ġê· ¹
ìĽ Ģ
Ġë² Ķ
ĠìĹ¬ ê¸°
Ġìĭľ ì¼
ì² ĺ
ĠìĽ Ķ
Ġíĥ ľ
ìĿ´ë Ł°
Ġíı Ń
Ġì³Ĳ ë¨¹
Ġìłľ ìĿ¼
ĠëĤĺìĺ ¨
Ġì º
Ġê°Ģ ì¡±
Ġìł ľë°ľ
ĠìĦ ľë
Ġì§ ľ
Ġê¸° ìŀĲ
Ġìļ ´
Ġìĭľ íĤ¤
ìľ ¡
ìľ ¼ë
Ġìĸ´ë Ŀ¼
ĠëŃ ĺ
Ġ... ..
ì¦ Ī
łĩ ê²Į
ë ĺ
Ġ 9
Ġë »
Ġë§ Ľ
Ġê°Ģ ëĬ¥
Ġê² Ģ
ê· ¹
ë³ ¸
íĸ ¥
Ġë¶Ī ìĮį
ĠíĻĶ ìĿ´íĮħ
íĹ ĺ
Ġì± Ħ
Ġãħ¡ ãħ¡
Ġëĸ¨ ìĸ´
ì ½Ķ
Ġ )
Ġìĸ´ ìļ
Ġê¸° ëĮĢ
ë¶ Ī
ĠìĤ ¼
ì° ®
ì¤ Į
Ġë¯¸ êµŃ
Ġë¨ ¸
íĽ Ħ
ë ģ
Ġ 8
Ġ ;;
ł ¥
Ġí Ī¬
ĠëĬĶ êµ¬
Ġëĭ¤ ìĿĮ
Īë ĮĢ
íķ ©
ìĹ Ħ
ìľ ¤
ìľ ¼
ĠìĹĦ ì²Ń
íı Ń
ĠìĹŃ ìĭľ
Ġê³Ħ ìĨį
ë¶Ģë ª¨
² Ħ
Ġì ¿
Ġë ¸Į
ĠìķĦ ë¬´
Ġê± į
Ġëª ¸
Ġê·¸ë Ł¼
Ġê·¸ë ŀĺëıĦ
Ģë ĭ¤
ëł ¸
ë° ĺ
Ġëı ¼
Ġëª¨ ìĬµ
íĽ Ī
Ġì Į
ĠëĤĺ ìļĶ
ĠìŀĲ ì²´
Ġì° ¾
ê¸ ¸
ì° °
Ġëª» íķĺ
ĠãĦ ±
Ġê³µ ê°ľ
ë² Ķ
Ġë´Ĳ ëıĦ
ĠìĦ¤ ë¦¬
Ġì¹ľ êµ¬
¦ ½
ì ĵ
Ġë§ Īëĭ¤
ĠìĿĦ ê¹Į
Ġë¹ ¼
ĠìŀĲ ìĭĿ
ĠëįĶ ëĭĪ
íĥ Ħ
ĠíĻ ĺ
íĸ Ī
ìĦ¸ ìļĶ
Ġìĸĺ ê¸°
± ìĿ´
ìķĦ ìĿ´
ĠìĨ ¡
ìĻ ¸
Ġë°Ķ ë¡ľ
Ġê³µ ë¶Ģ
ĠêµŃ ê°Ģ
ìĹŃ ìĭľ
ì´ Ī
Ġê´ĳ ê³ł
~ ~
³ ´
ð Ł
Ġë¶ ģ
Ġì° Į
íķ´ ìĦľ
ëĪ Ħ
Ġì¼ Ģ
0 0
¬ ´
í ģ
Ħ ¸
ĩ ´
Ġí ľ´
Ġìŀ ł
Ġê² ģ
ê° Ī
Ġíķľ ëį°
Ġê±° ëĤĺ
ĠëĿ¼ ë©´
ĠëĮĢ íķľë¯¼êµŃ
Ġì° ©
ĠìĬ ¬
ì¹ ´
Ġê±´ ê°Ģ
Ġìĺ¬ ë¦¬
ëĶ °
Ġêµ° ëĮĢ
Ġê» ĺ
Ġ (
Ġ -
Ġ 7
ĠëĤĺ ìĻĶ
Ġê³ ³
ì° ¸
ê·¸ë ĥ¥
Ġë³´ë Ĥ´
ëĤ¨ ìŀĲ
ĠíĻį ìĸ´
Ġìĸ¸ ìłľ
ĠâĢ ¼
ë ĥ
Ġ %
Ġê ¶ģ
Ġí ħĮ
Ġê° Ķ
ìĹ ´
ĠìĦ¸ ê¸Ī
ĠíĴ Ģ
Ġìį ¨
ĠìĻĦ ìłĦ
¦ ¼
µ ì¾
Ġ "
ī ´
ł ¨
ĠìĿ´ ê±°
ĠìķĦ ì£¼
ĠëĦ £
Ġë° ¥
Ġê· ¼
ìĭ ľëĭ¤
ĠëĤĺ ê°Ģ
Ġìłķ ê¶Į
ìĻ ľ
ë¦ ´
ë¦ ¼
ĠëĬ ¥
ĠìĻĢ ìĦľ
íĻ ĺ
ĠìĺĪ ìģĺ
Ġìļ© ìłĳ
ĠíķŃ ìĥģ
ĠëĬĶêµ¬ ëĤĺ
µì¾ ħ
ë ģ¼
ì į
Ķ ´
ĠìĿ´ ê¸°
ìŀ ¡
ĠìķĦ ë¹ł
Ġë³ Ħ
ĠìĦ ¸ë
ë§ ī
ìĥ Īëģ¼
ĠìŀĲ ìĤ´
ĠëĭĪ ê¹Ĳ
Ġì² Ļ
ĠëĬ ĺ
íĶ Į
ê´ ĳ
Ġë²Ħ ë¦¬
ĠíĺĦ ìĭ¤
Ġê´Ģ ìĭ¬
ĠíĨ ł
Ġê°ľë ı
ê ¿
ĠìĹ ħ
ãħ Ī
Ġë§ ĺ
ìĦ Ń
ê° ±ìĿ´
ëĭ µ
ìł ł
ëŀ Ģ
ĠëĮĢ íĨµ
Ġê¸ Ī
ĠíĻ ©
Ġíı Ĳ
ĠìķĦëĭĮ ëį°
Ġìŀĳ ê°Ģ
ëı Ī
Ġ3 0
ìħ ĺ
¥ ´
Ġê° ĸ
Ġìĭľ ìŀĳ
íĥ ģ
Ġíķľëĭ¤ ê³ł
Ġë¶Ī íİ¸
ë¡ ł
ë¶Ģë ¶Ħ
Ġì±ħ ìŀĦ
ì ª½
ī ¤
Ġìŀ ĩ
ê² ¹
Ġê²Į ìĿ´
ĠìŀĲ ê¾¸
ĠìĿ´ë ²Ī
Ġê·¸ ê²Į
ĠëĨ Ĵ
Ġíĥ ĵ
ĠìĬ¤ ëŁ½
ëŁ¬ ìļ´
Ġë¨ ¼
Ġìħ Ķ
Ġìłľë ĮĢë¡ľ
Ġëĩ Į
¬ ¼
± ìłķ
í ļ¨
Ġ =
ł Ī
ĠìĿ´ ìķ¼
Ġìķ Ķ
Ġë° ĺë
Ġë§Į íĻĶ
ìĸ µ
ìĸ ´ëĤĺ
ĠëĮĢ ë¶Ģë¶Ħ
Ġì¤ Ģ
Ġìłķ ë¶Ģ
Ġë´ Ħ
ë¡ľ ëĤĺ
Ġëĭ¹ ìĹ°
ĠìķĦëĭĮ ê°Ģ
Ġì´ Ī
ìĹĦ ë§Ī
¥ ¸
í ģ¼
Ġ :
ħ Ħ
Ġìł ĪëĮĢ
ìĹ ½
Ġì£ ¼ë
Ġì° Ĳ
ìĨ Ķì§ģíŀĪ
ĠìĹ¬ ìĦ±
Ġëª¨ ëĵł
Ġë¬¸ ìŀ¬ìĿ¸
ë² ķ
ìĶ ¹
íı ¬
Ġë¯¼ ì£¼
Ġê´ľ ì°®
ìľ¼ë ©´
² Į
ë ĳĺ
ì »
ì ½
Ġí ŀ
ĠìķĦ ëĿ¼
Ġê± ±ìłķ
Ġë³ Ħë¡ľ
ìł ľë
Ġìĭ Ń
Ġë¶ Ļ
ìĺ ¨
ĠìĿ¸ ìłķ
Ġë¹ ¡
ĠìĻ ¸ë
ìĬ ¬
ë¬ ´ë¦¬
ì° Į
Ġì£½ ìĿ´
ìħ Ķ
Ġìĭľë ĮĢ
Ġì¦ Ŀ
ĠìĺĪë Ĭ¥
ìī ¬
ŀ Ģ
ĠìķĦ ìĿ´ë
Ġìľ ¤
ĠìĦ ¹
ì§ ķ
ĠìĤ¬ ê³¼
Ġì§ ķ
ê² Ģ
Ġìĥ ī
Ġê¸° ëĭ¤
Ġëĥ Ħ
Ġìłķ ì¹ĺ
Ġì§Ħ ìĭ¬
ĠìĿ´ë Ł¬
ĠìĿ´ë »Ĳ
ìļ° ë¦¬
ĠìłĦ ë¶Ģ
ë² Į
Ġìĥģ íĻ©
Ġìĺģ ìĥģ
Ġìľ¼ëĭĪ ê¹Į
ë ¯
ë Ł
Ġì ©
ĠìĿ´ ê±´
ĠëĤ ¬
Ġìł ĳ
ëŀ Ĳ
ìĸ ¼
Ġìĸ´ë ¦°
ëĮĢ ì²´
ĠëĤ´ ìļ©
Ġíĥ Ī
íĬ ¼
ìĪ Ļ
Ġìĺ¬ ëĿ¼
Ġìī ¬
Ġì¢Į íĮĮ
Łģ ìĿ´
ì± ħ
ĠëĮĢíĨµ ëł¹
° ©
Ġì «
ãħ Ĥ
ìŀĲ ê¸°
Ġë§Į ëĵľ
ìĨ Ĳ
ĠìĿ´ë ¦Ħ
Ġìĺ¤ ëĬĺ
ë² Ī
Ġê¹Ģ ì¹ĺ
Ġë¹¨ ê°±ìĿ´
Ġìµľ ìŀĲ
ĠëĤľ ë¦¬
Ġë°ĸ ìĹĲ
Ġì¶ķ íķĺ
Ġìĸ´ì© Į
ì¤Į ë§Ī
Ġê°ľëı ¼ì§Ģ
£ ¨
Ġ ,
ĠìķĦ ê¹Ŀ
Ġìł Ĭ
ì§Ģ ëŀĦ
Ġë° ľë
Ġìľ ¡
ĠìķĪ íĥĢ
Ġê³ ¨
ìĬ ´
ĠëĤ¨ íİ¸
ĠíĮ ©
Ġì¹ ´
ĠìłĦ íĻĶ
Ġëŀ ĺ
Ġë© į
ìļ´ ìłĦ
Ġì²ĺë ¨¹
ĠíĿ ¬
ĠëĶ° ëĿ¼
Ġíĸī ëıĻ
ĠëĤĺìĺ ¬
ì¸ ł
Ġë²Ķ ì£Ħ
Ġìĭľì¼ ľ
ĠëĬ¥ ëł¥
ĳ ¥
Ľ °
Ġí į¼
ìŀ ĺ
¸ë ŀĺ
Ġíķľ ëĤ¨
ìĭ ¸
Ģë ĵľ
ëĭ¤ ê³ł
ìĽ ł
Ġëı ¼ì§Ģ
ĠìĨ Ķì§ģíŀĪ
Ġì² ´
ëĵ ±
ìłķ ë§Ĳ
ìĭľ ìķĦ
Ġì¡° ê¸Ī
Ġê±´ ì§Ģ
íĮ ¨
Ġëĭ¹ íķĺ
Ġíķľëĭ¤ ëĬĶ
ĠíĹ ¤
ĠëŃĶ ê°Ģ
ë²Ħ ì§Ģ
ê» ĺ
ĠìĿ¼ë °ĺ
Ġìº Ĳ
Ġìĸ´ìļ ¸ë
ìĵ °
ëĥ Ĳ
ìį ¨
ª ©
ª ħ
Ġ 0
Ġ ðŁ
Ĭ Ĳ
Ġë ī´
Ġí Ħ¸
ĠìĿ´ ìģľ
ìĿ ¸ë
Ġë³ ¸ëĭ¤
ãħĭãħĭ ãħĭ
ĠìĤ¬ ìĿ´
Ġì¢ ĥ
ĠìĻ Ķ
Ġìļ ¸
ì£ ½
ì° ¬
íĥ Ŀ
Ġì¹ ĺë
Ġíĥ Ħ
Ġê³µ ìĤ°
ĠëĬ Ļ
Ġì§ĳ ëĭ¨
Ġíķ´ìķ¼ ì§Ģ
íĹ Ī
Ġëĵ¤ìĸ´ ê°Ģ
íĨł ë¦¬
Ġì¥ Ĳ
£ Į
³ ¤
ë Į
Ġ 6
Ġì ¯
ìķ Į
Ġê±° ë¦¬
Ġê±° ê¸°
ëĿ¼ ìĿ´
Ġê¹ Ģë
ìľ ¨
ĠìĤ ´ë
ĠìĥĿ íĻľ
Ġìĸ´ë ł¤
Ġê·¸ ê±¸
ì£¼ ìļ´ìłĦ
ĠìĨĮ ìĨį
ìĭ¬ íŀĪ
íĬ ¸ë
ì¢ Ĩ
ëª ©
Ġëģ Į
ê» ´
Ġê·¸ëŀĺ ìĦľ
ĠíĶ¼íķ´ ìŀĲ
Ġë» Ķ
ì ¿
í Ĥ
í Ī
ĩ ¼
Ġì ½
ĠìĿ´ íĺ¼
Ġê°Ģ ìĪĺ
Ġìĸ ¸ë
Ġãħ Ĩ
ĠìĿ¸ ê¸°
ĠìŀĲ ìľł
ĠìĻ ķ
Ġêµ ³
ìĽ ĥ
ìĽ Ķ
Ġíĸ ĩ
ëĵ ľë
Ġê°ľ ìĨĮë¦¬
Ġê·¸ ê±°
ĠíĶ ¼ë
ì¢ Į
ìĪ ľ
ĠíĽ ¨
Ġë§¤ ëł¥
íĺ¸ ì¤ĳ
ëŃ Ĳ
Ġì¿ µì¾ħ
Ġë¶ģ íķľ
Ġê¶ģ ê¸Ī
í ħ
Ģ ëŀ
ģ Ħ
Ġí ĳ
Ġë§ ¨
Ġìł ¸
ĠìĹĲ ìĦł
ìļ ķ
´ë ĭ¤
´ë Ŀ¼
ĠëıĦ ëĮĢì²´
ĠëĤĺ ìģľ
ì§ ĵ
ìĹ Ī
Ġë³´ ê³ł
ê°Ģ ì§Ģ
Ġë§Į íģ¼
Ġë¹ Į
ĠëĮĢ ë¡ľ
ëĵ Ŀ
ĠìĥĿ ê¸°
Ġëª¨ ëĳĲ
Ġìĵ ´
Ġìĵ ¸
ìĥĿ ê¸´
ĠêµŃ ìĤ°
Ġëĵľë ¦½
Ġë¹¨ ë¦¬
íı Ĳ
ĠìĽĥ ê¸°
ëĶ ©
Ġì¤ĺ ëĿ¼
Ġì²ĺ ìĿĮ
ìłĢë Ł°
Ġë¸ Ķ
Ģëŀ Ģëĵľ
¦ ´
² ķ
¹ íĪ
Ġê ¾¸
Ġëĭ¤ ë©´
ĠìķĦ ì¤Įë§Ī
ê° Ķ
ëĭ ´
´ë °
ĠìĤ¬ ê±´
Ġë¬ ¼ë
ĠëĥĲ ê³ł
Ġìĭľ ì²Ń
ĠëįĶ ë§Į
Ġì² ł
Ġìĸ´ë ĬĲ
Ġê°ľ ìĿ¸
Ġê·¸ ê²ĥ
Ġë¶Ģë Ł½
ĠìŀĦ ìĭł
ëĦ Īë¬´
íĻ į
Ġê²° êµŃ
ëĭ¹ íŀĪ
Ġëģ ¼ë¦¬
Ġì§ģ ìĹħ
Ġë©ĭ ìŀĪ
Ġì§± ê¹¨
Ġëľ ¨
¹íĪ °
- -
ê º
ì µľ
Ħ ¤
ĠìĹ ł
Ġê° ģ
ĠëĤ «
ëĭ ĺ
Ġë° Ŀ
ľë ıĻ
Ġì§ ¤
ìĺ Ģ
ĠìĿ¸ ìĦ±
ĠìĿ¸ íĦ°
Ġë¹ µ
Ġ! !!
ìĬ¤ íĬ¸
ĠìłĦ ëĿ¼ëıĦ
Ġì¤ĳ ìļĶ
ë¯¸ ì¹ľ
Ġì°¨ ìĿ´
ìĶ ¬
Ġìļķ ë¨¹
ì°¨ íĶ¼
Ġìĸ´ëĸ ¤
Ġíĭ° ë¹Ħ
¡ Ń
ë Ĩ
ë ĨĪ
ı Į
ŀ ¨
Ġí ļ¨
Ġê³ł ìĿ¸
ĠëĤ ľëĭ¤
Ġì§Ģ ì§Ģ
ĠìĤ¬ ê¸°
Ġìļ ´ë
Ġìłķ ìĥģ
ë¥ ¼
íĥ ķ
ìĪĺ ë¡Ŀ
ĠìĹ° ìķł
Ġì¡° ìļ©
ìĺ¤ ëĬĺ
ĠìĦ± ê³µ
ĠìĬ¤ íĨłë¦¬
Ġíı °
Ġë³ĳ ìĽĲ
ĠìłĢë łĩê²Į
Ġê°Ĳ ìĤ¬
ĠíĹ ¬
Ġê´Ģ ê³Ħ
Ġì¢Ĩ ê°Ļ
Ġíıī ìĥĿ
ĠìĹ´ ìĭ¬íŀĪ
ĠëĤĺìĻĢ ìĦľ
ĠëłĪ ê¸°
ĠëıĮìķĦ ê°Ģ
Į ãħ
ł ¸
Ġì ĳ
Ġì Įį
Ġë Ŀ
Ġë Ľ°
Ġíķĺ ê³ł
Ġê³ł ìĨĮ
Ġìł Ī
ëĭ ¥
ìķ ¡
Īë ł¤
Ġë° Ģ
ìļĶ ì¦ĺ
ìķĦ ë¨¹
ĠìĽ Į
ãĦ ¹
ë¹ Ī
Ġìĺ¤ ëŀĺ
ĠãĦ ²
ìĤ ¼
ĠìĦ± ê²©
Ġë°Ķ ëŀ
ìŀ¬ íĺĦ
ë² ł
ĠìłĢë Ł¬
Ġìŀ¥ ëĤľ
ĠëĴ ·
Ġëħ¸ë ł¥
Ġì¤ĺ ìķ¼
Ġìŀ¬ë¯¸ ìĹĨ
Ġê±¸ë ¡ľ
Ġê¿ Ģ
§ ¤
ì ³¤
í į¼
ĵ ł
ìĿ µ
ĠìķĦ ê¹Į
ê° ľë
ìĿ´ ê±°
ì§ Ĳ
ë§ Īë
Ġìĺ Ĩ
Ġê¸° ë¶Ģ
Ġê¸° ìĪł
ìĸ ĺ
Ġì¢ĭ ìķĦ
Ġíĺ ľ
ì² ł
ìĸ´ ì§Ģ
Ġì¹ ¼
ĠìĶ ©
Ġë¬´ ìĦŃ
ìĻ ķ
Ġìľ¼ë©´ ìĦľ
ì¢ ĥ
ĠìĺĪ ìģľ
Ġê¹¨ ë¬¸
ĠìĥĪ ê¸°
ĠëĤ´ë ł¤
ĠíĴ į
ĠíļĮ ìĤ¬
Ġì¶ľ ìĹ°
ìī ½
Ġê½ ĥ
ëĺ Ĳ
Ġì°Ĳ ëĶ°
ëŁ ī
ĠíĽ¨ ìĶ¬
¬ ¸
Ġë º
Ġê ¾
Ġí ĩ´
ĠìĿ´ ë¦¬
ê° ĳ
ê° Ĵ
Ġì§Ģ ëĤĺ
ìļ ±
Ġìĸ ¸ëĭĪ
Ġëĭ ´
ì§ ¸
ľë ¸Į
ĠëĿ¼ ìĦľ
Ġìľ¼ë ł¤
ëĤĺ ëĿ¼
Ġë¹ Ļ
ìķĦ ê°Ģ
ĠëĮĢ íķľ
ìĬ ·
ĠëĨ į
ĠìĹ° ìŀ¥
Ġì¡° ìĤ¬
Ġì¡° ìŀĳ
Ġìĺ¤ ì§Ģ
Ġë¶Ģë ¶Ģ
ìĹ° ê¸°
Ġìĥģ ê´Ģ
Ġëĭ¹ ìĭł
ê·¸ë ŀĺ
ê·¸ë ŀĺëıĦ
ê·¸ë ŀ¨
ìĭ¤ íŀĪ
ĠëĪĦ êµ°
ëĬ Ĳ
ĠìĽĲ ëŀĺ
ĠìĪ ¨
ì¡° ê±´
ëį ĺ
Ġê´Ģ ë¦¬
Ġë¿ Į
Ġê·Ģ ìĹ½
Ġì½Ķ ë¡ľëĤĺ
ĠìĤ° ëĭ¤
Ġëĩ ¬
ĠìĬ¹ ë¦¬
Ġë½ ĳ
ìľ¼ ëĭĪ
íģ Ĳ
ĠìĿ´ìķ¼ ê¸°
Ġëī´ ìĬ¤
ëĮ ĵê¸Ģ
© ëĭĪëĭ¤
ë Ĥ¬
ãħ ħ
Ġê° ļ
Ġê°Ģ ìłķ
Ġê°Ģ ìł¸
ĠìķĦ ìī½
íķ ľëĭ¤
Ġãħ £
Ġì§ Ĳ
Ġê¸° ìķĪ
Ġê¸° ë¶Ħ
ĠìŀĲ ë¦¬
ĠëĮĢ ìĥģ
ĠëĮĢ ë°ķ
Ġì¡ Į
ìłķ ìĭł
ë¥ ĺ
ĠìĥĿ ê¸´
Ġëķ Ĳ
Ġëķ ľ
ê³ ¨
Ġì¹ ¨
Ġìĺ¤ ë¹ł
Ġë© Ģ
ĠìĦ± íĺķ
Ġë°Ķ ëŀĮ
Ġìľł ëªħ
íĶ Ī
Ġìĥģ ëĮĢ
ì¦ Į
.. ..
ĠëĦĪ íĿ¬
ĠíĿ ¥
Ġê²½ ìłľ
ĠíĶĦë¡ľ ê·¸ëŀ¨
Ġìŀ¬ë¯¸ ìŀĪ
Ġíĺ¸ ê°Ĳ
Ġ4 0
Ġê°ĳ ìŀĲê¸°
ĠìĿ´ë¯¸ ì§Ģ
ĠìĦľë ¡ľ
Ġìļ´ ìłĦ
¨ ¸ëĭĪ
ê ¶ģ
ë ´
ħ ¸
Ł ¤
ĠìĿ ½
Ġìķ ī
Ġìŀ Ķ
ĠìķĦ ëıĦ
ĠëıĦ ë¡Ŀ
Ġíķľ ìĭ¬
íķ ĺë
ìĭ Ń
ë§ ŀ
Ġìĺ ·
ê² ¬
Ġìĥ Īë
ëĿ¼ ì§Ģ
ìĺ ¥
ì¹ ¨
Ġê°ľ ìĥĪëģ¼
ĠìĽ ¹íĪ°
Ġë¬´ ì¡°ê±´
Ġë¹Ħ ìĬ·
Ġë¶Ģë ¶Ħ
ĠíĻ ľëıĻ
Ġì£½ ìĹ¬
Ġê°Ĳ ìłķ
Ġëªħ ë³µ
Ġìĺ¬ ëł¤
Ġì± Ļ
Ġì´ Īë
ì¼ Ģ
ĠìĬ¤íĥĢ ìĿ¼
Ġíľ´ ê°Ģ
ĠìķĪíĥĢ ê¹Ŀ
Ġ s
Ġ x
į ëĭĪëĭ¤
ļ ±
Ġì ŁģìĿ´
ìĿ Ħ
ĠëĤ ®
ĠìķĦ íĶĦ
Ġìł ¤
ìĿ´ ìłľ
ì§Ģ ë§ī
íķ Ħ
ì§ Ŀ
Ġê±° ìĿĺ
ĠìĤ¬ ê·Ģ
Ġë³´ ìŀĦ
Ġê¸° ìĸµ
Ġê·¸ë ŀ
Ġê·¸ë Ł´
Ġë¬ »
íĺ ģ
Ġì° ¬
ĠìĥĪëģ¼ ìķ¼
Ġê´ Ģë
Ġìĭł ê²½
ê´ ´
ĠëĦĺ ìĸ´
ĠìľĦ íķ´
ìĽĮ ìĦľ
ĠëĬĲ ê»´
ĠìĹŃ ê²¹
ì¢ħ ìĽĲ
Ġì» ¨
íĭ Ģ
ë© Ķ
Ġì¦ Ĳ
Ġë³µ ê·Ģ
Ġíĳľ íĺĦ
ë¨ ¸
Ġê²ģ ëĤĺ
Ġëĭ¹ìĹ° íŀĪ
Ġë¯¼ì£¼ ëĭ¹
ĠìĻ¸ë ª¨
ĠìĦ¹ ìĬ¤
Ġìĸ¸ë ¡ł
Ŀ ¤
ĠìķĦ ê°Ģë¦¬
ĠìķĦ ë¬´ë¦¬
ìĿ´ ê²Į
ì§Ģ ë§Į
Ġëĭ Īëĭ¤
ĠëĤĺ ì¤ĳ
Ġìĸ´ ì°¨íĶ¼
ê°Ģ ëĭ¤
ĠëĿ¼ ëĭĪ
ëĿ¼ ë¦¬
ìĺ ¬
ĠìŀĲ ëŀĳ
Ġì¤ ¬
Ġìłķ ìĿĺ
Ġìĭľ ìłĪ
ë¶ ģ
ĠëĨ Ķ
Īë¬ ¼
ĠìĤ´ ìĿ¸
Ġë¬´ ìĭľ
ì¶ ķ
ł¤ ìļĶ
Ġë¶Ģë Ł¬
Ġê´ ´ë
ıĻ ìĤ°
Ġëĵ¯ ìĿ´
íĬ ľë¸Į
ĠìķĦëĭ Ĳ
ĠìĦł íĥĿ
Ġìŀ¥ ë©´
ĠìľĦ ìŀ¥
ĠëıĻ ìķĪ
Ġìķħ ë§Ī
ìł¸ ìĦľ
Ġë§Ŀ íķĺ
ë³ĳ ìĭł
Ġ5 0
Ġíŀĺë ĵł
ĠìĻ¸ êµŃ
Ġì»¤ íĶĮ
Ġë¨¼ ìłĢ
ĠìķĦìĿ´ë ıĮ
ĠëĥĦ ìĥĪ
Ġêµ³ ìĿ´
Ġìļ´ë ıĻ
Įãħ Ĭ
> >
³ µ
ã Ĩ
ë ·
ħ ìĭł
Ġíķ ĳ
ĠìĿ´ ëŀĺ
ìĿ ¸ëĭ¤
ìŀ Ķ
Ġíķľ ë²Ī
ì§Ģ ê¸Ī
ì§ ±
ĠìĤ¬ ê³ł
Ġìĺ Ľ
Ġê¸° ìĹħ
Ġë§Į ëĵł
Ġëį ķ
Ġë¹ ķ
ĠìŀĲ ë¹ł
ìķĦ ì¹ĺ
ĠëĮĢ ì²´
ĠìĪĺ ìŀħ
Ġì² ¨
Ġíĺ ĳ
Ġê¸ ¸ëŀĺ
ì¤ Ħ
Ġë§Ī ìĭľ
Ġë§Ī ìĦ¸ìļĶ
Ġê±´ ê°ķ
Ġë°Ķ ë¦¬
Ġëįĺ ê°Ģ
ë¯¸ ìķł
Ġë´Ĳ ìĦľ
ĠìĺĪ ìłĦ
ĠëıĻ ëĦ¤
Ġê²½ ê¸°
Ġëł¤ ëĬĶ
ĠíĤ¤ ìļ°
Ġãħĩ ãħĩ
Ġë°± ìĭł
Ġìī ½
ë© °
ë°° ìļ°
Ġìĳ ¤
Ġê·¸ëŀ ¬
ãĨ į
2 0
© Ķ
ì ·¨
ì Łģ
Ħ Ī
Ħ ëĿ¼
ĵ ±
Ġì ĩ¼
Ġí ĮĢ
ĠìĿ´ ìģ
ĠìĿ´ ìļ©
ĠìĿ´ ê²ĥ
ĠìĿ´ íĽĦ
ĠìĿ´ ìłł
Ġìŀ Ĭ
Ġëĭ¤ ë¥´
Ġëĭ¤ íģĲ
Ġê°Ģ ìĬ´
Ġê² Ł
ĠìķĦ ë¦Ħ
Ġì§Ģ ìļĶ
Ġë° ¤
Ġëĭ ¥
ìĹ ĺ
Ġë³´ ëĭ¨
ĠëĲ ©ëĭĪëĭ¤
ĠìŀĲ ìĭł
Ġëħ ¼ë
Ġì¤ Ģëĭ¤
Ġ~ !!
ĠìĬ Ī
ĠëįĶ ëŁ½
ĠìĤ ¶
Ġìłģ ëĭ¹íŀĪ
Ġìķł ë¯¸
Ġë°Ķ ê¿
ìŀ¬ ìĦĿ
ìĿ´ë ²Ħ
ëĦ Ĳ
ĠíĬ ¼
Ġê¹Ģ íĺ¸ì¤ĳ
ĠìĦł ìĥĿ
íİ ĺ
Ġê²½ ì°°
Ġìŀĳ íĴĪ
Ġì´ Ŀ
ĠêµĲ ìľ¡
ĠìĪľ ê°Ħ
Ġëª© ìĨĮë¦¬
Ġë©į ì²Ń
Ġì¹ĺë £Į
í ĩ´
í ī¤
Ġ +
Ġë ±
Ġë İ
Ġí ī¤
Ġê° ľë°ľ
Ġíķĺ ì°¨
Ġíķĺ ë£¨
Ġê°Ģ ë¥´
¸ë ¡ľ
ìĿ´ íģ¬
Ġìĭ ¹
Ġì§ ¸
Ġì§ Ŀ
Ġê·¸ë ĮĢë¡ľ
ĠìĿĺ ë¯¸
Ġë¹ ļ
ĠëĮĢ íĳľ
Ġë¥ ł
Ġ~ ^^
ë³ Ģ
ĠëįĶ ëŁ¬ìļ´
ì¡ ´
Ġë§Ī ìķ½
ì¶ °
Ġë°Ķ ëĿ¼
Ġë¶Ģë ģĦ
Ġë¶Ģ íĥģ
ê·¸ë Ł¬
Ġë²Ħ ëł¤
ĠíĹ Īë
ìĸ´ë Ĥ
íı ī
Ġê°ķ ê°Ħ
Ġì§Ī íĪ¬
ìľĦ ê¸°
Ġë°ĺ ìĦ±
íĺľ ìĦł
íĺľ êµĲ
Ġíİ¸ íķĺ
ĠëĤĺìĺ¨ ëĭ¤
Ġì§ľ ì¦Ŀ
Ġ8 4
ì½ ©
ìĵ° ëłĪê¸°
® ¤
ë Ł°
Ġ ;
Į ë¥
Ġë ¡
Ġìķ Ļ
ĠìĹ ¿
ĠìĹ ī
Ġê°Ģ ìŀ¥
Ġê°Ģ ê²©
Ġê² ¨
ĠìķĦ íĮĮ
Ġì§Ģ ìĽĲ
ìĿ´ ê±´
ìĿ´ íĶĦ
ê¸° ìķĪ
Ġìĸ´ ì°Į
Ġë³´ ìĪĺ
Ġê·¸ë ķĮ
Ġê¹ Ķ
ê· ł
ìĨ Ķ
ĠìĹ¬ ëŁ¬
Ġì¡ ±
ë¬ ´ë
ĠìĨ Ķ
Ġì£¼ ìŀĳ
ĠìĿĮ ì£¼ìļ´ìłĦ
íŀ Īëł¤
Ġëª» íķľ
ĠëķĮ ë¦¬
Ġë§Ī ì§Ģë§ī
ìĹ¬ ê¸°
ĠëĪ Īë¬¼
Ġëįĺ ì§Ģ
Ġ1 8
Ġìĭł ê¸°
Ġë¯¸ ê°ľ
Ġê³¼ ê±°
Ġìĥģ ìĥģ
Ġìŀħ ìŀ¥
ĠëĺĲ ëĿ¼ìĿ´
ĠìľĦ íķľ
ĠëĬĲ ëģ¼
Ġê²½ ìļ°
Ġê°Ħ ëĭ¤
ĠìĿ¸ê°Ģ ìļĶ
ĠíĬ¹ íŀĪ
Ġ10 0
ìĦ¤ ë¦¬
ì± Ħ
Ġê¿ Ī
Ġëĸ¨ìĸ´ ì§Ģ
Ġë²Ķì£Ħ ìŀĲ
Ġë§¨ ëĤł
Ġë¬¼ë ¡ł
Įë¥ Ń
³ ĳ
¶ Ģë
ë ¸
ë ¸Į
Ġ ãĨį
ĺ ì§Ģ
Ġí Ģ
Ġê° Īë
Ġê³ł ìĥĿ
ĠìķĦ ëĥĲ
ëĭ Ĳ
ĠìĹĲ ìļĶ
ĠëĦ Ĳ
ľë Ŀ¼
Ġëª ¸ë
ĠìĿĺ ìĤ¬
Ġê³ §
Ġë¹ Ī
ê¹ Ģë
Ġ! !!!!
ĠìĹ¬ íĸī
Ġìĭľ ê¸°
ì¹ ľë
Ġì£¼ ìłľ
ĠìĿĮ ìĭĿ
Ġìĸ´ë Ķ
ì° ©
Ġìĺ¤ íŀĪëł¤
Ġë¬¸ íĻĶ
ĠìĤ´ ìķĦ
Ġë°Ķ ë
Ġë¶Ģë ¥´
ìŀ¬ ë°Į
Ġëħ¸ ê°Ģëĭ¤
ìĿ´ë Ł¬
Ġìľł íĬľë¸Į
Ġëĭ¹ íķľ
ĠìłĢë łĩ
Ġë¶Ħ ìľĦê¸°
Ġê²° ê³¼
ìĻĢ ìĦľ
Ġëĸ ¡
Ġê°Ĳ ëıħ
ĠíĿ Ĳ
Ġë²Į ìį¨
íĹ Į
Ġëł ¨
Ġìĭ¬ íķĺ
Ġëĵ± ê¸ī
ìħ ī
Ġãħİãħİ ãħİ
Ġâ Ŀ¤
Ġëª° ëŀĲ
ìĶ¨ ë°ľ
Ġì§ĵ ê±°ë¦¬
Ġì§ģ ìĽĲ
Ġë©ĭ ì§Ħ
Ġìłľë ª©
Ġë¶Īë ²ķ
Ġë½ ķ
ëģ Ķ
Ġíŀ Ī
Ġê¸°ëĭ¤ ë¦¬
íĤ ¨
Ġê¾ ¼
¤ ë²Ħ
§ Ī
ê ½
ë ĸ
ì º
ľ ¨
Ġì ª
Ġí ĩ
ĠìĹ ĩ
Ġê°Ģ ì§Ħ
¸ë ĮĢ
Ŀ¼ ê³ł
ĠìķĦ ë²Ħì§Ģ
Ġìł ĸ
Ġì§Ģ ì¼
Ġìĸ »
ìķ ŀ
ìĭ ±
ìĭ ľë
ìĭ ľë°ľ
Ġê±° ì§ĵ
ê¸° ìĤ¬
ìŀĲ ì§Ģ
ĠìĻ ł
ìĬ Ī
Ġìĭľ ìŀ¥
Ġì£¼ ìĿ¸
ì§Ħ ìĺģ
ë§Į íŀĪ
íŀ Į
ĠìĿ´ë Ķ´
ë¹ ¨
Ġë¬´ ìĭĿ
Ġìĭł ìķĦ
Ġìĥģ ì²ĺ
íĺĦ ë¬´
ľë° ķ
Ġë²Ħ ë¦°
ĠíĽ Įë¥Ń
¼ë³ ´
¼ë³ ĳ
Ġë²Į ëłĪ
Ġëĵł ê°Ģ
ëı Į
Ġìłķìĭł ë³ĳ
Ġê·Ģ ìĹ¬
ĠìĺĪë »Ĳ
Ġë¯¸ë ª¨
Ġì¥ ¬
Ġìĸ´ìļ ¸ë¦¬
Ġìļ©ìłĳ ê³µ
ĠìŀĲë¹ł ì¡Į
Ġë°Ķë Ģ
£ ¹
Ġ c
Ī ĦëĿ¼
Ļ ¥
Ġì ¸
Ġì ı
Ġì Ł¤
Ġíķ ĢëŀĢëĵľ
Ġê° ĵ
ìĿ ¼ë³¸
ìĦ ¼
Ġíķľ ê°Ģ
Ġë° ĳ
ĠìĦ ¼
ë§ Ľ
Ġãħ Ĳ
ĠìĤ¬ íĺķ
Ġê¸° ë³¸
Ġíķ´ ê²°
Ġê³ ±
Ġì° ¢
ê· ľ
ĠìĹ¬ ë¡ł
Ġìłķ ì±ħ
Ġì² «
íĥ Ī
Ġì¡° ìĭ¬
Ġë¶Ģë ıĻìĤ°
ĠìłĢ ê±°
íĮ Ķ
Ġì°¨ ëĿ¼ë¦¬
ĠìĥĿê°ģ ëĤĺ
ĠíĬ Ģ
Ġê¹Ģ ìłķ
ìłĢ ìĶ¨
ĠìĺĪ ìļĶ
¼ë³ Ģ
Ġìħ Ī
ĠìĹŃ ê²¨
Ġë§¤ ìĿ¼
ìĹĨ ìĿ´
Ġì¶© ë¶Ħ
Ġ~~~ ~
Ġìĸµ ìļ¸
Ġëľ »
Ġìĸ´ìķ¼ ì§Ģ
?? ??
Ġê´ľ íŀĪ
Ġì·¨ ê¸ī
ëŃ Ķ
ê¼ ¬
Ġë¸ ħìĭł
Ġê²Ģ ìĤ¬
Ġê²ģ ëĭĪëĭ¤
ìłľë ¡ľ
Ġê³µìĤ° ì£¼ìĿĺ
êº ¼
Ġì¡°ìļ© íŀĪ
Ġë°Ķëŀ įëĭĪëĭ¤
ë§Īë ĶĶ
Ġëª¸ë §¤
ì ¯
Ġ /
Ġ k
Ń ìĿ´
Ġíķĺ ëĬĺ
Ġê³ł ë§Ī
ĠìķĦ ìłĢìĶ¨
Ġì§Ģ ë¯¼
Ġì§Ģ ëĦ¤
ĠìĹĲ ëĭ¤
ìķ ķ
ĠëıĦ ìĻĢ
Ġëĭ ´ë°
Ġê· ľ
Ġìľ ¨
ĠìĤ¬ ìŀ¥
ëĤĺ ìĿ´
ëĤĺ ëŀĺ
Ġëį ľ
ĠìŀĲ ëĿ¼
ìķĦ ëĵ¤
Ġì¡ ¸ëĿ¼
Ġìĭľ ì¦Į
Ġíĺ ¸ë
ĠìĿĮ ìķħ
ĠìĿ¼ ëĭ¨
íŀ ĺ
Ġìķł ê¸°
Ġêµ¬ íķĺ
ìĹ¬ ê°Ħ
Ġë¬´ ìĦľ
Ġë© ¤ë²Ħ
Ġë¹Ħ íķĺ
Ġë¹Ħ ëĤľ
ĠíĻ ľ
ë¬¸ ìŀ¬ìĿ¸
ì¢ Ģ
Ġíķ¨ ê»ĺ
ìłĢ ê¸°
íĻ ķ
ĠíĻĶ ìŀ¥
Ġìĭ¤ ë§Ŀ
Ġì²ĺë ²Į
ëŁ¬ ìĽĮ
ì¤Ģ ìĺģ
ĠëıĮ ë¦¬
ë¡ ±
ĠíĿ Ķ
Ġê·¸ëŁ° ì§Ģ
Ġë°©ìĨ¡ êµŃ
ë°© ë¶Ģ
ëĶ ±
Ġìĸĳ ìķĦì¹ĺ
Ġë¯¼ ì¡±
ĠíĻį ë³´
Ġíģ ´ë
Ġìį ©
Ġë¶Īë Ł¬
Ġì¶ľ ìĭł
Ġë¯¸ë ŀĺ
ĠíĦ° ì§Ģ
ëĦĪ íĿ¬
ĠìłĲ ìłĲ
Ġì°© íķľ
ĠìĦ¸ë ģ¼
Ġë°ĺë ĮĢ
Ġìľ¼ëł¤ ê³ł
Ġë°Ķê¿ Ķ
¥ ĺ
ë ĥ¥
Ġ ^
Ġ m
Ġ t
ħ ëĭĪëĭ¤
ĳ ìĨĮ
ľ ĺ
Ġìķ Ĺ
Ġìķ Īë
ĠìĹ ´ë
ĠëĤ Ļ
Ġê°Ģ ë¦¬
ê° Ŀ
ëĭ Īë
Ġê± ¸ë¦¬
ìł ľë°ľ
ìł ¸ëĿ¼
ĠëĦ Į
Ġíķľ ë§ĪëĶĶ
Ġëĭ ·
Ġëĭ Īë
íķ µ
ê¸° ìŀĲ
ìĹ ¼
ê°Ģ ëĿ½
Ġì£ ¼ë³Ģ
ĠìŀĲ ê³ł
ĠìŀĲ ìĹ°
Ġê¹ ľ
ë° ¥
Ġì¤ Į
Ġìłķ ë³´
Ġì¡ ¸
ì¹ ł
Ġê·¸ ê±´
ĠíĶ Ħ
ĠìłĦ íĺĢ
Ġìŀ¬ ìĤ°
Ġêµ¬ ëĿ¼
ì¶ ĺ
ĠìłĢ ê²Į
ë² ½
ĠìķĮ ëł¤
ë¦ ½
ë¦ Ń
Ġë¯¸ ìķĪ
ê·¸ë Ł¼
ĠìķĦëĭ Ļ
ëł¤ ê³ł
Ġìļ° íĮĮ
Ġëĵľë ł¤ìļĶ
ì¤ĳ ê¸°
Ġìĭ¤ ëªħ
íİ ĺë¯¸
ëį ¸
ĠìĦ¤ ìłķ
Ġê³Ħ ì§ĳ
Ġëħ¸ë ¬´
Ġë¹ł ì§Ģ
ĠëįĶëĿ¼ ëıĦ
ëĶ ¸
ĠëĴ¤ ì§Ģ
Ġìĸĳ ë°ĺ
Ġëª° ëł¤
ĠëŁ¬ ìĭľìķĦ
Ġ?? ?
Ġ~~~ ~~
Ġíĺ¸ êµ¬
ë© į
Ġìĸµ ì§Ģ
Ġì²Ń ìĽĲ
ĠíķĻ êµĲ
Ġìĸ´ì© Ķ
Ġëĺĳê°Ļ ìĿ´
ëģ Ĺ
Ġì°Į ì§Ī
ê¿ Ģ
Ġì¦Ŀ ê±°
ë¯ ¸ë
ĠìĿ¼ë°ĺ ìĿ¸
ĠðŁ Ĳ
ìĿ¸ë ĵľ
íħ Ķ
ê·¸ëŀĺ ìĦľ
ëįĺ ëį°
Ġê´´ë ¡Ń
ë· °
Ġëĭ´ë° °
³ Ħ
í Ĥ¬
Ĩ ĵ
ł µ
Ġíķ §
Ġ. ?
ĠìĿ´ ìĬ¹
Ġìŀ ĥ
Ġëĭ¤ íĸī
Ġëĭ¤ ëħĢ
ĠìķĦ ê¸°
Ġê± ·
Ġë³ ¸ë
ìł ĵ
Ġëĭ Ń
íķ ´ë
ĠëĤĺ ê°Ħ
ë§ ¨
ë§ İ
Ġê±° ì§Ģ
Ġãħ Ĭ
ĠìĤ¬ ìĹħ
ĠëĦ¤ ìĿ´ë²Ħ
Ġëª ½
ê² ģ
Ġë³´ ìĨĮ
Ġë³´ ìĿ¸ëĭ¤
Ġê¸° ìĥĿ
Ġê·¸ë £¹
ĠìĿ¸ ìĤ¬
ĠìĿ¸ ê¶Į
Ġëį ®
ĠìŀĲ ê·¹
ìķĦ ë¬´ë¦¬
Ġê¹ ¡
Ġë² ¤
Ġë² Ĺ
ë³ ¼
ĠìĪĺ ì§Ģ
Ġê¸ Īë
Ġìĸ´ë ¨¸ëĭĪ
ì§Ħ ëĭ¤
Ġëķ ħ
ì¤ ĺ
ìĬ¤ íģ¬
ì¡ ´ëĤĺ
ĠëĶ ©
Ġë§Ī ìĿ¸ëĵľ
Ġë¬¸ ìŀ¬
ĠëħĦ ëĨĪ
Ġë¹Ħ ìĭ¸
Ġë¹Ħ ìľ¨
Ġë°Ķ ë³´
Ġë°Ķ ê¾¸
Ġë¶Ģë ĮĢ
Ġ1 9
ĠìĬ¤ ëŁ°
ìĿ´ë ²Ī
Ġë¯¸ ì³¤
Ġìľł ì§Ģ
ìĹ° ìĺĪ
Ġì°¨ ë¦¬
Ġë¨¹ ìĿ´
Ġëĭ¹ íĸĪ
ê·¸ë §Į
ê·¸ë ħĢ
ëĦ ·
Ġìĺģ ìĽĲ
Ġíİ ĺ
ĶĶ ìĸ´
Ġíķ© ìĭľëĭ¤
Ġìŀ¥ ìķł
ĠíķľêµŃ ìĿ¸
ìĶ Ģ
Ġìĭ¤ ëł¥
Ġìĭ¤ ìłľë¡ľ
Ġëģ Ĭ
Ġìµľ ìĨĮ
ĠíĺĦ ëĮĢ
ì¢ħ êµŃ
Ġì¶Ķ ë¯¸ìķł
Ġëĵ± ëĵ±
Ġë°ĺ ìĿĳ
Ġëª° ëĿ¼
Ġê°ľë ħĲ
Ġë§Īë ĪĦëĿ¼
ĠíĬ¹ ì§ķ
ĠíĻķ ìĭ¤
Ġë¬´ë ĮĢ
ê·¼ íĺľ
Ġëĸł ëĤĺ
ĠíĺĲ ìĺ¤
Ġì±Ħ ëĦĲ
Ġ8 0
Ġì°© íķĺ
Ġê·¼ ê±°
ĠìħĶ ìĦľ
ìĸ¼ êµ´
Ġì« Į
Ġíĩ´ ì¶ľ
Ġê´Ģë ł¨
ĠìĺĽ ëĤł
ìĿ´ëŁ¬ ìĬ¤
¨ ¸
ë ±
ĵ ¯
Ġë £¨
Ġê° Ĵ
ìĿ ¼ë
Ġê³ł ê¸°
Ġëĭ¤ ìĿ´
Ġëĭ¤ ë¦¬
Ġë§ ¹
ìŀ ł
Ġê² ¬
ĠìķĦ ìŀ¬
ĠìķĦ íĶĪ
ìķ Ķ
ĠëıĦ ë§Ŀ
ìĿ´ ìĥģ
íķ ĢëŀĢëĵľ
ĠëĤĺ ëĮĢ
Ġê±° ëĵł
ĠìĤ¬ ìĦ¸ìļĶ
ĠìĤ¬ ëĥ¥
Ġì§ ł
ìĹ ĩ
Ġìĸ´ íľ´
Ġë¬ ĺ
ĠìŀĲ ì§Ģ
Ġëħ ¼ë¦¬
íĺ ¹
íĺ ¸ë
Ġì° Ķ
ê¹ Ķ
Ġ~ !
ê± į
Ġì£¼ ìŀ¥
ĠìĪĺ ìĤ¬
Ġë§Ĳ ìĶĢ
ĠëĤ¨ ì¹ľ
ë¥ ¸ëĭ¤
ĠíĸĪ ìĹĪ
ĠìĥĿ ê²¨
Ġë´ ī
ê³ ¤
Ġìķ¼ ì§Ģ
ìĪĺ ë£Į
Ġëª¨ ìĸĳ
Ġëª¨ ëį¸
ãĦ ´
ìĬ¤ ë¡ľ
Ġìķł ë¹Ħ
ĠìĦľ ìļ¸
ìĥĿ íĻľ
Ġë¶Ģë ĵ¤
Ġ1 2
Ġìĭł ê³ł
ĠìĬ¤ ìĬ¤ë¡ľ
Ġê³¼ íķĻ
Ġì°¨ ë³Ħ
Ġëĭ¹ ìŀ¥
Ġë°© íĥĦ
Ġë°© ë²ķ
Ġë°° ìĽĮ
Ġíķ© ìĿĺ
ĠìĦł ëıĻ
Ġ2 5
Ġëį° ë¦¬
ì¡° ìĦł
Ġê°Ĳ ëıĻ
ë¬´ ìĽĲ
íı °
ë¡ Ģ
ëį ķ
Ġëł¤ ëĤĺ
Ġëł¤ ë©´
íĹ Ĳ
Ġì¶Ķ ì²ľ
Ġãħłãħł ãħł
Ġìĭ¬ ê°ģ
Ġë§Īë ¦¬
ĠëĤĺìĺ ´
Ġì§ģ ìłĳ
ĠíĴ Ī
Ġë©ĭ ì§Ģ
ĠìĹ´ íıŃ
ì´ Į
Ġë¬´ë ĦĪ
ë°Ķ ë¡ľ
Ġì¡´ ê²½
ë¨ ¼
ĠíıŃ ëł¥
ì½Ķ ë¡ľëĤĺ
Ġì°¾ ìķĦ
ĠíĻĺ ê²½
Ġì© Į
Ġì¯ ¤
Ġì¯ §
Ġëĵľë¦½ ëĭĪëĭ¤
Ġë°Ŀ íĺĢ
ĠìĿ¸íĦ° ëĦ·
Ġì»¨ ìħī
Ġìĳ¤ ìħĶ
Ġì¶©ë¶Ħ íŀĪ
´ Ĳ
ë »
ë ĳ
ë ķ
ì Į
ì ŁģìĿ´
í Ħ¸
Ĥ ¨
Ń ī
Ġì µ
Ġë ļ
Ġí Ħ
ĠìĿ´ êµŃ
ĠìĿ´ ê±¸
Ġìķ ķ
Ġìķ ¼ë
Ġëĵ¤ ë¦¬
Ġê°Ģ ì¹ĺ
Ġê°Ģ ë§ĮíŀĪ
ìŀ ĸ
ĠìķĦ ì¹¨
ìĿ´ íĬ¸
ì§Ģ ìĽĲ
ì§Ģ ë¯¼
íķ Ń
ëĤ Ļ
ĠìĦ Ń
ľë į°
Ġìĸ´ ìĿ´
Ġìĸ´ ìłľ
Ġìĸ´ ìĥī
Ġë¶ ķ
ĠëĿ¼ ìĿ¸
ëĭĪ ìłĢ
ĠëĲ ¬
Ġíķ´ ìĻ¸
ìĺ Īë
ëĤĺ ìļ´
Ģë ĮĢ
ĠìĿĺ ìĭ¬
ĠìĿĺ ë£Į
Ġë¹ Ľ
Ġê¹ Ĭ
ëĭ¤ ë¥¸
ĺë ıĦ
ê¸ ĭ
Ġìłķ íķ´
Ġë¡ľ ìĦľ
ê²Į ìļĶ
Ġì² ľë°ķ
íĥ ĳ
ìĬ¤ íĥĢ
Ġìķł ì´Ī
Ġêµ¬ ìĨį
ê°Ħ ëĭ¤
ĠìĦ± ìĿ¸
ĠìĦ± ë³Ħ
Ġë¹Ħ êµĲ
Ġ1 5
ĠìłĢ ê±¸
ıĻ ìķĪ
ìĿĮ ì£¼ìļ´ìłĦ
ĠíĬ ¸ë
Ġëĵľë Ł¬
ĠëĪĦ ëĤĺ
ĠìĺĪ ìĪł
ĠìĦł ìĪĺ
ĠìĪ Ļ
ĠìľĦ íĹĺ
Ġìĭ¤ ìĪĺ
ĠëıĻ ìĥĿ
ìĪ ŃìĿ´
ĠëĮ ĵ
ĠíĿ ĳ
Ġìħ ĭ
Ġê°ķ ìĤ¬
Ġëĭ¨ ê³Ħ
Ġëĵ± ìĭł
Ġãħĩ ãħĪ
¦° ëĭ¤
Ġíİ¸ ì§ĳ
ë§¤ ë§¤
Ġìĸ¼ë§ Ī
Ġëĵ¤ìĸ´ ìĺ¤
Ġê¶Į ëł¥
Ġì¡°ìĦł ì¡±
Ġ9 0
ë²Ķ ì£Ħ
Ġìľ¡ ìķĦ
ĳ¥ ìĿ´
ĠíĶ¼ë ĶĶ
ĠëĿ Ħ
ê°ľë ı
ĠìķĦëĭĲ ê¹Į
ĠìķĦë¦Ħ ëĭ¤
Ġëħ¼ë ŀĢ
Ġê±°ì§ĵ ë§Ĳ
Ġê¹Ģìłķ ìĿĢ
4 0
Ġ S
Ġ j
ŀ ĳ
Ġë ĳ
Ġí į
ĠìĿ´ ë³ĳ
ĠìĿ´ ìĬĪ
ĠëĬĶ ê°Ģ
ĠëĬĶ ëĶĶ
Ġëĭ¤ ëĭĲ
Ġê°Ģ ì¦Ī
ëĭ Į
´ë Ĥ´
ìĿ´ ìħĺ
¼ë ĮĢ
Ġãħ ĮãħĬ
ìŀĲ ë¦¬
ĠìĤ¬ ê·
ľë ĵľ
Ġì§ §
ìĹ ł
ëĿ¼ ê³ł
Ģë ¹Ħ
Ġëį ©
ĠìĿĺ ìĽĲ
ĠìŀĲ ì£¼
ìķĦ ê¸°
ìķĦ ì§ģ
ĠëĮĢ ìĤ¬
ëĭ¤ ëĭĪ
ê¸ ´ëĭ¤
Ġìłķ ìŀĳ
ĠìĪĺ ìĪĺë£Į
Ġì§Ħ ì§Ģ
íķĺ ëĤĺ
ĠìĿ´ë ¯¼
Ġê·¸ ì§Ģ
Ġê·¸ ìłĢ
ìĸ´ íĬ¸
Ġíķł ê¹Į
Ġìłģ íıĲ
Ġìĺ¤ ë°Ķ
ìĻ Ħ
Ġë°Ķ ìĿ´ëŁ¬ìĬ¤
ìŀ¬ ë¯¸
Ġê³µ ê°Ĳ
Ġê³¼ ìĹ°
Ġìľł ë¦¬
Ġìľł íĪ¬
Ġì°¨ ëł¤
Ġëĭ¹ ìĭľ
Ġëĭ¹ íķ´
ê·¸ë ¦¬
ì¢ ĭ
ĠìłĢë Ĭ¥
ìłĢ ê±°
Ġë¶Ħ ëªħ
Ġë¶Ħ íĥķ
Ġë§ŀ ì¶°
ìĺģ íĻĶ
Ġìŀ¥ ìĤ¬
íĿ ¥
ĠìľĦ íķ´ìĦľ
ĠëıĻ ë¬¼
ìĪ ¨
Ġë°ķ ê·¼íĺľ
Ġì¡´ëĤĺ ê²Į
ãħİ ãħİ
ĠëĮ ķ
íĺ¸ ìĤ¬
Ġêº ¼ë
¼ë§ Ĳ
Ġë°ľ íĳľ
Ġëª° ìŀħ
Ġì¤ĺ ìĦľ
Ġë§Īë ĥ¥
Ġìī Ĳ
Ġìį ¼
Ġìĸ¸ ê¸ī
Ġëĺĳ ë°Ķë¡ľ
Ġãħīãħī ãħī
Ġëľ ¬
Ġë§ī ìŀ¥
ĠíĻķ ìĿ¸
Ġìĺ¨ ê°
ì¶Ķ íĸī
Ġì¡´ ìŀ¬
ë°± ì¢ħìĽĲ
ë¨ ¸ë¦¬
Ġìĭľì¼ ľëĿ¼
Ġìļ´ ìĺģ
ëĺ ¥
ĠíĻĺ ìŀĲ
ĠíħĮ ëŁ¬
ĠìĿ´ë»Ĳ ìļĶ
ĠíĹ¤ ìĸ´ì§Ģ
ĠìºĲ ë¦Ń
ì¿ ł
ì¿ µì¾ħ
ëĵľë Ŀ¼ë§Ī
ĠíĶ¼ë ¶Ģ
ëĨ ĵ
Ġë¹Ļ ìĭł
ë´ ī
Ġíĺĳ ë°ķ
ìĸ´ëĤ ľ
ì¯ §
ĠìķĦëĭĻ ëĭĪëĭ¤
ìĹ°ìĺĪ ìĿ¸
Ġìĸ´ìĿ´ ìĹĨ
ëĤĺìļ´ ìĦľ
b c
© °
ë ½
Ġ d
Ġ g
Ġ o
ł Ģ
Ġë ®¤
Ġí Ĥ
Ġíķ µ
ĠìĿ´ ëŀĢ
Ġìķ µ
Ġê³ł ê¸ī
Ġê² ª
ĠìķĦ ìĺĪ
ĠìķĦ ìī¬
ĠìķĦ ëĤĺìļ´ìĦľ
Ġìł ¸ëĿ¼
Ġì§Ģ ë°©
Ġì§Ģ ëĬ¥
¡ľ ìļ´
Ġë° ī
ĠëĤĺ ìģĺ
ĠëĤĺ ë¨¸
ĠìĦ Ŀ
Ġìĺ ³
ëŀ ¬
ëŀ ľ
ê°Ģ ìĬ´
Ġê²Į ìŀĦ
ĠìĿ¸ êµ¬
ĠìķĪ ìŀ¬íĺĦ
ìķĦ ë²Ħì§Ģ
ĠëĮĢ íķĻ
ìĽ ħ
Ġìłķ ì¤Ģìĺģ
ì¹ Ļ
ì¹ Ń
Ġíĺ ¹
ì² ĺë
Ġìĸ´ë łµ
ì§Ħ êµŃ
Ġê°ľ íĮĲ
ëĮĢ ê°Ģë¦¬
ĠìĽ Ģ
Ġëª¨ ìŀĲ
Ġëª¨ ìķĦ
Ġì¹ ł
Ġì¹ ´ë
ĠìłĦ íĺĦë¬´
ë¹ Ļ
Ġìķł êµŃ
Ġêµ¬ ìļĶ
Ġë¬´ ìĹĩ
ĠìĦ± íıŃ
ĠìĦ± ì¶Ķíĸī
Ġë¶Ģ ë¦¬
ĠìĨĮ ë¦Ħ
Ġ1 1
ìŀ¬ ëªħ
Ġìĭł ìĥģ
Ġìĭł ë¬¸
ĠìĬ¤ ëŁ¬ìļ´
Ġê³µ ìŀ¥
Ġìľł ìŀ¬ìĦĿ
ëł¤ ìĦľ
ëħ ¸ë
íĨ ¡
ĠìļĶ ë¦¬
ëª »
ĠìĺĪ ìĥģ
ĠìĦł ê±°
Ġëį° ëł¤
ìĦ¸ ìĥģ
ì¤ĳ êµŃ
ëĤ¨ íİ¸
Ġìłľ ìŀĳ
ëŁ¬ ìĭľìķĦ
Ġë°ķ ìĪĺ
ìĸ´ë ıĦ
Ġíĭ Ģë
ëį ©
ĠìĦ¤ ì¹ĺ
Ġê²½ íĹĺ
ĠíĺĦ ìŀ¬
ĠëĶ° ë¡ľ
ëı ¼ì§Ģ
Ġë°ľ ìłĦ
;; ;;
ĠëĤ´ë ¦¬
ĠëĤ´ë Ĥ´
Ġ?? ??
ë¦° ëĭ¤
Ġë°± ì¢ħìĽĲ
íĴ į
íķľë ³Ħ
ĠíĻķ ìĭ¤íŀĪ
Ġëıħ ê°Ĳ
Ġíĳľ ìłķ
ëĪ Ī
ĠìĤ¬íļĮ ì£¼ìĿĺ
ĠíĮĲ ëĭ¨
Ġê°ĳ ëĭĪëĭ¤
ê¼ Ń
ì¸ µ
ĠìĮ ©
Ġ7 0
ĠíıĲ ì§Ģ
łĪ ìĬ¤
ĠíĥĦ íķµ
Ġê³µìĤ° ëĭ¹
Ġíĳ ¸
ĠìĿ¸íĦ° ë·°
Ġì§Ĳ ìĬ¹
ĠëĦĺìĸ´ ê°Ģ
Ġë°ĶëĢ Į
Ġê¸°ìĥĿ ì¶©
Ġëĭ¤ìĿ´ ìĸ´íĬ¸
Ġìĺ¨ê° ĸ
ĠìºĲë¦Ń íĦ°
§ Ŀ
¬ ìĺģ
¹ ¼
ë ī´
ë ļ±
ì ĩ¼
í Ħ
ĩ Ħ
Ł Ń
Ń ì°¬
Ġì ¾
Ġë ļ±
Ġí ħ
ĠìĿ´ ìłĦ
ĠìĹ ¼ë³ĳ
ãħ ĮãħĬ
Ġíķĺ ìĹ¬ê°Ħ
Ġê°Ģ ëģĶ
ĠìķĦ ê°Ģ
ĠìķĦ ëĤ´
Ġì§Ģ ìĺ¥
ìļ ´ë
Ġìĸ ¼ë
ĠëıĦ ìĽĢ
Ġìĭ ¼
Ġë° ĭ
Ġë° Ł
íķ ĳ
ëĤ ¸
ë¦¬ ìĬ¤
ĠìĿĦ ì§Ģ
ë§ Ļ
Ġê±° ë¶Ģ
Ġãħ Ĺ
ĠìĤ¬ ëĿ¼
ĠìĤ¬ ìĥĿíĻľ
ľë ²Ħ
Ġìĺ ¹
Ġë³´ íĨµ
Ġë³´ ìĺĢ
Ġë©´ ìĥģ
Ġê¸° ì¤Ģ
ĠëĿ¼ ë©°
Ġë§Į ì§Ģ
Ġë§Į ì¡±
Ġë§Į ëĤ¬
Ģë ł¤
Ġë¬ ´ë¦¬
Ġê³ ¡
Ġë¹ ¤
ĠìŀĲ ëĬĶ
ĠìŀĲ ìĪĻ
íĺ Ĳ
ĠëĮĢ ë¦¬
ĠëĮĢ êµ¬
ĠëĮĢ ì¤ĳ
Ġê¹ Ŀ
ëĭ¤ ë¦¬
Ġëĥ ¥
ìĤ¬ ëŀĮ
Ġìĭľ íĤ¨
ê²Į ìĿ´
ë³ ´ë
ë¶ Īë
ĠìĤ ´ë¦¬
Ġìŀĺ ìĥĿê¸´
ì² Ļ
Ġìĸ´ë ķĮ
ĠìĿ¼ ìĥģ
Ġê°ľ ìĶ¹
ê³ ¡
Ġëª» íķ¨
Ġëª» ìĥĿê¸´
ëĮĢ íķľë¯¼êµŃ
íĥ Ģë
ìļ° ìĦ±
Ġëª¨ ë¥¼
Ġì¹ Ńì°¬
ĠìĶ Į
ĠëĶ ´
Ġë§Ī ìĬ¤íģ¬
Ġìĵ ¸ë
ìĹ¬ ìĦľ
Ĥĺ ë§Ī
ĠëĪ Īë
Ġíĥ ĳ
ĠìĨĮ ìŀ¬
ĠìĨĮ ìĦ¤
ĠìłĢ ê¸°
ë¯¸ êµŃ
Ġëħ¸ ì¶ľ
ìĿ´ë ¯¸
ìĹ° íŀĪ
ĠêµŃ íļĮ
íĬ ¸ë¦¬
ê·¸ë łĩê²Į
ëħ Ĳ
ĠíĬ ľë²Ħ
Ġê¼ ´ë¦¬
ĠìłĢë Ķ´
Ġì£½ ìĿ¸
Ġì£½ ìĿĮ
Ġì³Ĳ ëĭ¤
Ġì§ĳ ìķĪ
ë³´ ìķĦ
ë³´ ê²Ģ
ĠìĦł ë¹Ħ
Ġëĸ ¼
ĠëıĻ ìĿĺ
Ġëģ Ħ
Ġìłľ íĴĪ
.. .
Ġìľ¼ ìĭł
ìĸ´ë ĶĶ
ĠíĿ ĺ
ĠëĬĲ ëĿ¼
ĠìĹŃ íķł
Ġê³Ħ ìĭł
Ġë§¤ ëĭĪìłĢ
Ġê·¸ëŁ° ëį°
ë¶Ģë ĵ¤
ĠëĶ° ë¨¹
ê¹Ģ íĺ¸ì¤ĳ
Ġìľ¼ëĭĪ ê¹Ĳ
Ġìĸĳ ìĭ¬
Ġâ Ļ¥
íĺľ ì§Ħ
Ġì¶© ìĿ´
Ġë§Īë ħĢ
íĥľ íĿ¬
Ġê°Ī ìĪĺë¡Ŀ
íĴ Ģ
Ġíģ ´ëĿ¼
ĠêµĲ íļĮ
ê» ı
ĠìĻ¸ ìłľ
Ġì£Ħ ëĭ¤
Ġíı¬ ê¸°
ì´ Ŀ
Ġëľ ¯
Ġëıħ ìŀ¬
Ġê±¸ë łĪ
Ġê¼¬ ëĿ¼ì§Ģ
ê²° íĺ¼
ĠìķĦìķ¼ ì§Ģ
Ġëª© ìĪ¨
Ġê½ Ĥ
ì¾ Į
ëĺ ĳ
Ġ9 9
Ġê²Ģ ì°°
ĠìĤ¼ ê°Ģ
ĠìĨ¡ íĺľêµĲ
ëĪĦ êµ°
Ġíľ´ ì§ģ
Ġì°© ê°ģ
ĠìĬ¬ íĶĦ
ì» ¬
Ġìĭľì¼ľ ìķ¼
ëĨ Ģ
Ġì¢ĭìķĦ íķĺ
ĠëĪĦêµ° ì§Ģ
Ġì¦Ĳ ê¸°
Ġê°Ģë¥´ ì¹ĺ
¶Ģë Ł¬
ë¸ Ķ
Ġìłķìĭłë³ĳ ìŀĲ
íŀĺ ëĤ´
Ġt v
ë» Ķ
ĠìĿ´ë³ĳ íĹĮ
ĠìłĢëĬ¥ ìķĦ
1 8
¢ °
° ëĮĢ
ë Ĳ
ë Ĵ
ë ļ
ë ķĮ
ë Ł´
Ġ >
ĩ Į
ļ į
Ġì İ
Ġë £
Ġë ·
Ġë ¦°
ĠìĿ´ íķĺ
ĠìĹ ĳìĨĮ
Ġëĵ Ŀ
Ġíķĺ ì§Ģë§Į
Ġê³ł ë§Ļ
ĠëĤ ¼
Ġë§ ¡
Ġë§ ĺë
Ġê°Ģ ëĵĿ
Ġê² ¸
Ġê² ī
Ġìł ł
Ġì§Ģ ëıĦ
Ġì§Ģ ê²¹
ëĭ Ŀ
ĠìĹĲ íľ´
Ġê± Ķ
ĠëıĦ ìĭľ
ìĿ´ íĦ°
ìĿ´ ìģĺ
Ġìĭ ±
¼ë ¨¹
Ġëĭ «
ĠëĤĺ íĥĢ
ëĤ ´ë
ë¦¬ ìĸ´
ë§ ģ
Ġê±° ë¥´
ĠìĤ¬ ìļ©
ê² Ĳ
ê² ł
Ġê¸° ë¡Ŀ
Ġê·¸ë ¦¼
Ġê·¸ë ıĻìķĪ
ëĿ¼ ìĦľ
Ġíķ´ ìĦĿ
Ġìľ¼ë Ŀ¼ê³ł
ĠìĿ¸ ìĥģ
ĠìĿ¸ ìĭĿ
ĠìĿĺ ë¬´
Ġë¹ »
Ġëħ ¼
ĠëĮĢ ì¶©
ĠëĮĢ íķ´ìĦľ
ëĭ¤ ê°Ģ
Ġë¥ ľ
Ġë² ¼
ĠìĹ¬ ì¹ľ
êµŃ ë¯¼
ĠëĲĺ ê²Į
ĠìĤ Ĳ
ĠìĤ Ń
ĠìĥĿ ëªħ
Ġìĸ´ë ¦´
Ġê°ľ ìĽĶ
ì° į
ëĮĢ ë¡ľ
Ġíķł ì§Ģ
êµ¬ íĺľìĦł
Ġì¹ ľë
íķ´ ìŀĲ
ĠìĹ° êµ¬
ĠìĹ° ì¶ľ
íķľ ëĤ¨
ĠìĶ ¬
ìĽĲ ëŀĺ
ĠìłĦ ì²´
Ġìŀ¬ ëĬ¥
Ġëĺ ĺ
ìĻ ĢëĮĢ
ìłĦ ëĿ¼ëıĦ
Ġíĥ Īë
ĠìĦ± ë§¤ë§¤
ĠìĨĮ ë¹Ħ
Ġì¤ĳ ê°ľ
Ġëħ¸ ìĺĪ
íĮ ¬
Ġìĭł ìĿ¸
Ġìĭł ëıĻ
Ġê³µ ìłķ
Ġë¯¸ íĪ¬
ĠêµŃ ë°©ë¶Ģ
íĶ Ķ
Ġìĥģ ìĭĿ
Ġìĥģ íĥľ
Ġëĭ¹ ëĭ¹
ë¯¼ ì£¼
ìĿĺ ìĽĲ
ĠìĻĢ ìĿ´íĶĦ
ëĦ ĺ
íĺĦ ì£¼
Ġìĺģ íĸ¥
ìĺĪ ìłĦ
Ġë§ŀ ìĿĮ
Ġì§ĳ ì¤ĳ
Ġì§ĳ ê°Ĵ
Ġìŀ¥ ëıĻ
ĠìĽĲ ìĪŃìĿ´
Ġë²Ħ ë¦¼
Ġìĭ¤ íĮ¨
ì¡° ë¦¬
ìķł ì´Ī
Ġìłľ ìłķìĭł
ĠíĽ Īë
Ġìµľ ìķħ
ìĸ´ë ¦¬
ìĸ´ë ¨¹
Ġìĺ¬ ë¦°
Ġê±¸ ê¹Į
ĠëĮ Ħ
ĠëıĮ ëł¤
ĠëıĮ ë¦¼
íĿ¬ ë¡±
ĠíĿ ī
ĠëĬĲ ê·¸
ĠìĹŃ ìĤ¬
Ġê²½ ìŁģ
ĠíĺĦ ë¹Ī
Ġëĵł ëĭ¤
ĠëŃĶ ì§Ģ
Ġì» ´
Ġì» ·
ĠíĤ¤ ìĽĮ
ë°© ìĨ¡
ĠìķĦìĿ´ ìľł
ĵľ ìĭľ
ĠìĽĥ ê¸´
Ġì´ ¬ìĺģ
ĠëĤ´ë ³
ĠëĤ´ë Ĩĵ
Ġãħĩ ãħĤ
Ġëª° ëĿ¼ëıĦ
ĠíĽĦ íļĮ
Ġì²ĺ ë¦¬
Ġêº¼ ìł¸
Ġìĭ¸ ìĿ´
Ġìĭ¸ ìļ°
ĠêµĲ ìĪĺ
Ġë©ĭ ìł¸
Ġì¢ħ ìĿ´
Ġì¢ħ êµĲ
Ġëĭµ ëĭµ
Ġë³µ ì§Ģ
ĠíĻķ ì§Ħ
Ġë³Ģ íĺ¸ìĤ¬
Ġëıħ ìĿ¼
ëįĶ ëĭĪ
ëĭ¬ ìĪĺ
Ġì¶ķ êµ¬
ĠíķĻ ìĥĿ
Ġìķ½ ìĨį
Ġë´Ĳìķ¼ ì§Ģ
ĠìĹ¬ê¸° ìłĢê¸°
ĠìĽĶ ê¸ī
Ġ..... .
Ġê²Ģ ìĥī
ë³¸ ì£¼ìĿĺ
Ġëĸ¨ìĸ´ ì§Ħ
Ġë¸Į ëĿ¼
ëĪĦ ê°Ģ
Ġìį¨ ëĿ¼
ĠìĦ¸ë ĮĢ
íļ¨ ë¦¬
ĠìķĶ íĬ¼
Ġë°ĺë ĵľìĭľ
ì» ¤
Ġìĥī ê¸°
Ġì© Ķ
Ġì¹´ íĨ¡
Ġìĸ´ìļ¸ë ¦¼
ĠìĤ¬ìĿ´ íĬ¸
Ġìĸ´ëł¤ ìļ´
íĤ ¹
êº Ħ
ìµľ ìŀĲ
Ġê½ĥ ê¸¸
ëĬĲ ë¦¬
Ġë¿Į ë¦¬
ê¶ģ ë¯¼
Ġì´Īë °ĺ
ì§± ê¹¨
Ġëİ ħ
Ġíī¤ íī¤
Ġë¶ĢëģĦ ëŁ½
ĠíĢ ´ë
Ġíĩ ĺì§Ģ
ĠðŁĲ ķ
Ġíķ§ ìķĦ
Ġì¯§ ì¯§
Ġìķ¼ë ıĻ
ĠëĤĺë¨¸ ì§Ģ
íĦ ´
Ġìĸ¼ë ¥¸
n s
¥ ľ
¦ ĩ
° ¥
¶ Ī
¹ Ľ
¿ Ķ
ë ľ
í Ģ
í ħĲ
í ľĺ
Ġ P
Ġ T
Ġ n
Ġ y
Ĭ ĺ
Ġë ¦
Ġë ĳ¥
Ġë ¡Ń
ĠìĿ´ ì¤ĳ
ĠìĿ´ íĺ¸
Ġìķ ¡
ĠìĹ ¼
Ġê° ±
ìĿ ¼ë³´
Ġê³ł ë°ľ
Ġê³ł ë°±
Ġëĭ¤ ë¥¼
ĠëĤ ¸
ĠëĤ Ń
Ġë§ Ļ
Ġê² Ħ
ĠìķĦ ë§Ī
ĠìķĦ ëħĢ
ĠìķĦ ë¬´ë
Ġì§Ģ ë¦¬
Ġì§Ģ ëĤ´
Ġì§Ģ ìłģ
ĠìĹĲ ìĿ´
ìļ ¸ëĮĢ
Ġë³ ¼ë
ĠëıĦ ë°ķ
ĠëĦ ĵ
ĠëĤĺ ìĦľ
ĠëĤĺ ë¦Ħ
ĠëĤĺ ê°Ķ
ëĤ ľëĭ¤
Ġìľ Ĺ
Ġê±° ëŀĺ
ĠìĤ¬ ìĿ´ë
ĠìĤ¬ ëĿ¼ì§Ģ
Ġìĺ ¥
ìĹ Ķ
ëŀ Ļ
Ġë³´ íĹĺ
Ġê¸° ë¦Ħ
ĠëĿ¼ ìĿ´
ĠëĿ¼ ìĿ´ë
Ġê·¸ë ¦½
Ġ.. ?
Ģë ıĦ
ĠìĿ¸ ì¦Ŀ
ĠìĿĺ ëıĦ
ĠìŀĲ ëıĻ
ĠìŀĲ ê²©
ĠìŀĲ ì¡´
ìķĦ ì£¼
Ġêµ ¿
ĠëĮĢ ìĭł
ëĭ¤ ìĿĮ
Ġë¥ ĺ
Ġì¤ Ģë¹Ħ
Ġëı ĭ
ĠìĹ¬ ë°°ìļ°
ìĤ¬ ëŀĳ
ìĤ¬ ëĬ¥
Ġíĸ ¥
Ġì£¼ ìĿĺ
ĠìĪĺ ë¦¬
ĠìĪĺ íķĻ
Ġì§Ħ ìłķ
Ġíĺ Ģ
ë¥ ł
ĠìĥĿ ê¹Ģ
Ġë´ £
Ġìĸ´ë ¦¬
Ġê°ľ ê¿Ģ
ĠíĮ ħ
êµ¬ ìļĶ
êµ¬ ìĦĿ
ãĦ ±
ìĬ¤ íĦ°
ĠìłĦ ë¬¸
ĠìłĦ íĺķ
Ġë§Ī ìħĶ
Ġìŀ¬ ìĪĺ
Ġêµ¬ íĺľìĦł
ìłĦ íŀĪ
ìłĦ ëĵľ
Ġíĥ ±
ĠìĦ± ìŀ¥
ĠìĦ± ë¹Ħ
ĠìĦ± íĿ¬ë¡±
Ġë°Ķ ëŀĺ
ĠìĨĮ ìĨ¡
Ġì¤ĳ ê°Ħ
ĠìłĢ ì§Ģ
ĠìłĢ ëŀĺ
ìĨĮ ëħĦ
Ġê³µ ê²©
Ġê³¼ ìłķ
Ġìĵ° ëŀĺ
ĠêµŃ ëĤ´
ĠìĿ¸ë ĵ¯
Ġë°© ìĤ¬ëĬ¥
ìľł ìŀ¬ìĦĿ
ĠìĻĢ ì¤ĳ
Ġìļ° ìļ¸
Ġê¼ °ëĮĢ
íĺĦ ìķĦ
ê°ľ ìĨĮë¦¬
Ġì£½ ìĿ¼
Ġëĵľë Ŀ¼
Ġê²° ë§Ĳ
ëª °
ĠìĺĪ ìĪĺ
ĠìĦł ë°°
ìĺģ ìĥģ
Ġìŀ¥ ê´Ģ
ĠìĪ Ń
Ġë¯ ¸ë¦¬
Ġë²Ħ ëł¸
Ġìĭ¤ ìłľ
ìķł ë¯¸
ĠíĹ Ľ
Ġë°ķ ìĤ¬
Ġë°ķ ìłķ
Ġìľ¼ ìĭľ
ìĸ´ë ĸ
ë¬´ ìĬ¨
ĠìĬµ ëĭĪê¹Į
Ġìĺ¬ íķ´
Ġëĭ¬ ëł¤
ĠìĹ°ê¸° ëł¥
ĠìĦ¤ ëªħ
Ġê°ķ ìĿĺ
Ġê°ķ ëĤ¨
ì¢ħ ë¯¼
Ġê·¸ëŁ° ê°Ģ
Ġìŀĳ ìĹħ
Ġìĭ¬ ìłķ
Ġë°ľ ìĸ¸
ĠìĽĥ ìĿĮ
ìħ ¨
Ġìļ© ìĦľ
Ġê°ľë ¿Ķ
Ġì§ģ ìŀ¥
Ġíŀĺë ĵľ
ĠíĽĦ ë³´
Ġíĺ¸ íħĶ
ìĬ¹ ìļ°
Ġìī ´
ĠëĪĪ ì¹ĺ
ë© ĭ
Ġíıī ê°Ģ
Ġíıī ìĨĮ
Ġìĸ¸ ìłł
Ġì¦ Ī
ĠìĻ¸ ì¹ĺ
ĠìĨį ìĥģ
Ġíı¬ ìŀ¥
ĠìĭĿ ëĭ¹
Ġì²ľ ë§Į
ĠíĨµ ìĭł
ĠìĹĶ ëĶ©
ĠíĮ¨ ëĶ©
ĠëĬĶëĭ¤ ëĬĶ
Ġë³Ģ íĥľ
ĠìĻĦ ë²½
ì²ľ ì§Ģ
ĠíĭĢ ëĭĪ
Ġì²Ń ìĻĢëĮĢ
ĠëłĪ ìłĦëĵľ
ê²° êµŃ
Ġëĵľ ë§Į
Ġë³´ìĹ¬ ìļĶ
ĠìĪł ì§ĳ
ê¼ ´
Ġíĥľ ìĸ´ëĤĺ
ĠìĤ¼ ìĦ±
ìľ¤ ìłķ
ĠìķĦë¬´ ê²ĥ
íģ °
Ġê±´ê°Ģ ìļĶ
Ġì²Ļ íķĺ
Ġê¸Ī ìķ¡
Ġì±ħìŀĦ ì§Ģ
íı¬ ì¸ł
ë²Į ëłĪ
ĠìķĪíĥĢ ê¹Į
Ġì½ ©
Ġìł¸ ìķ¼
ìĤ¼ ê°Ģ
Ġìĥģê´Ģ ìĹĨ
ĠëĪĦêµ° ê°Ģ
ë´ Ĳ
Ġì±Ļ ê¸°
Ġì±Ļ ê²¨
ĠìĻ¸êµŃ ìĿ¸
Ġíķĳ íģ¬
©Ķ ìĿ´ìħĺ
ĠìĿ´ìģ ľëį°
ĠìķĦíĮĮ ìĦľ
Ġìĸ´ëĶ ¨
Ġê·ĢìĹ¬ ìĽĮ
ĠíĻľ ìļ©
ĠìĹ´ë ĵ±
ëĭĪë ©ĶìĿ´ìħĺ
Ġìµ ľë
Ġëį© ìĸ´ë¦¬
Ġêº¼ë Ĥ´
ë½ ķ
B C
b s
³ ¸
» ¤
ë Ŀ
ë ®¤
ë ľ¨
ë ¢°
í ĵ
í ļį
Ġ *
Ġ A
Ġ D
Ġ X
Ġ b
Ġ v
ģ ī
Ķ °
ľ ¯
ł ¹
Ġì Ńī
Ġë µ
Ġë ¼
Ġë Ł°
ĠìĿ ¼ë³´
Ġí ľ
ãħ £
ãħ Ĩ
Ġê³ł ìĦľ
Ġê³ł íĨµ
Ġë§ ¥
Ġëĵ¤ ìľ¼ë©´
ìĦ ¹
Ġê°Ģ ìļĶ
Ġê°Ģ ê²Į
Ġìł Īë
ĠìĹĲ ê²Ĳ
´ë ĮĢ
´ë ¥´
ĠëıĦ ë¡ľ
ĠëĦ ·
ĠëĦ Īë¬
Īë ĶĶ
ìĿ´ ìłł
Ġëĭ Ŀ
Ġãħ ı
Ġìĺ ´
Ġë³´ ìĥģ
Ġë©´ íĹĪ
Ġê·¸ë ħĢ
Ġê·¸ë Ĥĺë§Ī
Ġë§Į ëĤł
Ġìľ¼ë ¡ł
ëĤĺ ë¹Ħ
Ġë¬ µ
Ġë¬ ¶
Ġë¹ ¼ë¨¹
ĠìŀĲ ë¥´
ĠëĮĢ íķ´
Ġëĥ ħ
Ġëĥ ī
ĺë Ł¬
ìĿ¸ ê°Ħ
ĠìĹĨ ìķł
ìĤ¬ ì§Ħ
ìĤ¬ ìĭ¤
ĠìĬ ´
ë¬ µ
Ġì£¼ ìĤ¬
Ġì£¼ ì°¨
ĠìĪĺ ìŀ¬
ĠìĪĺ ìĪł
ĠëįĶ ëŁ¬
Ġë§Ĳ ìķĦë¨¹
ĠìĤ ½
ëıĦ ìĨĮ
ëĵ ¬
ĠëĤ¨ ìĦ±
ìĭľ ìĬ¤
Ġì§Ħ ëĭ¤
Ġì§Ħ ìĭ¤
ĠíĸĪ ìľ¼ëĭĪ
Ġë´ ħëĭĪëĭ¤
ĠìĦ¸ ìĹ°
Ġìĸ´ë ¥¸
ë§Į íĻĶ
Ġê°ľ ê·¸
ê³ ¤ì¶©
ì° Ĳ
ìĸ´ ìłľ
Ġëª» ìĥĿ
Ġëª» íķľëĭ¤
êµ¬ ë¦¬
êµ¬ ëĿ¼
ëĬĶ ëį°
ìĽĲ ìŀĳ
Ġìłģ ìļ©
Ġì¡° ìķĦ
Ġì¡° ìłķ
Ġì¡° ì°¨
Ġì¡° íıŃ
Ġì¡° ì¹´
Ġì¡° ìĦ¼
Ġë§Ī ëĭĪ
Ġë§Ī ì°¬
Ġêµ¬ ë¶Ħ
Ġêµ¬ ë§¤
Ġëŀ Į
Ġìĺ¤ ë¥´
Ġë© ĺ
ê±° ì§Ģ
ĠëĤ´ ìĿ¼
Ġíĥ Ķ
Ġíĥ Ģë
ìĦ± ìķł
ìĥĿ ê°ģ
ĠìĦ± ë²Ķì£Ħ
Ġë¹Ħ íķ´
Ġë¹Ħ ìļ©
Ġë°Ķ ëĭ¤
Ġë°Ķ ëĭ¥
Ġë¶Ģ ì¡±
Ġì¤ĳ ê³µ
Ġì¤ĳ ëıħ
Ġê³µ ìĿ¸
Ġê³µ ì§ľ
Ġê³µ ì£¼
Ġê³µ ë¬´ìĽĲ
ìĿ´ë ĵľ
ìĿ´ë łĩê²Į
ìģ ¨
Ġë¯¸ ìĿ¸
Ġë¯¸ ì³Ĳ
íĬ ¹
ĠìĿ¸ë ¬¼
Ġë°© íĸ¥
Ġë°° ëł¤
Ġë°° ìļ´
ê°ľ ìĿ¸
Ġì£½ ìĺĢ
ĠìļĶ ìĥĪ
ìłĢ ê²Į
Ġëĵľë Ł½
ĠëĪĦ êµ´
ëª ¸
ëĬ Ļ
ìĤ° ë¬¼
Ġë¶Ī ê°Ģ
ĠìĽĲ ìŀĳ
Ġìļķ íķĺ
Ġë¨ ¸ë
ìĽĮ ìļĶ
ëıĻ ìĥĿ
ĠíĽ Ī
ìĸ´ë Ħ
ìĸ´ë ¨¸ëĭĪ
ìĸ´ë ľ¯
ë°ķ ëĤĺëŀĺ
ĠíĺĦ ìķĦ
Ġë§¤ êµŃ
ĠëĶ° ì§Ģ
ĠëĶ° ìľĦ
Ġëĵł ì§Ģ
ĠëŃĶ ëį°
Ġì» ¸
Ġëĭ¨ ëĭ¤
Ġëĭ¨ ì²´
Ġì´ Į
ĠìĥĪ êºĦ
Ġâ ģī
Ġë§Īë Ŀ¼
Ġë§Īë ĶĶ
Ġë¯¼ íıĲ
Ġë©° ëĬĲë¦¬
Ġìĭľë ģĦ
Ġì²ĺ ë§ŀ
Ġìī °
ë© ¸
ĠêµĲ ëıĦìĨĮ
ìĹĲ íľ´
ĠìĨĲ ê°ĢëĿ½
ì© ¡
ì© Į
ĠíĬ¹ ë³Ħ
ĠëĲľëĭ¤ ëĬĶ
ĠìĭĿ ë¬¼
Ġê» ´
ì°½ ìĦĿ
Ġë©Ķ ìĿ¸
Ġê±¸ë Ł¬
Ġê±¸ë ¦°
ĠëıĮìķĦ ìĺ¤
Ġì°½ ìŀĳ
Ġì°½ ëħĢ
ĠëĨĢ ëŀĢ
ëĶĶ ìĺ¤
ĠíĮĲ ìĤ¬
!!!! !!!!
Ġìļ´ ìļ´
Ġ..... ....
Ġ9 00
Ġë§Ľ ìŀĪ
ë³¸ ìĿ¸
Ġ;; ;
íķ© ëĭĪëĭ¤
ĠíĻĺ ìŀ¥
ĠìĨ¡ ì¤ĳê¸°
³´ ìŀĲ
Ġì¼Ģ ìĿ´
Ġ- --
ĠìĹħ ì²´
Ġê¸Ī ì§Ģ
ĠíĻ© íĿ¬
íļ¨ ì§Ħ
Ġë°ĺë ³µ
Ġíŀ Ļ
Ġìĥī íŀĪ
ë¯ ¿
Ġìłĳ ì¢ħ
Ġì« Ħ
ĠíĹ¤ ìĸ´
Ġê¹Ģë ¯¼
ĠìĤ´ë ł¤
Ġìĸ´ëł¤ ìĽĢ
íĬ¸ë łĪìĬ¤
ĠìĽĮ ëĤĻ
ì¶ķ íķĺ
Ġì¤Ģëĭ¤ ê³ł
Ġ~!! !
ĠíĹĪë ¦¬
ĠíĹĪë Ŀ½
ì¹ľë ħĦ
ê½ ĥ
Ġì§Ģì¼ ľ
Ġì¸ µ
Ġê³łë§Ī ìĽĮ
Ġë²¤ ì¸ł
ìŀĸ ìķĦ
ĠìķĦë¦Ħëĭ¤ ìļ´
Ġíį ¼ë
ĠíĤ ¹
Ġë°ī ìĥģ
ĠìĦ±íıŃ íĸī
Ġìŀ¥ëıĻ ê±´
Ġíī¤íī¤ íī¤
íħĲ ì¸ł
§ ¨
¨ ë²Ķ
° ķ
ë ĩĮ
ì ¨
ì Ł¤
ì ĩĦ
Ġ l
ģ Ī
ħ ìĭľëĭ¤
Į ãħĭãħĭ
ĵ ľë
Ġì ģ
Ġíķ Ģ
ĠìĿ´ ëĿ¼ëıĦ
ãħ ģ
ãħ ı
ĠëĬĶ ê²¨
Ġëĵ ¬
Ġê³ł ìļĶ
Ġëĭ¤ ë§Į
ĠëĤ ľë
Ġê°Ģ ìĭĿ
ìŀ ī
¸ë ĵľ
ĠìķĦ ëŀĺ
ĠìķĦ ëģ¼
Ġì§Ģ êµ¬
Ġì§Ģ ìĹŃ
Ġì§Ģ íĤ¤
Ġì§Ģ ë£¨
ĠìĿĢ íĩ´
´ë ¬¼
ĠëıĦ ìłĢ
Ġíķľ ì§Ģ
ìĿ´ ìĦ±
ì§Ģ ìĺģ
Ġë° ı
ĠëĤĺ ê°Ī
ëĤ ®
ĠìĦ ŀ
ìŀĲ ìĹ°
ĠìĤ¬ ìłķ
ĠìĤ¬ ëĤ´
ĠìĤ¬ íĪ¬
Ġì§ ¬
Ġì§ ĸ
Ġìĸ´ ì§Ģ
ê³ł ìĥĿ
Ġì¢ ģ
Ġê²Į ëĭ¤ê°Ģ
Ġê¸° ê°Ħ
Ġë§Į ìķ½
Ġì£ ¼ë§Ĳ
ìĺ ´
Ġìľ¼ë Ł¬
ĠìĿ¸ ê²©
ĠìĿĺ ì§Ģ
ĠìĿĺ ìŀĲ
ĠìĿĺ ê²¬
ĠìķĪ ëĭ¬
Ġê³ ¤
Ġë¹ ħ
ĠìŀĲ ë³¸ì£¼ìĿĺ
íĺ ĳ
ìĸ ¼ë§
ìĸ ¸ëĭĪ
ĠëĮĢ ìĦ¸
ĠëĮĢ ì¶ľ
Ġê¹ ľë
Ġì° ¸ë
ĠìĹ¬ íĺĲ
Ġì¡ ¸ë
Ġìĭľ ë¦¬
ìķ¼ ì§Ģ
ĠìĬ ¥
ĠìĨ Ķì§ģ
ĠëįĶ ìļ±
Ġì§Ħ ìŀĳ
Ġíĺ ģ
ë§Ī ìĿĮ
íķĺ íķĺ
ĠìĦ¸ ìĽĶ
ĠìĿ¼ ê¹Į
Ġëķ ¡
ĠìĿ´ë ĨĪ
ĠìĿ´ë ķĮ
ê³ ³
ìĸ´ ìĦľ
ìĸ´ ê°Ģ
ìĸ´ íľ´
Ġëª» íķ´
ĠëĨ ¨
Ġëª¨ ë¦Ħ
Ġëª¨ ë¥¸ëĭ¤
ĠìĹ° íķĺ
ĠëķĮ ëł¤
ì£¼ ìĸ¼
ìĺ¤ ë¹ł
Ġìķł ëĭĪë©ĶìĿ´ìħĺ
Ġëŀ Ģëĭ¤
Ġë¬¸ ì£Ħ
Ġìĵ ´ëĭ¤
ìĹ¬ ìĦ±
ìĹ¬ ëŁ¬
Ġë© Ī
ł¤ ìĦľ
Ġë¹Ħ ë¦¬
Ġë¹Ħ ì£¼ìĸ¼
ĠìĨĮ ìĪĺ
Ġì¤ĳ ìĭ¬
Ġ1 6
ĠìłĢ ë¦¬
Ġëħ¸ ìĿ¸
Ġëħ¸ ì¡°
Ġìĭł ìĦł
ĠìĬ¤ ì¹´
ĠìĬ¤ íı¬ì¸ł
ìĨĮ ìĹ°
Ġê³µ ìĿµ
ĠìķĮ ìķĦ
Ġíķ´ë ªħ
Ġíķ´ë ´Ĳ
Ġ~~ ^^
Ġë´Ĳ ìļĶ
Ġìľł ì¹ĺ
Ġìľł ìĿ¼
Ġìľł ëŁ½
ìĹ° ìķł
ĠìĿ¸ë ł¥
ê·¸ë Ł°
Ġë°© ìĹŃ
Ġë³´ë ıĦ
Ġë°° ìĭł
ëĦ Į
ĠíĬ ¸ë¦¬
Ġíİ ĺë
ĠìļĶ êµ¬
Ġì³Ĳ ìĦľ
Ġë¶Ħ ëħ¸
ìĺĪ ìĽĲ
Ġíķ© ëĭĪê¹Į
ĠìĺĪ ìĿĺ
ĠìĦł ì§ĦêµŃ
ìļ© ìłĳ
ľë° ©
ĠíĻĶ ìĤ¬
Ġë¯ Ħ
Ġë²Ħ ë¦´
Ġìĭ¤ ê²Ģ
ĠëıĻ ê¸ī
ì¡° ê°ľ
ëĤ¨ ëħĢ
Ġë°ķ ìĤ
Ġë°ķ ëĤĺëŀĺ
Ġëªħ ìĺĪ
Ġëªħ íĴĪ
ãħł ãħł
íĥĢ ê¸°
ĠíĿ ł
Ġëĭ¬ ëĿ¼
ĠìĹ°ê¸° ìŀĲ
Ġê°ķ ìłľ
Ġì°¸ ê³ł
íĹ ¤
íĹ ¬
ëªħ ìĪĺ
Ġë§¤ ìļ°
ë¶Ģë ¡ľ
Ġíĸī ìľĦ
Ġëĭ¨ ìĸ´
Ġì¶Ķ ìĸµ
Ġë¹ł ì§Ħ
Ġë¹ł ìł¸
ĠíĤ¤ ìĬ¤
Ġìĭ¬ íķľ
Ġê¸´ ìŀ¥
íĮĮ ìĿ´
Ġìļ© ê¸°
ĠëĴ¤ ì§Ħ
Ġë°ĺ ìłĦ
Ġë°ĺ ë°ķ
Ġëª° ëŀĺ
ãħī ãħī
ĠìĹ°ìĺĪ ê³Ħ
Ġë§Ŀ ì¹ĺ
Ġë§Ŀ íĸĪ
Ġíİ¸ íŀĪ
Ġíİ¸ ìĿĺ
Ġë¯¼ êµŃ
Ġë¬¼ ìĸ´ëľ¯
Ġìķŀ ì°¨
ĠíĻį ì§Ħìĺģ
Ġëĭ¤ëĭĪ ìĹĺ
Ġê±´ë ¬¼
Ġìĭľë ıĦ
ìĬ¹ ë¦¬
ìĿĢ ìĿ´
ĠíĮĮ ìķħ
Ġì½Ķ ìĬ¤
Ġíıī ëĵ±
ĠíĬ¹ ìľł
Ġë¦¬ ëįĶ
Ġì£Ħ ìĿ¸
ĠëĲľëĭ¤ ê³ł
Ġì²ľ ì§Ģ
Ġì²ľ ìŀ¬
¸ëĭ ĺ
êµ° ëĮĢ
Ġë³µ ìĭ±
ĠìĪľ ìĪĺ
Ġê°Ģì§Ģ ê°Ģì§Ģ
Ġê» Ģ
ĠíĻķ ëĮĢ
Ġë³Ģ ê¸°
Ġê¶Į ë¦¬
ë°Ķ ëĭ¥
ĠìŀĸìķĦ ìļĶ
Ġëĵľ ë¦¬
Ġì¶ķ ë³µ
ĠëĨĢ ìķĦ
Ġ20 0
Ġê½ ¤
ê¹¨ ë¹Ħ
ì¸ ¡
Ġë½ Ģ
Ġìĭľì¼ °
ĠìĽĶ ëĵľ
Ġíĥľ êµŃ
ĠíıŃ íĸī
Ġì±Ħ ì§ĳ
ĠëĬĶêµ¬ ë§Į
Ġì¿ ł
ĠìĮ Ķ
ĠìĿĦê¹Į ìļĶ
ìķĦìĿ´ ìľł
~~ ~~
ëĪĦ êµ¬
Ġê»ĺ ìĦľ
Ġìĸ¸ìłľ ëĤĺ
Ġê°ľëı ħ
ĠìħĶ ìķ¼
ĠìķĦëĭĮê°Ģ ìļĶ
Ġë¯¼ì£¼ ì£¼ìĿĺ
ìłľë ıĻ
Ġë¶Ļ ìĿ´
Ġì§ķ ì§ķ
Ġì© Ŀ
Ġìĺ¬ëĿ¼ ìĺ¤
ĠíĿ¬ ë§Ŀ
ĠðŁ ĳ
ĠìĤ´ë ¹¼
Ġì½ ĺ
íħ ľ
Ġìĭľì²Ń ìŀĲ
ĠãĦ² ëĵ¤
Ġë°Ķëŀ Ģëĭ¤
Ġê¾ ¸ë
ĠìĥĪë ¡ľìļ´
Ġs ns
Ġë¶ĢëŁ¬ ìļ°
>> >>
©Ķ ëĿ¼
ĠìĿ´ìģ ¨
Ġë¡ ¤
ĠìķĦíĮĮ íĬ¸
ĠìĹ¬ëŁ¬ ë¶Ħ
ê½ ģ
ìº Ĳ
ĠìĺĪë»Ĳ ìļĶ
ĠìĹŃê²¨ ìļ´
Ġê·ľ ìłľ
Ġëħ¸ë¬´ íĺĦ
Ġìĸµì§Ģ ë¡ľ
Ġê´´ë¡Ń íŀĪ
ĠìĺģìĽĲ íŀĪ
ĠìĿ´êµŃ ì¢ħ
ĠìĦŃ ìĻ¸
ê°ľëı ħ
ëŀľ ë§Į
ì²ĺë ħĢ
Ġëª¨ìķĦ ìĦľ
Ġì¹´ë ©ĶëĿ¼
Ġìłľìŀĳ ì§Ħ
ëį© ìĿ´
Ġìĸ´ëķĮ ìĦľ
ĠêµŃíļĮ ìĿĺìĽĲ
ëĪĦêµ° ì§Ģ
Ġë²¼ ìĬ¬
Ġì¹ľë ¬¸
ë¯¼ì£¼ ëĭ¹
ĠíĽĪë ł¨
ĠìĿ´íĺ¸ ìĦĿ
Ġë°ķìłķ íĿ¬
Ġë§Īì°¬ ê°Ģì§Ģ
1 0
M BC
¡ ì³Ĳ
¦ İ
¬ µ
² Ķ
â Ļ¥
ë ĳ¥
í ĳ
í Ĥ´
Ġ @
Ġ a
Ġ p
ĥ Ĳ
Ķ ¸
ŀ Ĳ
Ġì Ł
Ġë Ł¼
Ġë ¡ł
ĠìĿ į
Ġí Ī
Ġí ľĺ
ĠìĿ´ ìĤ¬
ĠìĿ´ ìĪĺ
ĠìĿ´ ê²¨
Ġëĵ Ģ
Ġíķĺ ëĦ¤
Ġíķĺ ê¸´
Ġê³ł ìĤ¬
Ġê³ł íĸ¥
Ġëĭ¤ ìļ´
Ġëĭ¤ ëįĺëį°
ĠëĤ ļ
Ġë§ Īë¬
Ġëĵ¤ ìĹ¬
Ġê°Ģ ë¡ľ
Ġê°Ģ ì§ľ
Ġê°Ģ ëĤľ
Ġê°Ģ íķ´ìŀĲ
ìŀ ĺëª»
Ġê² ©
Ġìł Ŀ
Ġì§Ģ ìĿ¸
Ġì§Ģ ìĭĿ
ĠìĿĢ íĺľ
ĠìĿĢ ê·¼
´ë ª¨
ìķ Ĺ
Ġíķľ íĺľì§Ħ
ìĿ´ ì§Ģ
ìĿ´ ìķ¼
ìĿ´ ìŀ¬ëªħ
¼ë ĵ¤
¼ë ŀĢ
ìĭ ¼
ëĤ ©
ìŀĲ ìĿ¸
ìŀĲ íĺĦ
ĠìĤ¬ íĥľ
ìļĶ ìĿ¼
Ġìĥ ĺ
Ġìĸ´ ìļ©
Ġìĸ´ ì§¸
ê³ł ìĿĢ
ëŀ «
ëŀ ľëĵľ
Ġë³´ ì§Ģ
Ġë³´ ìĿ¼
Ġë³´ íĺ¸
Ġë³´ ìĤ´
Ġê¸° ëıĦ
Ġê¸° ë¥´
Ġê¸° ê³Ħ
Ġê¸° íļĮ
Ġê¸° ê´´
ĠëĿ¼ êµ¬
ĠëĿ¼ ì§Ģë§Į
ĠëĿ¼ ëįĺëį°
Ġê·¸ë Ķ´
Ġíķ´ ìĨĮ
Ġìľ¼ë ©°
ĠìĿ¸ ì¢ħ
ĠìĿĺ ëĮĢ
ĠìĿĺ ìĭĿ
Ġë¬ ¸ë
ĠìķĪ ìłķ
ĠìķĪ ìłĦ
ĠìķĪ íķ¨
ĠìŀĲ ëħĢ
Ġëħ ¹
ìķĦ ëĤ´
ìķĦ ë¹ł
ëł ¨
ëł ´
ëł Īë
ĠëĮĢ íĻĶ
ĠëĮĢ ëĨĵ
ëĭ¤ ìĭľ
ë° Ľ
ìĽ ¨
ĺë ĮĢ
ê· ¼ëĮĢ
ĠìĹ¬ ìĭł
ĠìĹ¬ ì£¼
ĠìĹ¬ ë¦Ħ
Ġì¡ ĭ
Ġìĭľ ì§ĳ
Ġìĭľ ê¸ī
Ġìĭľ íĹĺ
Ġìĭľ íĤ¬
Ġë¡ľ ìļ´
Ġë¡ľ ìį¨
ê± ¸ë
ê± ¸ë¡ľ
ë³ į
ì¹ ĺë
ĠìĪĺ ì¹ĺ
Ġë§Ĳ íĪ¬
ĠëĤ¨ ë¶Ī
ì£ ł
ì£ ¼ë
Ġì§Ħ íĸī
ë§Ī ìŀĲ
ĠìĥĿ ìĤ°
ì² ©
ĠìĦ¸ ê·ł
ĠìĿ¼ ìľ¼
ë§Į ê°Ħ
ĠëŃ ī
Ġê°ľ íĺģ
Ġê·¸ ì¹ĺ
Ġê·¸ ìª½
ìĸ´ ìļĶ
ìĸ´ ì°¨íĶ¼
ëĮĢ êµ¬
ĠìĽ ¬
ìĪĺ ìĹ°
Ġíķł ëł¤
Ġíķł ë°°
Ġíķł ê²ĮìļĶ
ĠíĮ į
ĠìĹ° ëĿ½
ĠìĹ° ë´ī
ìĬ¤ ëŁ½
Ġìłģ ëĭ¹
ĠìłĦ êµŃ
ĠìłĦ ìŁģ
ĠëĶ ¸ë
Ġì¡° êµŃ
Īë¬ ¸
Ġë§Ī ì£¼
ìĺ¤ ë¥´
ìĺ¤ ëŀĺ
ë¹ µ
Ġêµ¬ ë©į
ĠìĦľ íĺĦ
ĠìĦľ ìļ¸ëĮĢ
Ġëŀ ©
Ġìĺ¤ ë²Ħ
Ġìĺ¤ ì¤Į
Ġë¬¸ ìŀĲ
Ġë¬¸ ê°Ģ
Ġê¹Į ìĿ´
ĠìĤ´ ìķĦê°Ģ
ĠìĤ´ ì§Ŀ
ìĹ¬ íĸī
ìĹ¬ íĬ¼
Ġë¬´ ì£Ħ
ĠëĪ Į
Ġíĥ Ĳ
Ġíĥ ľë
ìĦ± ë¡Ŀ
Ġë¹Ħ íĮĲ
Ġë¹Ħ ë²Ī
Ġê´ ´
Ġë¶Ģ ìĹ¬
Ġë¶Ģ ì¶Ķ
ĠìĨĮ ë°©
Ġ1 4
Ġ1 7
ìŀ¬ ìķĻ
íĻĶ ë¬¸
ĠíĻ Ģ
Ġìĭł ëħĦ
Ġìĭł ë¢°
ĠìĬ¤ íĬ¸ëłĪìĬ¤
ìĿ´ë ¦Ħ
ĠëĬ ¦
Ġìľł íĸī
Ġìĥģ íĴĪ
ê·¸ë łĩ
ìľł ë¦¬
ìľł ì§Ħ
ìľł ë°©
ëł¤ ìķ¼
Ġìŀħ ë§Ľ
Ġìļ° ì£¼
Ġìļ° ëł¤
Ġíķ¨ ë¶Ģë¡ľ
Ġê¼ ½
íĺĦ ìĭ¤
Ġê¹Ģ ìĦ±
Ġê¹Ģ íĥľíĿ¬
Ġìĺģ ìĸ´
Ġìĺģ ìŀ¬
ĠìłĢë ¶Ħ
Ġíİ Ħ
Ġì³Ĳ ëĿ¼
Ġì³Ĳ ëıĦ
Ġãħł ãħľ
Ġë¶Ħ ìķ¼
ìĺĪ ì§Ħ
ìĺĪ ìģĺ
Ġì§ĳ íļĮ
ë³´ ìŀ¡
ìĺģ ìŀĲ
ìĦ¸ ì§Ģ
Ġë¶Ī êµ¬
Ġë¹¨ ìķĦë¨¹
íĿ Ĳ
Ġë²Ħ ìĬ¤
Ġëĸ ³
Ġëĸ Ħ
ìĨ¡ íĺľêµĲ
ìĨ¡ ì¤ĳê¸°
ìķĪ íĥĢ
ĠëıĻ ìĺģìĥģ
Ġê°Ĳ ìĦ±
ëŁ¬ ì§Ģ
ĠíĹ Į
ĠíĹ Ĳ
Ġë°ķ ë³´ê²Ģ
ìĸ´ë ĵ¤
Ġíĭ ´
ĠëĮ Ĳ
ĠíĿ ĺëŁ¬
ë°ķ íķľë³Ħ
Ġë³¸ ìĦ±
Ġê°ķ íķľ
Ġê³Ħ ìĭľ
Ġëħ¸ë ¹Ħ
ì¢ħ ìĦĿ
ë¶Ģë Ł¬
Ġëĵł ëį°
Ġê¹¨ ëģĹ
Ġì» ´ë°
Ġëł ¥
Ġëł Īë
Ġëĭ¨ ìĪľ
Ġì¶Ķ ê°Ģ
Ġìĭ¬ ë¦¬
ë°© íĥĦ
Ġìĸ´ëĸ ¡
Ġë°ľ ê´ĳ
ĠìĽĥ ê²¨
ê¹Ģ ìłķ
ê¹Ģ ì¹ĺ
ê³µ ìĤ°
íĭ ´
¸Į ëĿ¼
Ġâ ĺ
ê°Ļ ìĿ´
Ġì¶© ê²©
Ġë§Ŀ ìĭł
íĶĦ ëłĪ
íĥľ íĺĦ
Ġë¬¼ íĥĢê¸°
íķĻ ìĥĿ
Ġê±´ë ĵ¤
Ġìĭľë ¹Ħ
Ġê·Ģ ì°®
ĠëģĿ ëĤĺ
ĠíĮĮ ìĬ¤íĥĢ
Ġìį ħ
Ġìĭ¸ ìĽĢ
Ġíıī ìłĲ
Ġíıī ë²Ķ
Ġìłľë ıĦ
Ġëĺĳ ëĺĳ
ì´ Īë
Ġì²ľ ìĤ¬
Ġì²ľ êµŃ
ĠíĨµ ìĪĺ
ĠíĨµ ê³Ħ
Ġë³µ ë¹Ħ
ĠìĪľ ìľĦ
ĠíĮĶ ìķĦë¨¹
ĠíĮ¨ ìĬ¤
Ġë¶Īë §Į
Ġë¶Īë ¥ľ
ĠíļĮ ìĪĺ
Ġëģ¼ ì¹ĺ
Ġë¬´ë ıĦ
Ġë¬´ë Ĭ¥
Ġë¬´ë ¦İ
Ġãħľãħľ ãħľ
ĠëĤĺìĻĢ ëĿ¼
Ġìĺ¨ ëĭ¤
Ġìĺ¨ íĨµ
ĠíĭĢ ë¦¬
Ġë¨¸ë¦¬ ì±Ħ
ëĭ¬ ë¦¬
ê²° íķ©
ĠëıĮìķĦ ìĻĢ
Ġëª© ìłģ
ĠíķĻ ìĽĲ
Ġìª½ íĮĶ
Ġìĸ´ì© ľ
ĠíĮĲ ë§¤
Ġëĵ£ ë³´ìŀ¡
Ġì·¨ ìĹħ
ĠìĿ¼ë ¶Ģ
ĠìĿ¼ë ¶ĢëŁ¬
ãħĩ ãħĩ
ê¼ Ī
ĠìłĲ ìĪĺ
ìłĢë łĩê²Į
ìĸ¸ ìłľ
Ġë²Ķ ìĿ¸
ĠìĽĶ ìĦ¸
ĠìĦľë ¯¼
Ġë» ¥
ê·¹ ê¸°
Ġì¿ ¨
Ġë¸Į ëłĪ
Ġë¸Į ëŀľëĵľ
ĠìĮ Ī
Ġì°¾ ìķĦê°Ģ
ĠëĿ¼ë©´ ìĦľ
Ġê´Ģìĭ¬ ìĹĨ
ĠìħĶ ìļĶ
ì½ ľ
Ġíŀ Ĳ
ĠìĭŃ ëĭĪëĭ¤
ĠìķĦìĿ´ë ĶĶ
ëŁ Ń
Ġìĺ¬ëĿ¼ ê°Ģ
Ġë°ľë ł¨
Ġì¹´ íİĺ
Ġìĸ´ìļ¸ë ł¤ìļĶ
ĠðŁ ĺ
ĠíĥĦ ìķķ
Ġë»Ķ ë»Ķ
Ġìł¸ ìĦľ
-- --
Ġ!!! !
ĠìķĦê¹Į ìĽĮ
ĠíĴį ëħĦ
Ġëĭ´ ì£¼
Ġì¹¨ íķ´
íķĺë Ĭĺ
Ġì£½ìĹ¬ ìķ¼
Ġì°¬ ìĸĳ
Ġë¶ĢëŁ¬ ìĽĮ
Ġíŀĺëĵł ëį°
Ġíķĳ ê³Ħ
ĠìĿ´ëŀĺ ìĦľ
Ġëįķ ë¶Ħ
ĠìķĦë¦Ħ ëĭµ
Ġëĭ¥ ì¹ĺ
Ġë± ħ
Ġê°Ģë¥´ ì³Ĳ
Ġë²Ħëł¤ ëĿ¼
Ġê°Īë ³´
ì¹ľë ¬¸
Ġìĸ´ëĶ ľ
Ġì§Ģì¼ ľë
Ġì£¼ìĿ¸ ê³µ
ë¹¨ ê°±ìĿ´
Ġì¸ ¡
Ġìı ł
ĠìĹŃê²¨ ìĽĮ
Ġk g
ĠìĹĲëĭ¤ ê°Ģ
Ġm bc
ĠìķĪë ıĻ
Ġê¹¡ íĮ¨
Ġë¶Ģëĵ¤ ë¶Ģëĵ¤
ìĻĦ ìłĦ
ê·¸ë¦¬ ê³ł
Ġë¶Ħëªħ íŀĪ
Ġíĺ¹ ìĭľ
ĠìĽĢ ì§ģ
ĠíĭĢë ¦°
Ġì¾ Į
Ġìĺ¹ íĺ¸
Ġíģ´ëĿ¼ ìĬ¤
ëĴ ¤
ê²ł ëĭ¤
ĠìĨĮë¹Ħ ìŀĲ
ëľ »
Ġy g
Ġìŀ¬ìĪĺ ìĹĨ
ìĨĮëħĦ ëĭ¨
Ġìµľë ĮĢ
ëĿ ł
Ġë¼ Ī
ĠíĥĢë ł¹
ĠëıĦìłĢ íŀĪ
ĠìĤ¬íĪ¬ ë¦¬
Ġìĭľë¦¬ ì¦Ī
ìĹ¬ëŁ¬ ë¶Ħ
Ġì½ĶìĬ¤ íĶĦëłĪ
Ġë§Īë¬ ´ë¦¬
Ġì»´ë° ±
B S
N S
Y G
¤ Ħ
§ íĮħ
¨ íĦ°
¨ ¸ëĭĺ
¬ ¼ë
¯ ¸ëĭĪ
° ë¦¬
² ½
´ ìĿ´
¹ Ī
¹ ł
ê ¾
ë ĳ¥ìĿ´
Ġ &
Ġ E
Ġ I
ĥ Ī
ħ ģ
ħ ìĿ´
į Ķ
Ķ ©
ĺ ¥
Ġì ³¤
Ġí Ĳ
ĠìĿ´ ëĿ¼
ĠìĿ´ ìĬ¤
ĠìĿ´ ìĦ±
ĠìĿ´ ìĿµ
Ġìķ ¤
Ġìķ ľ
Ġìķ ¨ë²Ķ
ĠìĹ ¥
ĠìĹ ®
ĠìĹ ĳ
ãħ Ĺ
Ġíķĺ ëıĦ
Ġíķĺ íķĺ
Ġê³ł ìŀĲ
Ġê³ł ì§ĳ
Ġëĭ¤ ìĪĺ
Ġëĭ¤ ëħ
Ġëĭ¤ ë©°
ĠëĤ ©
Ġë§ ģ
ìĦ ¬
ìĦ ¸ë
Ġê°Ģ ìĤ¬
Ġê°Ģ ê´Ģ
Ġê°Ģ ìĻķ
ìŀ ĩ
Ġê² ¹
¸ë ¥¸
Ġì§Ģ ë¥´
Ġì§Ģ ëĤľ
ĠìĿĢ ì§Ģ
ĠìĿĢ ê°Ģ
ĠìĹĲ ëĿ¼ìĿ´
ìķ Īë
Ġë³ Ģë
ĠëıĦ ë°°
ĠëıĦ ëįķ
Ġíķľ ëĳĲ
ìĿ´ ê²ĥ
ì§Ģ ì»¬
¼ë ĭ¤
Ġê· ¼ë
Ġê· ¼ë³¸
ìĭ ¹
ĠëĤĺ ë¬´
ĠëĤĺ ë°ľ
ĠëĤĺ ëĪĦ
ëĤ ´ë¦¬
ĠìĦ ¬
ì§ Īë
ì§ ľë
ĠìĿĦ ëł¤ê³ł
ë§ ¹
ê¸° ë¶Ģ
Ġãħ ķ
ìŀĲ ìĭĿ
ĠìĤ¬ ìĥģ
ľë ĨĪ
Ġìĺ µ
Ġëª ¬
ìĹ £
ìĹ ¼ë³ĳ
ê³ł ê¸°
Ġë¶ ĵ
Ġê²Į ìĬ¤íĬ¸
Ġê¸° íļį
ìĥ ¤
ìĥ Īë
ĠëĿ¼ ëįĶëĭĪ
ëĭĪ íĭ°
ĠëĲ «
Ġë§Į ë§Į
Ġë§Į ìĦ¸
Ġíķ´ ëĭ¹
Ġíķ´ ì¶©
ìĺ Ĩ
Ġìľ¼ë Ĥĺ
Ġëį ¤
Ġëį ¥
ĠìķĪ ê°Ĳ
Ġê³ °
ĠìŀĲ íķľ
ĠìŀĲ ìĦ¸
ĠìŀĲ ëŀĲ
ĠìŀĲ ë§ĪìŀĲ
ìķĦ ì§Ģ
ìķĦ ëĿ¼
ìķĦ ë¬´
ìķĦ ì¤Įë§Ī
íĺ ¼ë
ìĸ ¸ë
Ġêµ ī
Ġêµ ´ë
Ġìļ ±
ĠëĮĢ íķĺ
ĠëĮĢ ìŀ¥
ĠëĮĢ ì±ħ
Ġëĥ Ī
ë° ¤
ë° Ģ
Ġì° °
ìĽ ¹íĪ°
Ġì¤ «
Ġì¤ į
Ġë² ¨
ĠëĥĲ ëĬĶ
ìĿ¸ ìĥĿ
Ġëı Īë
ĠìĹ¬ íĥľ
Ġìłķ ìĦ±
Ġìłķ ìľł
Ġìłķ ëĭµ
Ġìłķ ëıĪ
Ġìłķ íĻķ
ìĤ¬ íļĮ
êµŃ ìĤ°
êµŃ ë°©ë¶Ģ
Ġìĭľ ìĽĲ
Ġìĭľ ìĦł
Ġìĭľ ê¶ģ
ê± ´ëª¨
ìĥģ ìĭĿ
ìĭł ë¹Ħ
ë¬ ¼ë
ĠìĪĺ ê³ł
ĠìĪĺ ë§İ
ĠëįĶ êµ¬
ĠëĤ¨ ëħĢ
ĠëĤ¨ ê¶ģë¯¼
ìĭľ ê°Ħ
Ġìŀĺ ìĤ¬
Ġì§Ħ ì¶ľ
Ġíĺ Ī
íķĺ ìĹ¬ê°Ħ
Ġë´ ħìĭľëĭ¤
ì§Ħ ìĭ¬
ì§Ħ ìĭ¤
ĠìĿ¼ ìĸ´ëĤĺ
ĠëŃ £
Ġê°ľ ìłķ
Ġê°ľ ìĽĥ
ĠìĿ´ë ª¨
ĠìĿ´ë ¡ł
ĠìĿ´ë Ł´
ĠìĿ´ë £¨
ĠìĿ´ë »¤
ëĮĢ ëĭ¨
ĠìĽ ħ
ìĪĺ ì§Ģ
ìĪĺ ìķĦ
ìĪĺ ìŀħ
Ġëª¨ ì§Ģ
Ġëª¨ ìļķ
Ġëª¨ ì¡°ë¦¬
Ġì¹ ľëĭ¤
ĠìĹ° ìĿ¸
ĠìĹ° ìĥģ
ĠìĹ° ìĬµ
ĠìłĦ ê°ľ
Ġì¡° ê±´
Ġì¡° ìĸ¸
Ġì¡° íķ©
Ġë§Ī ì¹ĺ
Ġë§Ī ìłĢ
ĠìĻľ êµ¬
ìĺ¤ ì°½ìĦĿ
ë¹ ħ
Ġìŀ¬ ë°©
Ġìŀ¬ ë²Į
Ġìŀ¬ ê²°íķ©
Ġëŀ ĺë
Ġìĺ¤ ìĹ¼
Ġì¶ ¤
Ġê¹Į ì§Ħ
ìĹ¬ ìłķ
ĠëĤ´ ìļĶ
ìłĦ íĺĦë¬´
Ġíĥ ģ
ìĦ± íĽĪ
ĠìĦ± ìłģ
Ġë¹Ħ ìĭ¼
Ġë¶Ģë ĶĶ
Ġë¶Ģë ¥ĺ
Ġë¶Ģ ìŀĲ
Ġë¶Ģ ìĿ¸
Ġë¶Ģ ìĤ°
ĠìĨĮ ìĭĿ
ĠìĨĮ ê°ľ
ĠìĨĮ ì¤ĳ
Ġì¤ĳ ë°ĺ
ĠíĻ Ģë
ĠìŀĦ ê¸Ī
Ġëħ¸ ìĿ´
Ġëħ¸ íĽĦ
Ġëħ¸ ì²ĺëħĢ
íĮ ©
Ġìĭł ëŀĳ
Ġìĭł ë¶Ħ
ĠìĬ¤ ëŁ¬
Ġê³µ ëıĻ
Ġê³µ íļ¨ì§Ħ
ìĿ´ë ŀĺ
ìĿ´ë ¶Ħ
ìĿ´ë ķĮ
ìĿ´ë Ħ¤
ĠìķĮ ë¦¬
ĠìķĮ ì½ľ
Ġë¯¸ ì¹ľëħĦ
ĠìĶ¨ ë¶Ģ
Ġìľł ìĤ¬
ë¬¸ íĿ¬
Ġëĭ¹ íķł
ê·¸ë §¨
ë¯¼ íĺĦ
Ġë°© ìĭĿ
Ġë°© êµ¬ìĦĿ
Ġìŀħ êµŃ
Ġë°° ëĭ¬
Ġë°° ìĽł
ìĿĺ ìĤ¬
ëħ ķ
Ġìļ° íķľ
Ġìļ° ìĦł
Ġìļ° ëıĻ
Ġìļ° ìĬ¹
Ġê¼ ´ë
Ġë³ĳ ìŀ¥
íĺĦ ë¹Ī
Ġê¹Ģ ìĪĺ
Ġê¹Ģ ì¢ħë¯¼
ĠìłĢë ĨĪ
ĠìłĢë ħģ
!! !
íĨ ±
Ġê²° ìłķ
Ġê²° ë¡ł
ëª ½
ĠìĺĪ ìĽĲ
Ġì§ĳ ìĤ¬
ĠìĦł íķľ
Ġì¤Ħ ê²Į
ìĦ¸ ê³Ħ
íĺ¼ ìŀĲ
ľë° Ķ
ĠíĻĶ ìłľ
ìŀĳ ê°Ģ
ĠëĦĺ ì¹ĺ
íĿ ł
Ġë²Ħ íĭ°
ìķĪ ìŀ¬íĺĦ
Ġìĭ¤ íĻĶ
Ġìĭ¤ ì²´
Ġì²ĺë ħĢ
ĠëıĻ ê¸°
ĠëıĻ ì°¸
ì¡° ìŀ¬íĺĦ
Ġê°Ĳ íŀĪ
ìķł ê¸°
ëĤ¨ ì£¼
Ġìļķ íķ¨
Ġìłľ ì¡°
ëıĻ ê·¼
Ġë°ķ íĺĢ
Ġìµľ ì´Ī
íİ Ļ
Ġìľ¼ ìĦ¸ìļĶ
ìĸ´ë Ĥ¬
ìĸ´ë ¦°
Ġëªħ ìĿĺ
ãħİ ãħĮãħĬ
Ġê±¸ ìĸ´
Ġì¹ĺ ê³ł
ĠíĿ Ļ
Ġëĭ¬ ì°½
Ġë²Į ê¸Ī
ëį ¤
Ġìħ Ģ
ĠíķĺëĤĺ ëĭĺ
ĠìĦ¤ ë§Ī
ĠìķĦëĭĮ ì§Ģ
Ġëĭ¤ëĬĶ ëį°
Ġê°ķ íķĺ
Ġê°ķ íĻĶ
ĠíĺĦ ëªħ
Ġê³Ħ ìķ½
Ġê´Ģ ì°°
Ġê´Ģ ê´ĳ
ĠìĿĢëį° ìļĶ
Ġë§¤ ìŀ¥
ë¶Ģë ıĻìĤ°
íĨµ ìĭłë¹Ħ
ĠíĨ ¡
Ġëł ´
Ġì¶Ķ íķĺ
Ġë²Ī íĺ¸
Ġìĭ¬ ìĭ¬
Ġëĵ± ìŀ¥
ĠìķĦìĿ´ ì¦Ī
Ġìĸ´ëĸ ł
Ġë°ľ ìĥĿ
ĠìĽĥ ê²¼
Ġì´ ĪëĮĢ
Ġêµ° ìĿ¸
;; ;
ĠëĴ¤ ì§Ī
ĠëĴ¤ ì§ĳ
ĠëŁ¬ ë¸Į
Ġê°ľë ³´
ĠëĲł ê¹Į
Ġì¶© ìłĦ
ê²¨ ìļ´
Ġì¤ĺ ìļĶ
Ġë§Ŀ ê°Ģ
Ġë§Ŀ ìĥģ
Ġë§Ŀ íķł
Ġ5 00
Ġëĭ¤ëĭĪ ê¹Į
Ġê±´ë °©
Ġìĭľë ¯¼
Ġê¸Ģ ê³ł
Ġêº¼ ìł¸ëĿ¼
Ġíĺ¸ ìĨĮ
ĠëģĿ ëĤ´
ĠíĮĮ ìĿ´íĮħ
íķľë į°
ĠíĮ¬ íĭ°
ĠíĮ¬ ëį¤
Ġíıī ê·ł
ĠìĨĲ íķ´
Ġìłľë ĮĢ
Ġìłľë Ħ¤
Ġìłľë ³´ìŀĲ
Ġëĵ¤ìĸ´ ê°Ķ
Ġì¦ ī
Ġë³¼ ê¹Į
Ġíı¬ ìĬ¤
Ġíı¬ íķ¨
Ġê´ĳ íĻĶë¬¸
ĠíĮĶ ë¦¬
ĠíĮ¨ ê±°ë¦¬
ĠìĺĪë °©
Ġë§ī ìĥģ
Ġë§ī ë§Ĳ
Ġì¶ľ ìĤ°
ĠíĻķ ë¥ł
Ġë¯¸ë Ĥĺ
Ġë³Ģ íķĺ
Ġì¤ĳêµŃ ìĿ¸
Ġíģ¬ ë¦¬ìĬ¤
ĠíĬ¸ ì§ĳ
ëįĶ ê¸°
Ġì²Ń ëħĦ
íĺĢ ìĦľ
ëĭ¬ ì½©
Ġì»¤ ë®¤
Ġëĭ® ìĿĮ
Ġë²ķ ìĽĲ
Ġ20 20
ĠâĢ ĺ
ĠâĢ Ļ
Ġëĸł ìĺ¤ë¥´
ĠíĹĪ ìľĦ
Ġíģ° ìĿ¼
ĠëĶĶ ì§Ģ
ĠëŀĦ ê¹Į
Ġê·¹ ë³µ
Ġìº ¡ì³Ĳ
Ġì§ľ ë¦¬
Ġ..... ...
Ġë» £
ëģ Ŀ
ìľ¤ ìķĦ
ĠìĹĦì²Ń ëĤľ
Ġëı¼ ìĦľ
ĠìĮ ¤
ĠìĮ ĪëĶĶ
ìĻ¸ êµŃ
ëĪĦ ëĤĺ
íģ ´
Ġìŀł ìĪĺ
ìŀ¡ ìĿ´
ìĸ´ëĤĺ ìĺ¤
Ġì£¼ë ¨¹
²Į ëłĪ
Ġìľ¤ ì§Ģ
ĠìĦ¹ ìĭľ
Ġê¸°ëĭ¤ ëł¤
Ġê³¨ ëª©
ĠìºĲ ìĬ¬
ìĿ¸ë į°
Ġ6 0
ì¢Ĩ ê°Ļ
Ġë»Ķ íķĺ
Ġìĸ¸ë Ĭ¥
ĠãħĨ ãħĤ
ĠãħĨ ãħİãħĮãħĬ
Ġíĳ ¼
Ġë¸Ķ ëŀĻ
Ġëĭ¤ë©´ ìĦľ
íĻį ìĸ´
ĠíĹ¬ íį¼
ĠëĿ µ
ĠëĤ´ëł¤ ëĿ¼
Ġëº ¨
Ġëº ı
ĠëĪĦêµ° ëį°
Ġê°Ģìł¸ ìĺ¤
ìłķìĭł ë³ĳ
Ġë©Ģ ì©¡
Ġì´Īë ĵ±
Ġì»¨ íħĲì¸ł
ë· Ķ
Ġìĩ¼ íķĳ
ìĹĺ ë¦¬
ĠìĬĪ íį¼
ì½© ëĭ¬ì½©
ĠìĹī ëį©ìĿ´
Ġê²¨ ìļ°
Ġì¡± ìĨį
¶Ģë ª¨
ĠìĤ´ìķĦ ê°Ī
ľ¨ ë¦¬
Ġìª ¼
Ġíĩ ´ë¬¼
ĠìĻł ì§Ģ
ĠìĻł ë§Į
Ġìı ĺ
ĠíĿĶ ëĵ¤
Ġë°Ķê¿Ķ ëĿ¼
ĠëĭĪë ¯¸
ĠëĭĪë ĵ¤
ĠìĿ´ìĬ¹ ê¸°
ĠìĿ´ìĬ¹ ìļ°
ĠìµľìĨĮ íķľ
ë± Ģ
ìĿ¼ë °ĺ
íĺ¸ë ıĻ
Ġë¬´ëĦĪ ì§Ģ
ëĳ ¬
ëĳ ĳ
ĠìĿ´êµŃ ì£¼
ê°ľëı ¼ì§Ģ
Ġì°¨ëł¤ ëĿ¼
íĿ¥ êµŃ
íĥĢë ¯¼
Ġëª¨ë¥¼ ê¹Į
Ġìĵ¸ë į°
ĠëĪĪë ¹Ľ
Ġì³Ĳëĭ¤ ë³´
Ġìİ Ħ
Ġë· °
Ġê²¸ ìĨĲ
Ġìłł ëįĶ
Ġìĭ¸ìĿ´ ì½Ķ
ĠíĢ´ë ĵ¤
íľĺ ìŀ¬
ĠT V
ĠëĤŃ ë¹Ħ
Ġë§Ļ ìĭľëĭ¤
ĠìķĦë¬´ë Ł°
ĠìĤ¬ìĿ´ë ¹Ħ
ĠìŀĲì¡´ ìĭ¬
ĠìłĢì§Ģ ë¥¸
Ġìļ°ìļ¸ ì¦Ŀ
ìĸ´ëĸ ¤
Ġìĸ¸ìłł ê°Ģ
íĵ ¨íĦ°
Ġv s
ìĦ¹ ìĬ¤
ĠëĦĪë¬ ´ëĤĺ
Ġì£¼ì°¨ ìŀ¥
ĠìĪĺìŀ¬ ë¯¼
Ġë§¤êµŃ ëħ¸
ĠëĨĢìķĦ ëĤĺ
ĠðŁĳ į
ìķĪíĥĢ ê¹Ŀ
Ġâĺ Ŀ
Ġë¸ĮëłĪ ìĿ´íģ¬
Ġìĭľê¶ģ ì°½
ìĿ´ëŀĺ ìĦľ
Ġì»¤ë®¤ ëĭĪíĭ°
3 0
e r
y p
¦ ¿
§ Ľ
¨ ¸ë¦¬
° Ķ
¸ Ķ
¹ ¨
ë İ
ë Ľ°
ì µ
ì Ńī
Ġ YG
ģ Į
ī ìĿ´
ĭ ¥
ĳ ëĮĢ
Ķ ±
ķ ħ
Ľ ëĤł
Ľ ë¶Ī
ľ ê¸°
ŀ Į
Ġì į°
Ġë ®
Ġí Ĥ¬
ĠìĿ´ ìĸ´
ĠìĿ´ ë¶Ħ
ĠìĿ´ ìŀ¬ëªħ
Ġìķ Īëĭ¤
ĠìĹ ĺ
ĠìĹ ´ë°
ĠìĹ ĺì§Ģ
ĠëĬĶ êµ°
Ġê° ¸
Ġìŀ £
Ġìŀ ī
Ġíķĺ ë²Ħ
Ġíķĺ íķĦ
Ġê³ł ìłķ
Ġê³ł ë§Į
Ġê³ł ë¯¼
Ġê³ł ëł¤
Ġê³ł ì³Ĳ
Ġê³ł ì¶Ķ
Ġê³ł ëĶ©
ĠëĤ Ħ
Ġë§ ·
Ġëĵ¤ ìĿ´ë
ìĦ ¯
ìĦ °
Ġê°Ģ ê¹Ŀ
Ġê² »
ĠìķĦ ëĭ¤
ĠìķĦ ìĭľìķĦ
ĠìķĦ ë²ł
ĠìķĦ íĶĶ
Ġì§Ģ ìĥģ
Ġì§Ģ ê»
Ġì§Ģ ëĶĶ
´ë ²ĮëłĪ
ìł Ĭ
ìł ĸ
ìł ¸ë
ĠëıĦ ëģ¼
ĠëıĦ ëĳĳ
ĠëĦ ¨
ĠëĦ Īë
ìĿ´ ì¢ħìĦĿ
ì§Ģ ìĸ´
ì§Ģ ìļ°
ì§Ģ ìĹ°
ì§Ģ íļ¨
Ġë° Ģëł¤
íķ ´ëĿ¼
ĠëĤĺ ìĺģ
ĠëĤĺ ëŀĺ
ĠëĤĺ ë¬¸íĿ¬
ĮĢ ì¤ĳ
ë¦¬ ìķĦ
ĠìĿĦ ëĿ¼ê³ł
Ġãħ į
Ġãħ Ķ
ìŀĲ ìĤ´
êµ ¼
ĠìĤ¬ íĩ´
ľë ¹Ħ
ľë ³¸
ľë ¹Ī
ĠëĦ¤ ìĹ¬
Ġìĺ ®
Ġì§ Īëł¤
Ġì§ Īë¬¸
Ġìĥ ¤
Ġìĥ Į
Ġìĸ´ ìĹ¬
Ġìĸ´ ê·¸
Ġìĸ´ ì¨
Ġì¢ ĩ
ê°Ģ ìĭľ
Ġê¸° ê¸°
Ġê¸° ìĽĲ
Ġê¸° ìļ´
Ġê¸° ê´Ģ
ĠëĿ¼ ëĭĪê¹Į
Ġê·¸ë Ŀ¼
Ġê·¸ë ł¤
Ġë§Į ìł¸
Ġíķ´ ì¤
Ġíķ´ ì¤ĺ
ìĺ ĽëĤł
ĠìĿ¸ íķ´
ĠìĿ¸ íķľ
Ġê³ ½
Ġë¹ ½
ĠìŀĲ ëĤĺ
ĠìŀĲ ìĺģ
ĠìŀĲ ë£Į
ĠìĻ Ī
ìķĦ ìĺ¤
íĺ Ī
íĺ ¸ë¡ľ
ëł ģ
ĠëĮĢ ê¸°
ĠëĮĢ ìĿĳ
Ġë² Īë
ìĿ¸ ìĦ±
Ġëı ķ
ĠìĹ¬ ìĦľ
ĠìĹ¬ ìłĦíŀĪ
Ġìłķ ë¦¬
Ġìłķ ëĭ¹
Ġìłķ ìķ¡
Ġìłķ ìļ°ìĦ±
Ġìĭľ ìĬ¤
Ġìĭľ ìľĦ
Ġìĭľ ìłĲ
Ġìĭľ ìĦ¤
Ġíĸ Ħ
ìĥģ ìĪĺ
ìĭł ëıĦ
ìĭł íĺľ
ë³ ¸ëĭ¤
ë¬ ¸ë
ì¹ ´ë
ì¹ ľëĭ¤
ìľ Į
ĠìĨ ľ
ĠìĪĺ ëıĦ
ĠìĪĺ ìłĢ
ĠìĪĺ ë©´
ĠìĪĺ ë°°
ĠëįĶ ëŁ¬ìĽĮ
ĠëįĶ ëĵ¬
Ġì² ľë
Ġì² ´ëĮĢ
ĠëĤ¨ ì¶©
ìłķ íķ´
ìłķ ì¹ĺ
ìłķ ë¶Ģ
ìłķ ìļ°ìĦ±
ìĭľ ìĿ´
Ġì§Ħ ë¦¬
Ġì§Ħ ìļ°
ë§Ī ëĭĪ
íķĺ ê³ł
ĠíĸĪ ìŀĸìķĦ
ĠìĥĿ ë¦¬
ĠìĥĿ íĥľ
ì² «
ĠìĦ¸ ê¸°
ĠìĿ¼ ì§Ħ
ĠìĿ¼ ìĦ¸
ĠìĿ¼ ê´Ģ
ĠìĿ¼ ìĸ´ëĤ¬
Ġê°ľ íķľ
Ġê°ľ ìĦ±
Ġê°ľ ê·¸ë§¨
ĠìĿ´ë ĮĢë¡ľ
ĠìĿ´ë ģĮ
ìĸ´ ì©Į
ê¹Į ë¦¬
Ġíķł ëŀĺ
Ġíķł ë§¤
Ġíķł êº¼
Ġíķł ëł¤ê³ł
Ġëª¨ ìĭľ
Ġëª¨ ë¥¸
êµ¬ íķĺ
ãĦ ²
ĠìĹ° ê²°
íķľ ì§Ģë¯¼
ĠìłĦ ê¸°
ĠìłĦ ìĭľ
ĠìłĦ ëĳĲ
ĠìłĦ íĻĺ
ì£¼ ìĽĲ
ì£¼ ìŀĳ
ì¡ ¸
Ġì¡° ìŀ¥
Ġì¡° ë¡±
Ġì¡° ë³´ìķĦ
ë¹ Ľ
Ġìķł íĶĮ
Ġêµ¬ ë¦¬
Ġêµ¬ ë³Ħ
Ġêµ¬ ëıħ
Ġêµ¬ ëįĶê¸°
Ġëŀ ı
Ġìĺ¤ ë§Į
Ġìĺ¤ íķ´
Ġìĺ¤ íĥĢ
Ġìĺ¤ ë¥¸
Ġìĺ¤ ì£½
Ġë¬¸ íķĻ
Ġë¬´ íķľ
Ġë© ±
ê±° íĥĳ
ł¤ ê³ł
ìłĦ íĻĶ
Ġíĥ ķ
Ġíĥ Ŀ
ìĦ± íĺķ
ĠìĦ± ì§Ī
ĠìĦ± íĸ¥
ĠìĦ± ìĭ¤íŀĪ
Ġë¹Ħ ìĶ¨
Ġë¹Ħ íĥĢë¯¼
Ġë°Ķ ìģĺ
Ġë°Ķ ë¥¸
Ġë¶Ģ ìłķ
Ġë¶Ģ ëĭ´
ĠìĨĮ ëĤĺ
Ġì¤ĳ ê³ł
Ġì¤ĳ ëĭ¨
Ġì¤ĳ ìķĻ
ĠìłĢ ê±´
ĠìłĢ ì§Ī
ĠìłĢ ê²ĥ
ĠìĬ¤ íĥ
ĠìĬ¤ ì¼Ģ
ĠìĬ¤ ëŁ¬ìĽĮ
ĠìĬ¤ íĮĮìĿ´
Ġê³µ ìĭĿ
Ġê³µ ê³µ
ìĿ´ë Ŀ¼
ìĿ´ë Ł´
ŀĺ ê³¤
Ġë¯¸ ìĽĮ
Ġë¯¸ ì¶Ķ
Ġê³¼ íķĺ
ĠëĬ ł
Ġìľł ìłĦ
Ġìľł ë¶Ģ
Ġìľł ì¶ľ
ë¶Ģ íĦ°
ìĿ¼ ê¸°
ìĿ¼ ëĭ¨
ĠêµŃ ìłģ
ĠìĿ¸ë ıĦ
ĠìĿ¸ë ĶĶ
ĠìĿ¸ë ħĦ
ĠìĿ¸ë ¥ĺ
Ġì°¨ ëĭ¨
Ġì°¨ ëŁī
íĶ ½
Ġë¨¹ ìĹ¬
Ġìĥģ ìĺģ
íĦ° ë¦¬
Ġìŀħ ëĭĪê¹Į
ëħ ¸ëŀĺ
Ġìļ° ê¸°
ëĦ £
Ġíķľëĭ¤ ë©´
Ġë°Ľ ìķĦëĵ¤
íĺĦ ìłķ
íĺĦ ëĮĢ
íĺĦ ìļ°
íĺĦ ëª¨
Ġê¹Ģ ìĺģ
Ġê¹Ģ íĿ¬
Ġê¹Ģ íĺľ
Ġê¹Ģ ìĨĮìĹ°
ìĦł ìĥĿ
ĠìłĢë ²Ī
Ġì³Ĳ ëĦ£
ìłĢ ë¦¬
ëĤ´ ìļ©
ìĺĪ ìģľ
ĠëĪĦ ë¥´
ëª ĩ
ĠìĺĪ ìģ¨
ìĤ° ë¶Ģ
ĠìĦł ë¬¼
Ġë¶Ī ìķĪ
Ġìŀ¥ ê°Ģ
Ġìŀ¥ ìĿ¸
Ġìŀ¥ ë¥´
ĠíĻĶ ëĤĺ
ĠíĻĶ ëł¤
ê´ ľ
ì¤ĳ ê¶Į
ĠìĪ «
ĠëĺĲ íķľ
ĠìľĦ ì¹ĺ
Ġë¯ Ģ
Ġë¯ ¼ë
Ġë²Ħ ëĵ¤
Ġìĭ¤ ì¢ħ
Ġëŀĳ ê»ĺ
ĠëıĻ ìĸĳ
ì¡° ë³´ìķĦ
Ġê°Ĳ ëĭ¹
Ġê°Ĳ íĥĦ
ìķł ë¹Ħ
ê³Ħ ì§ĳ
Ġìļķ íķľ
Ġìļķ ìĭ¬
ëŁ¬ ìī¬
Ġë¨ ¼ì§Ģ
Ġë°ķ íķľë³Ħ
Ġë°ķ ëªħìĪĺ
Ġìµľ ê·¼
Ġíĭ Ī
ĠëĦĪ ê±°
Ġìĺ¬ ëł¸
Ġìĺ¬ ë¦¼
Ġìĺ¬ ëŀĲ
íĬ¸ ì½©
íĥĢ ì§Ģ
ĠëıĮ ëĮĢê°Ģë¦¬
Ġê¸¸ ê±°ë¦¬
Ġì¹ĺ ìļ°
Ġì¹ĺ ë§¤
Ġìŀ¡ ìķĦë¨¹
Ġëĭ¬ ë¦¬
Ġëĭ¬ ë¹Ħ
Ġë²Į ë¦¬
Ġìħ ľ
ĠìĦ¤ ìķĦ
ĠëĴ Ī
Ġë³¸ ì§Ī
Ġê°ķ ìļĶ
íĹ ¨
Ġê´Ģ ìĥģ
Ġê´Ģ ëŀĮ
Ġëħ¸ë ıĻ
Ġëħ¸ë ¸ĮëĿ¼
ĠëĿ¼ëĬĶ ëį°
ĠëĶ° ë¦¬
ĠëĶ° ëľ»
ë£ ¡
ë£ ©
ë£ ¸
Ġìŀĳ ìŀĳ
Ġìŀĳ ëħĦ
Ġë°©ìĨ¡ ìĤ¬
Ġê²°íĺ¼ ìĭĿ
Ġì¶Ķ íķľ
Ġì¶Ķ ì¢ħ
Ġì¶Ķ ìŀĲíĺĦ
íĸī ë³µ
Ġì¢Ĩ ëĤĺ
ìł¸ ìķ¼
Ġêº ¾
Ġê°Ħ ì§Ģ
Ġì§Ī ì§Ī
íĤ¤ ìĬ¤
Ġêµ° ìļĶ
ĠëĴ¤ ì¡Į
íĭ ¸
Ġìĸĳ ìª½
ĠëĤ´ë ¶Ģ
ĠëĤ´ë ²Ħ
Ġë°ĺ ìĿ¼
ĠëĳĲ ëł¤
Ġëª° ìķĦê°Ģ
Ġê°ľë ¬´
Ġê°ľë ³ĳ
ĠíĥĢ ìĿ¸
ì¼ ľ
Ġë§Īë ¥¸
Ġë¬¼ ê±´
ëĦ¤ ìĿ´ë²Ħ
ìĿĢ ìłķ
ĠëĪĪ ê¹Ķ
Ġìį ¬
Ġìĭ¸ ê°Ģì§Ģ
ĠíĬ¹ ìĿ´
Ġëĵ¤ìĸ´ ìĻĶ
Ġì¢ħ ë¶ģ
Ġë¦¬ ê·¸
ìĸĳ ìĿ´
ìĸĳ ìķĦì¹ĺ
ĠìĭĿ ìĥģ
ĠíķĦ ìĪĺ
Ġëĳĺ ì§¸
ìĦ¤ ë§Ī
Ġë¶Īë §¤
Ġë¶Īë łĢ
ëª¨ ëĵł
ì³Ĳ ìĦľ
Ġ' '
Ġì¶ľ ìĭľ
Ġë¬´ë £Į
ĠëĬĶëĭ¤ ê³ł
íĭ° ì¦Į
¹Ħ ìĬ¤
ëįĶ ëĿ¼
Ġê·¸ëŀĺ ìļĶ
Ġë©Ķ ìĿ´
ë°Ķ ëŀĮ
Ġê¼¬ ë¦¬
Ġê¼¬ ìĭľ
íĻ© íĿ¬
Ġì»¤ ìĦľ
Ġì»¤ ë¦¬ìĸ´
?? ?
ĠëıĮìķĦ ëĭ¤ëĭĪ
ĠìĬ¹ ìĿ¸
Ġì°½ íĶ¼
Ġìķ½ ê°Ħ
ĠìĤ¬íļĮ ìķħ
Ġì¡´ ì¤ĳ
Ġìª½ ë°ľ
ĠíĮĲ íĥĢì§Ģ
ëıħ êµĲ
Ġê¸ī ìĹ¬
Ġê¸ī ìĭĿ
Ġëĸł ëĵ¤
Ġëĸł ëĤľ
ĠíĹĪ ìĦ¸
ĠíĹĪ ìłĳ
Ġì¡°ìĦł ìĿ¼ë³´
ĠëĶĶ ìŀĲìĿ¸
íľ´ ê°Ģ
ì²ĺ ìĿĮ
Ġíĥľ ìĸ´ëĤľ
Ġíĥľ ê·¹ê¸°
Ġìº ¬
ĠìĦľë ¹ĦìĬ¤
ìľ¼ë ¡ľ
Ġ..... ..
Ġë§Ľ ìĹĨ
Ġê²Ģ ì¦Ŀ
Ġëĸ¨ìĸ´ ì¡Į
Ġ;; ;;;;
ĠìĮ ĵ
ìĵ ´ëĭ¤
¬´ ìĦ±
Ġìŀł ìĭľ
ê°Ī ìĪĺë¡Ŀ
ĠìĬ¬ íį¼
ĠìĬ¬ íĶĪ
ĠíĴĢ ë¦¬
Ġê·¼ ìľ¡
ìį ħ
Ġë³Ħ ê±°
ĠìĦ¸ë ł¥
ĠëĬĺ ìĸ´ëĤĺ
ê´ĳ ê³ł
ĠíĨł ì°©
ĠìĹħ ìĨĮ
Ġë§ĺ ê»ı
ìĸ´ëĤĺ ìĺ¨
Ġì¤Ģ ìĺģ
²Į ìĿ´
ì» ¨
ì» µ
ĠìĭŃ ìĭľ
Ġë¹¡ ìĦ¸
ìĬ¬ ëŀĮ
ĠìķĦìĿ´ë ĶĶìĸ´
Ġê¸°ëĭ¤ ëł¸
ë²Į ìĿ´
Ġìĸ´ë¦° ìķł
ĠíĥĪ ìĺģ
Ġì« ĳ
Ġë°ľë ª©
Ġë°ľë ģĪ
ĠíĿ¬ íķľ
Ġìĸ´ìļ¸ë ¦°ëĭ¤
ªħ ë°ķ
Ġëī´ ìļķ
Ġì¯ Ķ
Ġë»Ķ íŀĪ
Ġì½ ľëĿ¼
ĠìĻķ ëĶ°
ìĽĥ ê¸°
ìĪľ ê°Ħ
Ġíĳ ľë³¸
Ġê°ģ ìŀĲ
Ġë°Ŀ íŀĪ
Ġë¹µ ë¹µ
Ġíļ¨ ì£¼
Ġíļ¨ ê³¼
Ġíļ¨ ë¦°
Ġìĳ Ī
ĠìĽĮ ëĦĪ
Ġìĺ¤ëŀĺ ìĺ¤ëŀĺ
ĠìķĦê¹Į ìļ´
Ġì¢ĭìķĦ íķľëĭ¤
Ġíĺľ íĥĿ
ëĬĲ ëĭĪ
Ġëķľ ìĭľ
ĠíĿ¥ ë¶Ħ
ĠìŀĶ ìĿ¸
ĠìŀĶ ëĤĺë¹Ħ
ìĺ¬ ë¦¬
ĠìĿ´ìģ ł
Ġëİ ĥ
Ġê¹Ķ ëģĶ
ĠìĨĶ ì§Ģ
ë¸ ħìĭł
ĠíĢ Ħ
ĠíĿĲ ë¦Ħ
ëĸ ¡
ĠìĦ¼ íĦ°
???? ????
Ġíģ´ë ŀĺ
Ġm c
Ġ~~~~~ ~
íķ´ë ıĦ
ë§İ ìĿ´
ĠíĺĦëĮĢ ì°¨
ë± ħ
ĠëıĦë§Ŀ ê°Ģ
Ġì°Ķ ëŁ¬
ĠìĥĿê²¨ ìĦľ
Ġë°°ìĽĮ ëĿ¼
ëķ ħ
ĠíĦ ±
ĠíĦ ¸ë¦¬
Ġìķķ ëıĦ
ĠíĿĳ ìĿ¸
ĠãħĩãħĪ ãĦ¹
ĠS NS
Ġëĳ ¬
Ġëĳ Ķ
ĠëĮķ ìĿ´
ìļ´ë į°
ë³´ë ĵľ
ë¶Īë §Į
ĠíĿĺ ë¦¬
ĠëĵĿ ìĭ¤
Ġë§ĺë ĮĢë¡ľ
ĠìĤŃ ìłľ
Ġì¤ĳê°ľ ìĤ¬
Ġì»´ íĵ¨íĦ°
ĠëĤ´ë³ ´ëĤ´
Ġë©ĭìł¸ ìļĶ
ĠëĿ¼ìĿ´ë ¸Į
ĠìĪĺë¦¬ ë¹Ħ
ĠìĨįìĥģ íķĺ
ìĸ´ëĦ ĺ
ĠëĤľë ¯¼
Ġìĸ´ì§Ģ ê°Ħ
ĠìĬ¤ì¹´ ìĿ´
ĠìĽĶëĵľ ì»µ
ĠìĦľíĺĦ ì§Ħ
ĠëĪĮ ëŁ¬
Ġë¶Ģì¶Ķ ê¸°
ĠìĨĮë°© ê´Ģ
¸ë¥¸ ê±°íĥĳ
ì§ľë ¡ľ
Ġêµī ìŀ¥
ĠìĶ¨ë¶Ģ ë¦¬
ìĹĺë¦¬ ìķ¼
ĠìĹ´ë° Ľ
Ġíķĺë²Ħ ëĵľ
Ġì§Ģê» Ħ
ĠëĤĺìĺģ ìĦĿ
ìłķíķ´ ìĿ¸
Ġìĺ¬ë¦¼ íĶ½
1 5
1 9
? !
d t
i s
o u
s t
u dt
¡ Ģ
¤ ì¼Ģ
¥ Ĳ
° °
² ħ
¼ ì§Ī
¼ ìĨĲ
â Ŀ¤
ë ī
ì «
ì ĳ
ì ¥Ĳ
í ħĲëį°
Ġ B
Ġ C
Ġ G
Ġ H
Ġ L
Ġ e
Ġ udt
Ĥ Ģ
Ĥ ľ
ĥ ħëĭĪëĭ¤
Ħ Īë
Ħ Īë¬´
ħ ķ
Ĩ Ģ
ī ģ
Į Ħ
į ķ
Ķ ¥
ľ Į
Ł ī
ł ´
Ġì ĩ
Ġì Ń
Ġë ¤
Ġë ¦¼
Ġë £Į
Ġë ¦´
ĠìĿ įëĭĪëĭ¤
Ġí ıĦ
Ġíķ «
Ġíķ ¸
Ġíķ ¸ëĵľ
ĠìĿ´ ë§Į
ĠìĿ´ ìĹ¬
ĠìĿ´ ìŀħ
ĠìĿ´ ìĸ´ì§Ģ
ĠìĿ´ íĭĢ
ĠìĹ ¼ë
ĠìĹ ´ë¦¬
ĠìĹ Įãħĭãħĭ
ãħ Ĭ
Ġê° ¤
Ġíķĺ ìĪĺ
Ġíķĺ íĬ¸
Ġê³ł ìĸĳìĿ´
Ġëĭ¤ ìĭł
Ġëĭ¤ ë¦Ħ
Ġëĭ¤ ìĸĳ
ĠëĤ Ģ
Ġë§ ´
Ġëĵ¤ ìľ¼ë
ìĦ ¸ëĮĢ
Ġê°Ģ ê¹Į
Ġê°Ģ êµ¬
Ġê°Ģ ìĬ¤
Ġê°Ģ ë³į
ĠìķĦ ìĺ¤
ĠìķĦ íĭ°
ĠìķĦ ê»´
ĠìķĦ ìĽĥ
ê° ĵ
ê° Īë
Ġì§Ģ ëĤ
Ġì§Ģ ìŀ¥
Ġì§Ģ ìĽĮ
Ġì§Ģ ëĤ¬
Ġì§Ģ ëŁ´
ëĭ Ń
ĠìĿĢ íĸī
´ë ĦĪë¬´
Ġìĸ Į
ìķ ĺ
ĠëıĦ ê¹¨ë¹Ħ
ĠëĦ ¹
ĠëĦ ¼
Ġíķľ ëĭ¹
Ġíķľ ê³Ħ
Ġíķľ ìª½
ìĿ´ íķ´
ìĿ´ íĺĦ
ìĿ´ ìģľ
ìĿ´ ìĬ¹
ìĿ´ ê±¸
ìĿ´ íĤ´
ìĦľ ëĭĪ
ìĦľ ìĿ¸
ìĦľ íĬ¸
ìĦľ ìļ¸
ì§Ģ ë¥´
ì§Ģ ëĶĶ
ì§Ģ ìħĺ
¼ë ¬¼
Ġë° ¸
ĠëĤĺ ëĪ
ĠëĤĺ ëī
ë¦¬ íĭ°
ë¦¬ ì¹´
Ġê±° ëĿ¼
Ġê±° ë¯¸
Ġê±° ëł¤
Ġê±° ìļ¸
Ġê±° íĴĪ
ê¸° ê°Ħ
ê¸° ìĪł
Ġãħ Ħ
êµ ³
ĠìĤ¬ ë¦¬
ĠìĤ¬ ìĪĺ
ĠìĤ¬ ìłĦ
ĠìĤ¬ ë©´
ĠìĤ¬ ë§Ŀ
ĠìĤ¬ ê·¹
ĠìĤ¬ ëĤĺìĿ´
ĠìĤ¬ ë¡Ģ
ĠìĤ¬ ì´Į
ľë ł¥
ĠëĦ¤ íĭ°ì¦Į
Ġì§ ´
Ġì§ Īë
Ġìĸ´ ì§ľ
ê³ł ìĿ¸
ê³ł íĸ¥
ëŀ ĸ
Ġë³´ ì¡°
Ġë³´ ì»¬
ê°Ģ ì¡±
Ġê²Į ìĭľ
Ġê¸° ìķĦ
Ġê¸° ìĸ´
Ġê¸° ìĹ¬
Ġê¸° ëŁ¬
Ġê¸° ì´Ī
Ġê¸° ìĸ´ëĤĺìĺ¤
Ġê¸° ëıħêµĲ
ĠëĿ¼ ëĿ¼
ĠëĿ¼ ìĿ´íĶĦ
ĠëĿ¼ ëĶĶìĺ¤
Ġê·¸ë ĨĪ
Ġê·¸ë łĪ
ëĭĪ ìĬ¤
ëĿ¼ ìĿ¸
Ġë§Į ëĤ¨
Ġíķ´ ì¡Į
Ġìľ¼ë Ŀ¼
ëĤĺ ì¤ĳ
ĠìĿ¸ íħĮ
Ġëį §
ĠìĿĺ ë¦¬
ĠìĿĺ ìĥģ
ĠìĿĺ ë¬¸
ĠìĿĺ íĺ¹
ĠìķĪ íĭ°
ĠìķĪ ìĵ°
ĠìŀĲ ì¤ĳ
ĠìŀĲ ì¹Ń
Ġëħ ¸ë¦¬
ĠìĻ ĢëıĦ
ìķĦ ê°Ģë¦¬
Ġêµ ¶
ĠëĮĢ ìĪĺ
ĠëĮĢ íļĮ
ĠëĮĢ ë³¸
ĠëĮĢ ê°Ī
ĠëĮĢ ëĭµ
ĠëĮĢ ëĤ®
Ġê¹ ½
ëĭ¤ ìĪĺ
ëĭ¤ ëĬĶ
Ġë¥ ´
Ġì° ¡
Ġë² ½
ĠëĥĲ êµ¬
ê¸ Īë
ìĿ¸ íĬ¸
ĠìĹ¬ ìļ°
Ġìłķ ëĵ¤
ìĤ¬ ê¸°
ìĤ¬ ìŀĲ
Ġìĭľ êµŃ
Ġìĭľ ì²´
Ġë¡ľ ë§¨
ì¹ ¸
Ġì£¼ ìĿ¼
Ġì£¼ ìĹ°
Ġì£¼ ìľĦ
ĠìĪĺ ìĺģ
ĠìĪĺ ìŀĳ
ĠìĪĺ ìĹħ
ĠìĪĺ ì¶ľ
ĠëįĶ êµ°
ĠëįĶ ë¶Ī
ëĵ Ģ
ĠëĤ¨ ê¸°
ĠëĤ¨ ê²¨
ìłķ ìļ°
ìłķ ì¤Ģ
ìłķ ìķ¡
ìĭľ ê³ł
ìĭľ ìĸ¸
ìĭľ ì¦Į
Ġìŀĺ ìĥĿ
Ġì§Ħ ì¤ĳê¶Į
ë¥ ´ë¥´
ë§Ī ì§Ģë§ī
Ġê¸ ĭ
Ġê¸ į
ĠìĥĿ íĻ
ĠìĥĿ ê¸´ëĭ¤
ì² ¨
ĠìĦ¸ ìļ©
ĠìĦ¸ íĥģ
ĠìĿĮ ì£¼
Ġìĸ´ë ¨¸ëĭĺ
ì§Ħ ìĿ´
ĠìĿ¼ ì§Ģ
ĠìĿ¼ ê¸°
ĠìĿ¼ ìłľ
ĠìĿ¼ ìŀĲë¦¬
ĠìĿ¼ ì°į
ë§Į ìĹĲ
Ġê°ľ ì¡°
Ġê°ľ ì²ľ
ĠìĿ´ë ¹¨
ë¡ľ ì§Ģ
Ġê·¸ ê±¸ë¡ľ
ìĸ´ ì¤Ģ
Ġëª» íĸĪ
ĠìĽ ¡
Ġíķł ê»ĺ
Ġëª¨ ìĿ´
Ġëª¨ ìĿ¸
Ġëª¨ ìĹ¬
Ġëª¨ ìħĶ
ìŀ¥ ëĤľ
ìŀ¥ ì°½
ãĦ ·
Ġì¹ ©
ĠìĹ° ìŀ¬
ĠìĹ° íķ©
ìĬ¤ íĤ¤
ìĬ¤ íĮħ
ìĬ¤ ì½Ķ
íķľ íĺľì§Ħ
ĠìĶ ģ
ìĽĲ íĿ¬
ĠíĶ ĦëĿ¼
Ġìłģ ìŀĲ
Ġìłģ ìĸ´ëıĦ
ĠìłĦ ìĭł
ĠìłĦ íĪ¬
ĠìłĦ ìĦ¤
ĠëķĮ ë¦´
ì£¼ íĺģ
ĠëĶ ¸ë¦¬
Ġì¡° ì§Ģ
Ġì¡° ìĹ°
Ġì¡° ê°ľ
Ġì¡° ìłĪ
Ġì¡° ìŀ¬íĺĦ
Ġì¡° ë§Įê°Ħ
Ġë§Ī ì·¨
ìĺ¤ ëŀľë§Į
ë¹ Į
Ġìķł êµĲ
Ġìķł ë§¤
Ġìŀ¬ ìĿ¸
Ġêµ¬ íķ´
Ġêµ¬ ì¡°
Ġêµ¬ ê±¸
Ġêµ¬ ë¨¼
Ġëŀ Ń
Ġìĺ¤ íĶĪ
Ġìĺ¤ ëĭ¬ìĪĺ
ĠãĦ ¸
ìĹ¬ ì£¼
Ġë¬´ ì§Ģ
Ġë¬´ ê¸°
Ġë¬´ ê³ł
Ġë¬´ ìĤ¬
ìĤ ´ë
ìłĦ íĺķ
Ġíĥ ±ìĿ´
ìĦ± ìĿ´
ĠìĦ± ìļķ
Ġë¹Ħ ìĬ¤
Ġë¹Ħ íĺ¸
Ġë¹Ħ ëĪĦ
Ġë¹Ħ ê¼¬
Ġë°Ķ ìľĦ
Ġë°Ķ íĢ
ĠìĨĮ ìĬ¤
ĠìĨĮ ë¦°
ĠìĨĮ ëħĢ
ĠìĨĮ ë¦´
Ġì¤ĳ ì¦Ŀ
ìŀ¬ íĽĪ
ĠíĻ Ī
ĠíĻ §íĮħ
ĠìŀĦ ê¸°
ĠìŀĦ ìĤ°ë¶Ģ
ĠìłĢ ëŀ¬
ë¯¸ íĿ¬
Ġëħ¸ ìĥģ
Ġìĭł ëĤĺ
Ġìĭł ì¤ĳ
Ġìĭł ì²´
Ġìĭł ëħĲ
Ġìĭł ì²ľì§Ģ
ĠìĬ¤ íĬ
ĠìĬ¤ íİĻ
ìĨĮ ìĽĲ
ìĨĮ íĿ¬
Ġê³µ ê°Ħ
Ġê³µ íĨµ
Ġê³µ íı¬
ìĿ´ë °
ìĿ´ë ¯¼
ìĿ´ë Ķ´
ĠìķĮ ì½©ëĭ¬ì½©
Ġë¯¸ ìļ°
Ġë¯¸ íĺ¼
Ġíı ¼
ĠëĬ ĳëĮĢ
Ġìľł ìĿ´
Ġìľł ëĤľ
Ġìľł ëª¨
Ġìľł ì²ľ
Ġìľł ëıħ
Ġìľł ìĿµ
ëĵ¤ ìķĦ
ë¶Ģ ì§Ģ
ĠêµŃ ìłķ
ĠêµŃ ëĭ¹
ĠêµŃ êµ°
Ġì°¨ íĬ¸
Ġë¨¹ íŀĪ
Ġë¨¹ ë°©
Ġìĥģ ì¢ħ
Ġëĭ¹ ëĤĺëĿ¼
ë¯¼ ìķĦ
Ġë°© ë¬¸
ì¦ ī
ìľł íĬľë¸Į
Ġë³´ë ĥħëĭĪëĭ¤
Ġìŀħ ëĭ´
Ġë°° ìĹŃ
Ġë°° ìĽĮìĦľ
ĠìĻĢ ëĿ¼
Ġìļ° ìĪĺ
Ġìļ° ìľł
Ġìļ° ìĹ°íŀĪ
Ġë³ĳ ìĤ¬
Ġê¹Ģ ìĦ¸
Ġê¹Ģ ìļ©
Ġê¹Ģ ì¢ħêµŃ
Ġê¹Ģ ìłľëıĻ
ĠìĹĦ íķľ
Ġìĺģ ìĸĳ
Ġìĺģ ìĽħ
ĠìłĢë Ł´
Ġíİ ´
Ġíİ ¸ë
Ġì³Ĳ ìķ¼
ìłĢ ê±¸
Ġëĵľë ł¤
Ġëĵľë ĶĶìĸ´
Ġë¶Ħ ë¦¬
Ġë¶Ħ ëŁī
ìĺĪ ìĥģ
Ġë§ŀ ì¶Ķ
ëª ¬
ĠìĺĪ ê³ł
ĠìĺĪ ìłķ
Ġì§ĳ ëĭĪëĭ¤
Ġì§ĳ íķ©
ĠìĦł ìłķ
ìĻĢ ìĿ´
Ġ2 3
Ġëį° ë·Ķ
Ł¼ íĶĦ
íĺ¼ ìłĦ
Ġë¶Ī íĸī
Ġë¶Ī íıī
Ġìŀ¥ ê¸°
Ġìŀ¥ ìĦ±
Ġìŀ¥ ë³ĳ
Ġìŀ¥ ìķħ
Ġìŀ¥ ëĭ´
Ġìŀ¥ ìľ¤ìłķ
Ġìŀ¥ ìŀĲìĹ°
ĠíĻĶ ë©´
ĠëĦĺ ì³Ĳ
ëĭ¹ ìĭł
ëĭ¹ ìĹ°
ëĭ¹ ìĹ°íŀĪ
íĿ ĳ
ĠíķľêµŃ ìĭĿ
ĠìľĦ ìĽĲ
Ġë¯ ¼ë§
Ġë²Ħ ìłĦ
Ġëĸ ´
ê·¸ ê²Į
ê·¸ ê±´
Ġìĭ¤ ìĭ¤
Ġìĭ¤ íĸī
Ġìĭ¤ íĹĺ
ĠëıĻ ëĤ¨
ĠëıĻ ë£Į
ì¡° ìĦ¼
ì¡° ìĬ¹ìļ°
Ġê°Ĳ ìĭ¸
ëĤ¨ ê¶ģë¯¼
ê³Ħ ìĨį
Ġìļķ íķ´
ĠíĽ ħ
ĠíĹ ī
Ġë°ķ ìĿ´
Ġë°ķ ìĽĲ
Ġë°ķ ë©¸
Ġìµľ ì¢ħ
ĠìĺĢ ìĹĪ
Ġìľ¼ ìħĶ
ìĸ´ë Ĥ´
ê¸Ģ ê±°ë¦¬
Ġëªħ ëł¹
ĠìĬµ ê´Ģ
Ġìĺ¬ ë¦´
Ġìķħ ìĹŃ
íı ´
íĿ¬ ì¤Ģ
ĵ¤ ê°ĳ
Ġì¹ĺ íĤ¨
ĠíĿ °
ĠëĬĲ ê¼Ī
Ġìŀ¡ ê²ĥ
Ġìŀ¡ ìĨĮë¦¬
ĠíĶĮ ë¡ľ
ĠìĦ¤ ìĤ¬
ĠìĦ¤ íĺĦ
ĠìĦ¤ ëłĪ
ĠìĦ¤ ê±°ì§Ģ
Ġíķ´ìķ¼ íķ¨
ë°ķ ë³´ê²Ģ
ì°¨ ëĿ¼ë¦¬
ĠìĹŃ ëĮĢ
ĠìĹĲê²Į ìĦľ
Ġëł¤ ëĭĪ
Ġê°ķ íĺ¸ëıĻ
Ġê³Ħ ê¸°
Ġê³Ħ ì¸µ
Ġì± Ķ
ìĹħ ìŀĲ
ĠëĶ° êµ¬
ĠëĶ° ë¥´
ĠëĶ° ê¹Įë¦¬
Ġìŀĳ ìłķ
Ġì» µ
Ġëł Ļ
Ġëĭ¨ ëıħ
ìĹŃ ëĮĢ
Ġ3 6
Ġë²ł íĬ¸ì½©
ĠíĶ¼ ìŀĲ
ĠíĶ¼ íķĺ
Ġì¶Ķ ìĦĿ
Ġì¶Ķ ìŀ¡
Ġë¹ł ë¦¬
Ġë¹ł ë¥¸
Ġë¹ł ì¡Į
ĠíĤ¤ ë³´ëĵľ
Ġìĭ¬ íķ´
Ġìĭ¬ ì§Ģìĸ´
ĠëįĶëĿ¼ êµ¬ìļĶ
Ġêº ¼ë¦¬
¼ë§ Į
Ġë°ľ ëĭ¬
Ġë°ľ ê²¬
Ġê°Ħ ë¶Ģ
Ġê°Ħ ëħĦ
Ġê°Ħ ì²©
ê¹Ģ ìĦ±
ê¹Ģ íĿ¬
Ġì´ Ľë¶Ī
êµĲ ìľ¡
Ġìļ© ê°Ĳ
ê³µ ì§Ģ
íĭ ±
ĠëĤ´ë Ŀ¼
ĠëĤ´ë ħĦ
Ġë¬¸ìłľ ì§Ģ
Ġë°ĺ ë§Ĳ
Ġê°ľë ¹Ħ
Ġê°ľë ĺ¥
Ġì¶© ìĭ¤
ĠìĿ´ìĥģ ë¯¼
ê²¨ ìĽĮ
ìĶ¨ ìĿ´
ĠëĶ± íŀĪ
ĠíĥĢ ìŀĦ
Ġë¿ ľ
Ġë§Ŀ íķľ
Ġë§Ŀ ê°Ģì§Ģ
Ġíİ¸ ì§Ģ
Ġë§Īë ķħ
Ġê·¸ëŁ¬ ëĭĪê¹Į
íķĻ êµĲ
Ġë©° ì¹ł
Ġê°Ī ìķĦ
ĠíĽĦ ë°°
ĠíĽĦ ì§ĦêµŃ
Ġìĭľë ħĢ
Ġë°± ìĿ¸
Ġë°± ë§Ī
Ġì²ĺ ë°ķ
íģ¬ ë¡ľ
Ġíĺ¸ ìĿĺ
ê°ķ ëĤ¨
ê¶Į ëł¥
Ġìī ĳ
ìĿĢ íĺľ
Ġê·Ģ ì¡±
Ġì½Ķ ìļĶ
ì¶ľ ìĤ°
ë© ĺ
ĠìĨĲ ìłĪ
ê» į
ĠíĬ¹ ìłķ
Ġëĵ¤ìĸ´ ìĺ´
Ġì¦ Į
Ġë¦¬ ëĿ¼
Ġë¦¬ ìĸ¼
Ġëĭµ ëĭĪëĭ¤
ĠìĻ¸ êµĲ
Ġ10 00
Ġê´ĳ ìĭłëıĦ
ĠìĭĿ ìĿ´
ĠíĨµ ìłľ
ĠíĨµ íķ´
ĠíĨµ íķ´ìĦľ
ĠëĤł ìĶ¨
ĠëĤł ëĽ°
ĠìĤ° ìĹħ
ĠìĪľ ìĦľ
ĠìĪľ ì§Ħ
Ġ4 8
ĠíĮĶ ë¦´
ĠìĺĪë ¯¼
ĠìĺĪë ¹Ħ
ì³Ĳ ìķ¼
ĠíļĮ ìŀ¥
ĠíļĮ ë³µ
Ġíĭ° ëĤĺ
ìī Ĳ
Ġë¯¸ë §Į
Ġë¯¸ë ħĢ
Ġë¯¸ë ł¨
Ġë³Ģ íĻĶ
Ġë³Ģ ê²½
Ġë³Ģ íĸĪ
ĠìĻĦ ìĦ±
Ġíģ¬ ë£¨
Ġíģ¬ ë¦¼
ĠëĤĺìĻĢ ìķ¼
Ġìĺ¨ ëĤĺ
Ġëıħ ìĭł
ëįĶ ëŁ½
Ġë©Ķ ìĭľ
Ġë©Ķ ëī´
Ġë©Ķ ìĦ¸ì§Ģ
Ġê¼´ íĨµ
ìłģ ëĭ¹íŀĪ
Ġì²Ń ìĨĮ
Ġì²Ń ìĤ°
Ġì²Ń ì¶ĺ
Ġíĺ¼ ìĤ°
ĠëĬĲëĤ Ħ
ĠëłĪ ìķĮ
Ġì»¤ íĶ¼
ĠìĬ¹ ìŀĲ
Ġëª© íĳľ
íĳľ ìłķ
ĠíĦ° íĬ¸ë¦¬
ĠíķĻ ëł¥
ĠëĨĢ ìĿ´
ĠëĨĢ ëĿ¼
ĠíĮĲ ê²°
ĠâĢ ¦
Ġì·¨ íķĺ
Ġì·¨ íĸ¥
Ġê½ ģ
Ġê½ ī
ĠíĹĪ ìļ©
ãħĩ ãħĪ
Ġë³´ìĹ¬ ì¤Ģ
ëŃ ĺ
ë°± ìĭł
ëħ¸ íĬ¸
ëħ¸ ê°Ģëĭ¤
Ġì¼ Ģë
ĠìłĲ ê²Ģ
ìłĢë ²Ī
Ġë¸ ħ
ĠíıŃ íĥĦ
ĠìĦľë ¥ĺ
ìľ¡ ìķĦ
Ġê²Ģ ìĹ´
Ġëĸ¨ìĸ´ ìł¸
ĠíĪ¬ ê¸°
ĠíĪ¬ ìŀĲ
ĠíĪ¬ ìŀħ
ĠíĪ¬ íĳľ
ĠíĪ¬ ìĦ±ìĿ´
ìľ¤ íĻĶ
ĠìķĦë¬´ íĬ¼
ĠìĮ ī
Ġë¶ģ ê´´
Ġë¶ģ ì¡°ìĦł
Ġìŀł ê¹Ĳ
ĠìĬ¬ íĶĶ
ì¹´ ìĺ¤
Ġ- -
ëĥ Ħ
Ġìį¨ ìķ¼
Ġê·¼ ì²ĺ
íļ¨ ì£¼
łĪ ìĿ´ëĵľ
ì» ´
ì½ ĺ
ĠìĭŃ ëĭĪê¹Į
Ġë¶Ļ ìŀ¡
ìĺ¨ ëĭ¤
Ġì¦Ŀ ë§Ĳ
ìī¬ ìĿ´
Ġìľ¤ ìķĦ
Ġì§ķ ìĹŃ
Ġê¸°ëĭ¤ ë¦´
ĠëĥĦ ë¹Ħ
ë¯ ¸ëŀĺ
Ġì© Ĳ
ĠíĥĪ íĩ´
Ġì« ĵ
Ġì¹´ ì¹´ìĺ¤
ĠëĶ°ëĿ¼ ìĺ¤
ìĭ¸ ìĽĢ
Ġì²´ íĹĺ
Ġìĸ´ìļ¸ë ł¤
ìĿ¸ë §Ī
ì£½ ìĹ¬
Ġê¹Ģë ıĦ
Ġê¹Ģë ĮĢì¤ĳ
ĠìĤ´ë ¦¼
Ġìĸ´ëł¤ ìĽĮ
íĬ¸ë ¦°
Ġì½ §
ĠãħĨ ãĦ¹
ĠìĻķ ì¡°
ì¢Į íĮĮ
Ġë¹Į ëĿ¼
Ġë¸Ķ ë¡ľ
Ġê¾¸ ì¤Ģ
Ġì§Ģì§Ģ ìŀĲ
Įãħ Į
ĠìĮį ëĨĪ
ĠëĿ ł
ĠëĽ° ìĸ´ëĦĺ
Ġê³łìĨĮ ìĺģ
ĠìłĪ ì¹ľ
Ġë°Ģ ë¦¬
Ġì¤ĺìķ¼ ì§Ģ
Ġê¸°ìĪł ìŀĲ
Ġì¢ĭìķĦ íķ¨
ĠëĤ´ëł¤ ìĺ¤
Ġì¶ľìĹ° ì§Ħ
Ġê½ĥ ë±Ģ
Ġíĩ´ ìĤ¬
ĠëĨį ëĭ´
ĠìĪ¨ ê²¨
ãħħ ãħĮãħĬ
Ġë©Ģ ë¦¬
Ġìļ´ìłĦ ëĮĢ
ĠìĥĪë ²½
ĠìĥĪë ĤĢ
Ġì´Īë Ķ©
ì¼Ģ ìĿ´
Ġs m
ìĿĦ ê¹Į
Ġê´Ģë ĳĲ
ìĺ¬ íķ´
Ġê´´ë ¬¼
ìŀĶ ëį°
ĠìŀĬ íĺĢ
Ġì¹ĺë£Į ìłľ
Ġë± ĥ
Ġë± ī
Ġë°ĶëĿ¼ ë³´
Ġë¶ĢëģĦ ëŁ¬ìļ´
Ġë²Ħëł¤ ìķ¼
íıī ê°Ģ
ĠëĤĺìĺ¨ëĭ¤ ëĬĶ
Ġë¡ ¬
Ġë¡ ±
ĠìĹ¿ ê°Ļ
Ġì¡± ë³´
ë¬´ë ıĦ
ĠìĨĶ ë¡ľ
Ġê°Īë Ŀ¼
ê¹Ģë ¯¼
ĠìĤ´ìķĦ ëĤ¨
ìħī ìħĺ
ëĸ ¨
Ġìª Ħ
ë¹¨ ë¦¬
Ġê·ĢìĹ¬ ìļ´
Ġì¥¬ ìĸ¼
ĠìĦ¼ ìĬ¤
ëŃĶ ê°Ģ
Ġë¸ħìĭł ìķĦ
ì¯ Ķ
Ġk bs
Ġíĺ¸ë ĵ¤ê°ĳ
Ġë¬´ìĦľ ìļ´
Ġë¬´ìĦľ ìĽĮ
íĻķ ìĭ¤íŀĪ
ĠíĻĶìŀ¥ ìĭ¤
ĠíĿĶ íķľ
Ġíģ´ë Ł½
Ġíģ´ë ¡ł
Ġë¶ĪëŁ¬ ìĦľ
ĠíĶĦ ëłĪ
Ġê³Ħì§ĳ ëħĦ
Ġëª°ëł¤ ìĻĢìĦľ
ë©į ì²Ń
Ġì°Įì§Ī ìĿ´
Ġë³¸ë Ĭ¥
ë§¨ ëĤł
Ġë°©íĥĦ ìĨĮëħĦëĭ¨
Ġë§Īë¦¬ ìķĦ
ĠíĴĪ ì§Ī
Ġì°¾ìķĦ ë³´
Ġëļ «
Ġëļ Ŀ
Ġê¹Ĭ ìĿ´
ĠëĵľëŁ¬ ìļ´
ĠëĿĦ ìĽĮ
Ġj yp
ĠìĤ¬ê· Ħ
ĠìĤ¬ê· Ī
ĠìĤ¬ê· Ĳ
ĠëĮķ ê¸°
ì¿ł ìĭľ
Ġìķµ ë²ĮìĿ´
Ġëª¨ìŀĲ ëĿ¼
ëħ¸ë ¬´
ëª» ìĥĿê¸´
Ġ???? ?
Ġíħ ħ
ĠìĶĮ ìļ°
Ġìĵ¸ë ª¨
ëĨĢ ëŀĢ
ëļ ľê¸°
Ġë· Ķ
ĠëĤĺíĥĢ ëĤĺ
ĠíĥĪë Ŀ½
Ġìĺģíĸ¥ ëł¥
ĠëĤ´ë³ ´ë
ĠP C
Ġn o
Ġì£¼ìĿĺ ìŀĲ
ĠìłĦë¬¸ ê°Ģ
ĠíĹĽ ìĨĮë¦¬
ĠëŁ° ëĭĿ
Ġíľ ĺë
ĠìłĪë ĮĢë¡ľ
ì°Ĳ ëĶ°
Ġëª»ìĥĿ ê²¼
Ġë©ĺ íĥĪ
ĠíĽĪ íĽĪ
Ġì´Į ìĬ¤ëŁ½
ĠìĭľëģĦ ëŁ½
Ġê±¸ëŁ¬ ìķ¼
ĠíŀĻ íķ©
Ġê¹Ģë¯¼ íĿ¬
Ġì§¬ ë½ķ
ìĸ¼ë§ ĪëĤĺ
Ġê¹ľë ĨĢ
ĠìķĮìķĦ ë³´
Ġíķ´ë´Ĳ ëĿ¼
Ġíİĺë ¯¸ëĭĪ
Ġíİ¸ìĿĺ ìłĲ
Ġì½ĺ ìĦľíĬ¸
Ġê¾¸ë ¯¸
ê½ģ ì´Ī
Ġp d
ĠìŁ Ī
ĠíĪ Ń
ìĽ¨ ìĿ´
ĠìĪĺì¹ĺ ìĭ¬
ĠìĿ¼ìľ¼ íĤ¤
ĠíŀĲ ë§ģ
ĠíĲ ģ
Ġëĭ¤ëħ Ķ
Ġìļ± ìĿ¼ê¸°
Ġì¤į ìĭľëĭ¤
ĠëıĪë ²ĮìĿ´
Ġìłķìľł ë¯¸
Ġëª¨ì§Ģ ë¦¬
ĠìłľëĦ¤ ìĭľìĬ¤
ìłķìĭłë³ĳ ìŀĲ
ĠìŀĲìĺģ ìĹħ
ĠìĭľìĬ¤ íħľ
êµ¬íķĺ ëĿ¼
ĠìłĦëĳĲ íĻĺ
Ġìľłë¶Ģ ëĤ¨
Ġê¹Ģìĺģ íĿ¬
ĠìĪ« ìŀĲ
íĹ¨ ë¦¬
ĠíĢĦ ë¦¬íĭ°
Ġíģ´ëŀĺ ìĬ¤
Ġíķ¸ëĵľ íı°
ĠìķĦíĭ° ìĬ¤íĬ¸
Ġìĸ´ì§ľ íĶ¼
ĠìĿ¸íħĮ ë¦¬ìĸ´
ĠìĪĺìĺģ ë³µ
ĠìĥĿíĻ ľë¹Ħ
Ġê°ľì²ľ ìłĪ
Ġìľłëª¨ ì°¨
Ġë¯¼ë§ Ŀ
