{"!":0,"\"":1,"#":2,"$":3,"%":4,"&":5,"'":6,"(":7,")":8,"*":9,"+":10,",":11,"-":12,".":13,"/":14,"0":15,"1":16,"2":17,"3":18,"4":19,"5":20,"6":21,"7":22,"8":23,"9":24,":":25,";":26,"<":27,"=":28,">":29,"?":30,"@":31,"A":32,"B":33,"C":34,"D":35,"E":36,"F":37,"G":38,"H":39,"I":40,"J":41,"K":42,"L":43,"M":44,"N":45,"O":46,"P":47,"Q":48,"R":49,"S":50,"T":51,"U":52,"V":53,"W":54,"X":55,"Y":56,"Z":57,"[":58,"\\":59,"]":60,"^":61,"_":62,"`":63,"a":64,"b":65,"c":66,"d":67,"e":68,"f":69,"g":70,"h":71,"i":72,"j":73,"k":74,"l":75,"m":76,"n":77,"o":78,"p":79,"q":80,"r":81,"s":82,"t":83,"u":84,"v":85,"w":86,"x":87,"y":88,"z":89,"{":90,"|":91,"}":92,"~":93,"¡":94,"¢":95,"£":96,"¤":97,"¥":98,"¦":99,"§":100,"¨":101,"©":102,"ª":103,"«":104,"¬":105,"®":106,"¯":107,"°":108,"±":109,"²":110,"³":111,"´":112,"µ":113,"¶":114,"·":115,"¸":116,"¹":117,"º":118,"»":119,"¼":120,"½":121,"¾":122,"¿":123,"À":124,"Á":125,"Â":126,"Ã":127,"Ä":128,"Å":129,"Æ":130,"Ç":131,"È":132,"É":133,"Ê":134,"Ë":135,"Ì":136,"Í":137,"Î":138,"Ï":139,"Ð":140,"Ñ":141,"Ò":142,"Ó":143,"Ô":144,"Õ":145,"Ö":146,"×":147,"Ø":148,"Ù":149,"Ú":150,"Û":151,"Ü":152,"Ý":153,"Þ":154,"ß":155,"à":156,"á":157,"â":158,"ã":159,"ä":160,"å":161,"æ":162,"ç":163,"è":164,"é":165,"ê":166,"ë":167,"ì":168,"í":169,"î":170,"ï":171,"ð":172,"ñ":173,"ò":174,"ó":175,"ô":176,"õ":177,"ö":178,"÷":179,"ø":180,"ù":181,"ú":182,"û":183,"ü":184,"ý":185,"þ":186,"ÿ":187,"Ā":188,"ā":189,"Ă":190,"ă":191,"Ą":192,"ą":193,"Ć":194,"ć":195,"Ĉ":196,"ĉ":197,"Ċ":198,"ċ":199,"Č":200,"č":201,"Ď":202,"ď":203,"Đ":204,"đ":205,"Ē":206,"ē":207,"Ĕ":208,"ĕ":209,"Ė":210,"ė":211,"Ę":212,"ę":213,"Ě":214,"ě":215,"Ĝ":216,"ĝ":217,"Ğ":218,"ğ":219,"Ġ":220,"ġ":221,"Ģ":222,"ģ":223,"Ĥ":224,"ĥ":225,"Ħ":226,"ħ":227,"Ĩ":228,"ĩ":229,"Ī":230,"ī":231,"Ĭ":232,"ĭ":233,"Į":234,"į":235,"İ":236,"ı":237,"Ĳ":238,"ĳ":239,"Ĵ":240,"ĵ":241,"Ķ":242,"ķ":243,"ĸ":244,"Ĺ":245,"ĺ":246,"Ļ":247,"ļ":248,"Ľ":249,"ľ":250,"Ŀ":251,"ŀ":252,"Ł":253,"ł":254,"Ń":255,"Ġì":256,"Ġë":257,"Ġê":258,"ĠìĿ":259,"Ġí":260,"Ġíķ":261,"Ġ.":262,"ĠìĿ´":263,"ĭ¤":264,"Ġìķ":265,"ĬĶ":266,"ĠìĹ":267,"ãħ":268,"ĠëĬĶ":269,"Ġê°":270,"³ł":271,"§Ģ":272,"Ġìŀ":273,"ìĿ":274,"Ġëĵ":275,"Ġíķĺ":276,"Ġê³ł":277,"Ġëĭ¤":278,"ĠëĤ":279,"Ġë§":280,"ıĦ":281,"Ġëĵ¤":282,"ìĦ":283,"Ġê°Ģ":284,"ãħĭ":285,"ìŀ":286,"Ġê²":287,"¸ë":288,"Ŀ¼":289,"ĠìķĦ":290,"Ġìł":291,"ê°":292,"¸°":293,"Ġì§Ģ":294,"ëĭ":295,"ĠìĿĢ":296,"ĠìĹĲ":297,"ìļ":298,"´ë":299,"Ġìĸ":300,"ìķ":301,"Ġê±":302,"Ġë³":303,"ìł":304,"Ĥ¬":305,"ĠëıĦ":306,"ĠëĦ":307,"Īë":308,"¦¬":309,"Ġíķľ":310,"ìĿ´":311,"ìĦľ":312,"¡ľ":313,"ì§Ģ":314,"Ġìĭ":315,"Ġ?":316,"¼ë":317,"Ġë°":318,"Ġëĭ":319,"íķ":320,"Ġê·":321,"ìĭ":322,"©´":323,"ĠëĤĺ":324,"į°":325,"ëĤ":326,"Ġìľ":327,"ĠìĦ":328,"ĮĢ":329,"ì§":330,"ë¦¬":331,"ĠìĿĦ":332,"ë§":333,"ãħĭãħĭ":334,"Ġê±°":335,"ê¸°":336,"Ġãħ":337,"ìŀĲ":338,"êµ":339,"ĠìĤ¬":340,"ľë":341,"ĠëĦ¤":342,"Ġìĺ":343,"ìļĶ":344,"Ġëª":345,"Ġì§":346,"ê²":347,"Ġìĥ":348,"ìĹ":349,"Ġìĸ´":350,"ê³ł":351,"ëŀ":352,"Ġë³´":353,"Ġë©´":354,"Ġì¢":355,"ê°Ģ":356,"Ġë¶":357,"Ġê²Į":358,"ëį°":359,"Ġê¸°":360,"ìĥ":361,"ĠëĿ¼":362,"Ġê·¸ë":363,"ëĭĪ":364,"Ġ..":365,"ĠëĲ":366,"ëĿ¼":367,"Ġë§Į":368,"Ġãħĭãħĭ":369,"Ġì£":370,"Ġíķ´":371,"ìĺ":372,"ĠìŀĪ":373,"Īĺ":374,"Ġìľ¼ë":375,"ëĤĺ":376,"Ģë":377,"ĠìĿ¸":378,"Ġëį":379,"ĠìĿĺ":380,"Ġë¬":381,"ĠìķĪ":382,"Ġê³":383,"Ġë¹":384,"ĠìŀĲ":385,"Ġëħ":386,"ĠìĻ":387,"ìķĦ":388,"íĺ":389,"ìĸ":390,"Ġêµ":391,"ëł":392,"Ġìļ":393,"ĠëĮĢ":394,"Ġê¹":395,"ëĭ¤":396,"ìĬ":397,"Ġë¥":398,"Ġëĥ":399,"ë°":400,"¯¸":401,"Ġì°":402,"Ġê°Ļ":403,"ê¹":404,"Ġë¥¼":405,"Ġ!":406,"ìĽ":407,"Ġì¤":408,"Ġë²":409,"ĺë":410,"ê·":411,"ĠëĭĪ":412,"ĠëĥĲ":413,"ê¸":414,"ìĿ¸":415,"ìĨ":416,"ĠìĹĨ":417,"Ġëı":418,"ĠìĹ¬":419,"Ġìłķ":420,"ìĤ¬":421,"êµŃ":422,"Ġì¡":423,"Ġìĭľ":424,"Ġ~":425,"Ġë¡ľ":426,"Ġíĸ":427,"ĠëĬĶëį°":428,"ê²Į":429,"Ġìľ¼ë¡ľ":430,"ê±":431,"ìĥģ":432,"ìķ¼":433,"ìĭł":434,"Īëĭ¤":435,"ë³":436,"ĠìĬ":437,"Ġì¢ĭ":438,"ë¶":439,"ë¬":440,"ì¹":441,"ģ¼":442,"ìľ":443,"ĠìĨ":444,"Ġì£¼":445,"ĠìĪĺ":446,"ĠëĲĺ":447,"ĠëįĶ":448,"Ġë§Ĳ":449,"Ġì²":450,"Ł¬":451,"ĠìĤ":452,"ĠìĹĲìĦľ":453,"ĻĶ":454,"ëıĦ":455,"ëĵ":456,"ĠëĤ¨":457,"ĠìĤ¬ëŀ":458,"ìłķ":459,"ìĭľ":460,"Ġê²ĥ":461,"Ġìŀĺ":462,"Ġê²ł":463,"ì£":464,"ëĭĪëĭ¤":465,"Ġì§Ħ":466,"Ġíĺ":467,"ë¥":468,"ë§Ī":469,"íķĺ":470,"Ł°":471,"ĠíĸĪ":472,"Ġê¸":473,"ĠìĥĿ":474,"ì²":475,"Ġë´":476,"ĠìĦ¸":477,"ĠìĿĮ":478,"ìłľ":479,"Ġìĸ´ë":480,"ì§Ħ":481,"ĠìĿ¼":482,"Ġëķ":483,"ĠìĤ¬ëŀĮ":484,"ë§Į":485,"ĠëŃ":486,"Ġê°ľ":487,"¯¼":488,"ĠìķĦëĭĪ":489,"íŀ":490,"ĠìĿ´ë":491,"ê³":492,"ë¡ľ":493,"Ġê·¸":494,"Ġìķ¼":495,"¨¹":496,"ì°":497,"ìĸ´":498,"Ġëª»":499,"ì¤":500,"ĠëĨ":501,"ì§ľ":502,"ëĮĢ":503,"íĥ":504,"ĠìĽ":505,"ê¹Į":506,"ìļ°":507,"ìĪĺ":508,"Ġíķł":509,"ĠíĮ":510,"Īëģ¼":511,"Ġëª¨":512,"ìŀ¥":513,"êµ¬":514,"ãĦ":515,"Ġì¹":516,"íķ´":517,"ĠìĹ°":518,"ìĬ¤":519,"íķľ":520,"íŀĪ":521,"ĠìĶ":522,"ëĬĶ":523,"ìĽĲ":524,"ĠíĶ":525,"Ġìłģ":526,"ĠìłĦ":527,"ĠëķĮ":528,"ì£¼":529,"ì¡":530,"ĠëĶ":531,"Ġì¡°":532,"ĠìĥĪëģ¼":533,"Īë¬":534,"Ġë§Ī":535,"ĠìĹĪ":536,"ĠìĻľ":537,"ìĺ¤":538,"ë¹":539,"Ġìķł":540,"Ġìŀ¬":541,"Ġêµ¬":542,"ĠìĦľ":543,"Ġë§İ":544,"Ġëŀ":545,"ĠìĹ¬ìŀĲ":546,"Ġìĺ¤":547,"Ġì¶":548,"ĠãĦ":549,"Ġë¬¸":550,"Ġìĵ":551,"Ġê¹Į":552,"ê°Ħ":553,"ĠëħĦ":554,"ĠìĤ´":555,"ìĹ¬":556,"Ĥĺ":557,"Ġë¬´":558,"Ġëĺ":559,"ìĻ":560,"Ġë©":561,"ìĤ":562,"ì¶":563,"Īë¬´":564,"ê±°":565,"ł¤":566,"ĠëĤ´":567,"ìłĦ":568,"ĠëĪ":569,"Ġê±´":570,"Ġíĥ":571,"ìĦ±":572,"Ġì§Ħì§ľ":573,"ìĥĿ":574,"ĠìĦ±":575,"Ġì¢Ģ":576,"Ġë¹Ħ":577,"Ġë°Ķ":578,"Ġëįĺ":579,"Ġë¶Ģë":580,"ì¹ĺ":581,"Ġê´":582,"Ġë¶Ģ":583,"ĠìĨĮ":584,"Ġì¤ĳ":585,"Ġ1":586,"ìŀ¬":587,"íĻĶ":588,"Ġìľ¼ë©´":589,"ª¨":590,"ĠíĻ":591,"ĠìŀĦ":592,"ĠìłĢ":593,"ë¯¸":594,"Ġëħ¸":595,"íĮ":596,"ıĻ":597,"ĠëĦĪë¬´":598,"Ġìĭł":599,"ĠìĬ¤":600,"ìĨĮ":601,"Ġê³µ":602,"Ħ°":603,"ìĿ´ë":604,"ë²":605,"ŀĺ":606,"ê¸Ī":607,"ĠìķĮ":608,"Ġëĭĺ":609,"Ġíķ´ë":610,"ĠëĿ¼ê³ł":611,"ë¦":612,"Ġ...":613,"ê°ģ":614,"ìģ":615,"Ġë¯¸":616,"Ġê³¼":617,"Ġëĵ¯":618,"ĠìĶ¨":619,"Ġ~~":620,"Ġãħĭãħĭãħĭ":621,"Ġìĵ°":622,"³Ĳ":623,"Ġíı":624,"ë¥´":625,"ĠëŃĲ":626,"Ġë´Ĳ":627,"ĠëĬ":628,"ħĮ":629,"ĥ¥":630,"Ġìľł":631,"ëĵ¤":632,"ë¶Ģ":633,"ĠëĤ¨ìŀĲ":634,"ìĿ¼":635,"ìĭ¬":636,"ìĹ°":637,"ĠêµŃ":638,"Ġìķĺ":639,"ĠëĦ¤ìļĶ":640,"ë¬¸":641,"íĬ":642,"ĠìĿ¸ë":643,"ìĿĮ":644,"Ġì°¨":645,"íĶ":646,"Ġë¨¹":647,"ĠìķĬ":648,"Ġìĥģ":649,"Ġëĭ¹":650,"ê·¸ë":651,"ë¯¼":652,"Ġë°©":653,"ì¦":654,"ĠìķĦëĭ":655,"ìľł":656,"ì¢":657,"Ġë³´ë":658,"ëł¤":659,"íĦ°":660,"Ġìŀħ":661,"Ġë°°":662,"ìĿĺ":663,"ëħ":664,"Ġëĭ¤ê³ł":665,"ìĭĿ":666,"ĠìĻĢ":667,"Ġìļ°":668,"Ġê¹Įì§Ģ":669,"ëĦ":670,"Ġíķľëĭ¤":671,"ĠìĥĿê°ģ":672,"íħĮ":673,"ìļ´":674,"Ġë°Ľ":675,"Ġíķ¨":676,"Ĥ¤":677,"ĠíĬ":678,"ìĭ¤":679,"Ġê¼":680,"Ġë³ĳ":681,"Ġíķ´ìĦľ":682,"íĺĦ":683,"Ġì§Ģë§Į":684,"Ġê¹Ģ":685,"ĠìĹĦ":686,"ìĦł":687,"ĠëıĪ":688,"ê°ľ":689,"´ëĤĺ":690,"Ġìĺģ":691,"ëłĪ":692,"ĠìłĢë":693,"Ġì£½":694,"Ġìĭ¶":695,"íĸ":696,"!!":697,"íĨ":698,"Ġíİ":699,"ĠìļĶ":700,"Ġì³Ĳ":701,"ìłĢ":702,"ëĭ¨":703,"Ġãħİ":704,"Ġãħł":705,"ĶĶ":706,"Ġëĵľë":707,"ĳĲ":708,"ì§ģ":709,"Ġë¶Ħ":710,"ëĤ´":711,"ìĺĪ":712,"ĠìĦ¸ìļĶ":713,"íĻ":714,"Ġê²°":715,"Ġë©´ìĦľ":716,"ĠëĪĦ":717,"łĩ":718,"ĠíķľíħĮ":719,"ë§Ĳ":720,"ĠìĿ¸ëį°":721,"Ġë§ŀ":722,"ëª":723,"ëĬ":724,"Ġê·¸ëĥ¥":725,"Ġíķ©":726,"ĠìĺĪ":727,"Ġì§ĳ":728,"ë³´":729,"ìĤ°":730,"ĠìĦł":731,"ìĺģ":732,"ļĮ":733,"ìĻĢ":734,"Ġ2":735,"Ġì¤Ħ":736,"Ġëį°":737,"ìĦ¸":738,"ìļ©":739,"Ł¼":740,"íĺ¼":741,"ľëĭ¤":742,"Ġë¶Ī":743,"Ġë¹¨":744,"µľ":745,"ĠìĿ´ëĤĺ":746,"ľë°":747,"Ġìŀ¥":748,"ĠëĨĪ":749,"ĠíĻĶ":750,"ìŀĳ":751,"ê´":752,"ĠëĦĺ":753,"ĠìĽĲ":754,"ëŀĺ":755,"ë¹Ħ":756,"ì¤ĳ":757,"ĠìĪ":758,"ëĭ¹":759,"ĠëĺĲ":760,"íĿ":761,"ĠíķľêµŃ":762,"ĠìľĦ":763,"Ġë¯":764,"ĠëĤĺëĿ¼":765,"Ġë²Ħ":766,"ë©´":767,"Ġëĸ":768,"ê·¸":769,"ìĶ":770,"ìĨ¡":771,"ìķĪ":772,"Ġìĭ¤":773,"Ġëŀĳ":774,"Ġì²ĺë":775,"ĠëıĻ":776,"Ġãħĭ":777,"ì¡°":778,"Ġê°Ĳ":779,"Ġëģ":780,"Ġìĸ´ìļĶ":781,"ëł¥":782,"ìķł":783,"ëĤ¨":784,"ê³Ħ":785,"Ġìļķ":786,"ê±´":787,"ì²´":788,"Ġìłľ":789,"ĠëĤĺìĺ¤":790,"ìĪ":791,"ŀĺë":792,"ëŁ¬":793,"ëŀĳ":794,"Ġë¨":795,"ìĽĮ":796,"Ġë³´ëĭ¤":797,"ëıĻ":798,"ĠíĽ":799,"ĠíĹ":800,"Ġë°ķ":801,"Ġìµľ":802,"ì¤Ģ":803,"ĠãħĪ":804,"ĠìĺĢ":805,"..":806,"íİ":807,"ĠìĿ´ëŁ°":808,"Ġìľ¼":809,"Ġì¡´ëĤĺ":810,"ìĸ´ë":811,"ë¬´":812,"ìģĺ":813,"Ġíĭ":814,"ê¸Ģ":815,"Ġëªħ":816,"ľë°ľ":817,"¸ë¦¬":818,"ĠìĬµ":819,"ģ¬":820,"ëĤľ":821,"Ġê¸°ìĤ¬":822,"Ġíķ´ëĿ¼":823,"ĠëĦĪ":824,"Ġìĺ¬":825,"ĠìĹĦë§Ī":826,"Ġìķħ":827,"ãħİ":828,"íĬ¸":829,"ãħł":830,"íı":831,"¼ë³":832,"¶Į":833,"Ġìĸ´ìĦľ":834,"íĥĢ":835,"Ġê±¸":836,"ĠëĮ":837,"ĠëıĮ":838,"Ġíķ©ëĭĪëĭ¤":839,"Ġê¸¸":840,"íĿ¬":841,"ĵ¤":842,"Ġãħħ":843,"ìŀĦ":844,"Ġì¹ĺ":845,"ë¡":846,"ĠíĿ":847,"ë°ľ":848,"ĠëĬĲ":849,"Ġìŀ¡":850,"ìĨį":851,"ëłĪê¸°":852,"Ġëĭ¬":853,"Ġë²Į":854,"Ġëª¨ë¥´":855,"ĠíĶĮ":856,"ĠãĦ·":857,"ëį":858,"ĠëĭĪê¹Į":859,"ĠìĹ°ê¸°":860,"Ġìħ":861,"ĠíķĺëĤĺ":862,"ĠìĦ¤":863,"Ġíķ´ìķ¼":864,"ë°ķ":865,"Ł½":866,"ì°¨":867,"Ġë¶ĢíĦ°":868,"ĠëĴ":869,"ê²½":870,"ĠìķĦëĭĮ":871,"ĠìĹŃ":872,"Ġëĭ¤ëĬĶ":873,"ĠìĹĲê²Į":874,"Ġë³¸":875,"Ġê²½":876,"ì¹ľ":877,"ë¥¸":878,"Ġëł¤":879,"Ġìĭ«":880,"Ġê°ķ":881,"Ġì°¸":882,"ĠìłķëıĦ":883,"ĠíĺĦ":884,"ĠìĬµëĭĪëĭ¤":885,"íĹ":886,"Ħë¡ľ":887,"êµ´":888,"Ġê³Ħ":889,"ë³µ":890,"ê°Ĳ":891,"ì²Ń":892,"Ġë´¤":893,"Ġê´Ģ":894,"½Ķ":895,"ë¨¹":896,"ĠìĿĢëį°":897,"ì§Ī":898,"Ġëħ¸ë":899,"ì¢ħ":900,"Ġì±":901,"ìĹħ":902,"ĠëĿ¼ëĬĶ":903,"íļĮ":904,"ìĬ¨":905,"ëªħ":906,"Ġë§¤":907,"Ġê·¸ëŁ°":908,"ë¶Ģë":909,"ĠëĶ°":910,"Ġë³ĳìĭł":911,"^^":912,"ë£":913,"¼ëį°":914,"ì§ĳ":915,"Ġíĸī":916,"Ġìŀĳ":917,"Ġëĵł":918,"Ġìĸ¼":919,"ĠãħĤ":920,"Ġê¹¨":921,"ì¶©":922,"íĨµ":923,"Ġê·¸ëłĩ":924,"ëı":925,"ĠëĲľ":926,"Ġë°©ìĨ¡":927,"Ġê²°íĺ¼":928,"ĠíĨ":929,"ĠëĤľ":930,"ĠëŃĶ":931,"Ġë§İìĿ´":932,"Ġìĵ°ëłĪê¸°":933,"Ġì»":934,"Ġëł":935,"Ġëĭ¨":936,"ìĹŃ":937,"íĺ¸":938,"Ġ3":939,"Ġë²ł":940,"ĳľ":941,"Ġê·¸ë¦¬":942,"ĠíĶ¼":943,"Ġì¶Ķ":944,"Ġãħłãħł":945,"ĵê¸Ģ":946,"ëŀĦ":947,"íĸī":948,"Ī¬":949,"Ŀ¼ë§Ī":950,"Ġë¹ł":951,"ĠíĤ¤":952,"Ġì¢Ĩ":953,"Ġë²Ī":954,"ĠìĿ´ìłľ":955,"ìĦĿ":956,"Ġìĭ¬":957,"Ġë¬´ìĬ¨":958,"Ġë¶Ģëª¨":959,"ê´Ģ":960,"Ġì²ĺëŁ¼":961,"ìł¸":962,"Ġìłķë§Ĳ":963,"ĠëįĶëĿ¼":964,"ì¡±":965,"Ġêº":966,"ë°©":967,"Ġëĵ±":968,"ĺëª":969,"ĠìķĦìĿ´":970,"Ġìĸ´ëĸ":971,"ĵľ":972,"¼ë§":973,"ĺëª»":974,"Ġë°ľ":975,"Ġãħľ":976,"Ġë§Įëĵ¤":977,"Ġê°ĻìĿ´":978,"ĠìĽĥ":979,"Ġê¸´":980,"Ġê°Ħ":981,"Ġì§Ī":982,"ĠìĺģíĻĶ":983,"ĠìķĦìĦľ":984,"ê¹Ģ":985,"ìħ":986,"ĳĺ":987,"Ġì´":988,"ĠìĿ´ëŀĳ":989,"ë¶Ħ":990,"íĮĮ":991,"êµĲ":992,"ìĹĨ":993,"ìľĦ":994,"ë¹ł":995,"ĠëĵľëĿ¼ë§Ī":996,"ëĶ":997,"íĤ¤":998,"ĠìĿ´íķ´":999,"Ġêµ°":1000,"Ġìļ©":1001,"ê³¼":1002,";;":1003,"Ġìŀĺëª»":1004,"Ġìľ¼ëĭĪ":1005,"ĠìĥĪ":1006,"ê³µ":1007,"ĠëĴ¤":1008,"Ġìĸ¼êµ´":1009,"íĭ":1010,"ĠëĬĶì§Ģ":1011,"Ġìĸĳ":1012,"ĠìĿ¸ê°Ħ":1013,"Ġãħİãħİ":1014,"ĠìĿĳ":1015,"ĠëĤ´ë":1016,"ê¸ī":1017,"Ġë¬¸ìłľ":1018,"¸Į":1019,"Ġëĭ¤ê°Ģ":1020,"Ġë°ĺ":1021,"ê²©":1022,"Ġâ":1023,"ĠëĳĲ":1024,"Ġãħĩ":1025,"Ġëª°":1026,"íĺľ":1027,"ĠëķĮë¬¸":1028,"¦°":1029,"ĠëŁ¬":1030,"Ġê°ľë":1031,"ê°Ļ":1032,"Ġë³´ìĿ´":1033,"ĠëĲł":1034,"íĺķ":1035,"Ġì¶©":1036,"Ġë°°ìļ°":1037,"ĠìĿ´ìĥģ":1038,"Ġëįĺëį°":1039,"Ġíķ´ëıĦ":1040,"ì¦ĺ":1041,"íİ¸":1042,"Ġì¹ľ":1043,"ê²¨":1044,"Ġì¤ĺ":1045,"ìĶ¨":1046,"¼ë³¸":1047,"§Į":1048,"ĠëĶ±":1049,"ĠíĥĢ":1050,"ì¼":1051,"ãħī":1052,"ĠìĹ°ìĺĪ":1053,"íĽ":1054,"Ġë¿":1055,"Ġë§Ŀ":1056,"ë°Į":1057,"Ġíİ¸":1058,"Ġë§Īë":1059,"Ġì§Ģê¸Ī":1060,"Ġ??":1061,"íĶĦ":1062,"ĠëĮĵê¸Ģ":1063,"Ġãħī":1064,"Ġê·¸ëŁ¬":1065,"ë¬¼":1066,"ĠìłĢëŁ°":1067,"ª½":1068,"ĠëĤĺìĺ":1069,"Ġì§ĵ":1070,"ìģľ":1071,"Ġ~~~":1072,"Ġìļ°ë¦¬":1073,"Ġë¯¼":1074,"íĥľ":1075,"¼ì§Ģ":1076,"ëĳĲ":1077,"ľ´":1078,"Ġì§ģ":1079,"ĠìĿ¸ê°Ģ":1080,"Ġë¬¼":1081,"Ġìķŀ":1082,"íķĻ":1083,"Ġãħ¡":1084,"ĠëĨĵ":1085,"ĠíĻį":1086,"ĠêµŃë¯¼":1087,"Ĥ´":1088,"ħĲ":1089,"ê°Ģë¦¬":1090,"ë³ĳ":1091,"Ġë©°":1092,"ëŁ½":1093,"Ġ5":1094,"Ġ^^":1095,"Ġíŀĺë":1096,"Ġê°Ī":1097,"Ġëĭ¤ëĭĪ":1098,"Ġê±´ë":1099,"ë²Ħ":1100,"ëĦ¤":1101,"ĠíĽĦ":1102,"ìķĻ":1103,"ëĵľ":1104,"ĠíĶĦë¡ľ":1105,"ë¦°":1106,"Ġìĭľë":1107,"ëłĩ":1108,"ĠìŀħëĭĪëĭ¤":1109,"ëĬ¥":1110,"Ġë°±":1111,"Ġì²ĺ":1112,"Ġê¸Ģ":1113,"Ġìŀ¬ë¯¸":1114,"ĠìĿ´ëłĩ":1115,"ãħľ":1116,"´ë¦¬":1117,"ê¸´":1118,"Ġêº¼":1119,"¾¸":1120,"íģ¬":1121,"ìķħ":1122,"ë§¤":1123,"ëĵł":1124,"Ġíĺ¸":1125,"¶Ħ":1126,"ĠìĿ´ìģĺ":1127,"Ġëĭ¤ë¥¸":1128,"Ġì£ł":1129,"ìĬ¹":1130,"Ġìłķìĭł":1131,"ìĤ´":1132,"Ġëĭ¤ìĭľ":1133,"ìŀħ":1134,"ê°ķ":1135,"ìļ¸":1136,"ê¶Į":1137,"Ġìī":1138,"ĠíĴ":1139,"ìĿĢ":1140,"ĠëĪĪ":1141,"Ġê·¸ë¦¬ê³ł":1142,"ĠìĿ´ëłĩê²Į":1143,"íĴ":1144,"Ġìŀĸ":1145,"Ġê·Ģ":1146,"ê±¸":1147,"ĠëģĿ":1148,"ì§Ħì§ľ":1149,"ĠíĮĮ":1150,"Įį":1151,"Ġì½Ķ":1152,"Ġíģ":1153,"ĪëĤĺ":1154,"íķľë":1155,"ì¶ľ":1156,"ë¦Ħ":1157,"ë©":1158,"Ġìį":1159,"Ġìĸ¼ë§":1160,"Ġìĭ¸":1161,"ĠêµĲ":1162,"ĠíĮ¬":1163,"ĠìĨĮë¦¬":1164,"Ġíıī":1165,"ĠìĹ°ìĺĪìĿ¸":1166,"Ġìĸµ":1167,"ê²ĥ":1168,"ìĹĲ":1169,"ĠìĿ¸ì§Ģ":1170,"ë°°":1171,"ĠìĨĲ":1172,"Ġë©ĭ":1173,"ĠìĿĳìĽĲ":1174,"ê»":1175,"ì©":1176,"Ġìłľë":1177,"ì£Ħ":1178,"Ġìŀ¬ë°Į":1179,"ĠíĬ¹":1180,"Ġëĵ¤ìĸ´":1181,"¸ëĭ¤":1182,"Ġìĸ¸":1183,"ìłĲ":1184,"Ġì¢ħ":1185,"ĠëĿ¼ëıĦ":1186,"ĺë¯¸":1187,"Ġë¯¿":1188,"Ġì¦":1189,"Ġë¦¬":1190,"Ġíŀĺ":1191,"ìĸĳ":1192,"ĠìĿ¼ë³¸":1193,"ìłĳ":1194,"Ġëĭµ":1195,"ĠìĿ¸ìĥĿ":1196,"ĠìĻ¸":1197,"ĠìĨį":1198,"ĠìĤ¬ëŀĳ":1199,"Ġíĺķ":1200,"Ġëĺĳ":1201,"Ġ10":1202,"íĶ¼":1203,"¶Ģ":1204,"ĠìĹ´":1205,"ĠëĤĺìĿ´":1206,"ëĬĺ":1207,"¤ì¶©":1208,"Ġë³¼":1209,"Ġì£Ħ":1210,"ìĨĮë¦¬":1211,"Ġíı¬":1212,"Ġëĸ¨":1213,"ì´":1214,"Ġì§±":1215,"ĠëĲľëĭ¤":1216,"Ġï":1217,"Ķì§ģ":1218,"ĠìķĦìļĶ":1219,"Ġì¢Į":1220,"Ġê´ĳ":1221,"¸ı":1222,"ĠìĭĿ":1223,"Ġì°į":1224,"Ġì²ľ":1225,"Ġêµ¬ëĤĺ":1226,"ìĪł":1227,"Ġï¸ı":1228,"¸ëĭ":1229,"Ġìĸĺ":1230,"êµ°":1231,"ĠíĨµ":1232,"Ġìĸ´ëĸ»":1233,"·¨":1234,"ĠëĤł":1235,"Ġë³µ":1236,"ĠìĪĺì¤Ģ":1237,"ĠìĤ°":1238,"ìĹ¬ìŀĲ":1239,"ĠìĪľ":1240,"Ġãħīãħī":1241,"íĪ¬":1242,"Ŀ½":1243,"ĠíķĦ":1244,"ĠìķĦì§ģ":1245,"ĠìŀĲê¸°":1246,"Ġ!!":1247,"ë¡Ŀ":1248,"Ġëĳĺ":1249,"ìĦ¤":1250,"Ġì§ĢëŀĦ":1251,"ĮĢë¡ľ":1252,"ĠëĲ¨":1253,"ĠãĦ´":1254,"Ġëĺ¥":1255,"ŀĺëıĦ":1256,"¡ł":1257,"Ġ4":1258,"ĠíĮĶ":1259,"ĠãĦ¹":1260,"ĠìĹĶ":1261,"ĠíĮ¨":1262,"Ġìŀ¬ìķĻ":1263,"íĮħ":1264,"¶ģ":1265,"Ġê°Ģì§Ģ":1266,"ĠìĺĪë":1267,"ê²¼":1268,"Ġë¶Īë":1269,"Ġê·¸ë§Į":1270,"Ġê³¤ì¶©":1271,"ëª¨":1272,"ì³Ĳ":1273,"Ġ'":1274,"Ġëľ":1275,"Ġê»":1276,"ĠíļĮ":1277,"Ġë§ī":1278,"Ġì¶ľ":1279,"ĠíĻķ":1280,"ëħĦ":1281,"ĠëĪĦê°Ģ":1282,"Ġíĭ°":1283,"Ġìĸ¼ë§ĪëĤĺ":1284,"Ĭ¥":1285,"Ġëģ¼":1286,"ĠìĦ¸ìĥģ":1287,"ëħĢ":1288,"ìī":1289,"ìķ½":1290,"Ġë¬´ë":1291,"ìĬµ":1292,"ĠìĶ¹":1293,"ê±°ë¦¬":1294,"Ġë´ĲëĿ¼":1295,"Ġë¯¸ë":1296,"Ġãħľãħľ":1297,"Ġë¿Ĳ":1298,"Ķì§ģíŀĪ":1299,"ĠëĬĶëĭ¤":1300,"Ġë³Ģ":1301,"ĠìĻĦ":1302,"ê¹Ŀ":1303,"ì²ľ":1304,"ì°½":1305,"Ġì¤ĳêµŃ":1306,"ĠìĶ¨ë°ľ":1307,"ĠìķĦëĭĺ":1308,"íĨł":1309,"ĠìļĶì¦ĺ":1310,"íĭ°":1311,"¹Ħ":1312,"Ġíģ¬":1313,"Ġë°ĸ":1314,"ĠëĤĺìĻĢ":1315,"Ġìĺ¨":1316,"Ġëıħ":1317,"ì¦Ŀ":1318,"ĠíĬ¸":1319,"ëįĶ":1320,"Ġëĩ":1321,"Ġìĸ´ìķ¼":1322,"Ġê·¸ëŀĺ":1323,"Ġë©Ķ":1324,"ì¶Ķ":1325,"Ġê¼´":1326,"ĠíĭĢ":1327,"ìŀĪ":1328,"ìłģ":1329,"ê·¼":1330,"Ġì²Ń":1331,"Ġíĺ¼":1332,"ĠëĶ¸":1333,"ħĲëį°":1334,"Ġê¶Į":1335,"Ġê±¸ë":1336,"ìłĪ":1337,"ëĤł":1338,"ìķĦëĭĪ":1339,"ĠëĬĲëĤ":1340,"ĠëłĪ":1341,"¸ëĭĪ":1342,"²Ī":1343,"ļ¨":1344,"Ġíĳľ":1345,"ë§Ŀ":1346,"Ġë§ĮëĤĺ":1347,"ĠëħĢ":1348,"íĺĢ":1349,"ë°Ķ":1350,"ì£¼ìĿĺ":1351,"Ġê¼¬":1352,"Ġë¨¸ë¦¬":1353,"Ġê·¸ëłĩê²Į":1354,"ĠìŀĸìķĦ":1355,"ëĭ¬":1356,"Ġê·¼ëį°":1357,"Ġëªĩ":1358,"ê²°":1359,"ê·¼ëį°":1360,"ì¡Į":1361,"íĻ©":1362,"Ġì»¤":1363,"ëĪ":1364,"ĠìķĦìķ¼":1365,"Ġíİĺë¯¸":1366,"íĴĪ":1367,"??":1368,"ĠíħĲëį°":1369,"íķ¨":1370,"ìĥĪ":1371,"Ġìĸ´ëıĦ":1372,"Ġê¼Ń":1373,"ĠëıĮìķĦ":1374,"Ġíĸīë³µ":1375,"Ġíŀĺëĵ¤":1376,"Ġìĸ´ëĸ»ê²Į":1377,"ê¾¸":1378,"ìĻĶ":1379,"Ġìŀ¼":1380,"ê·Ģ":1381,"ĠìĬ¹":1382,"Ġëł¤ê³ł":1383,"Ġëĵľ":1384,"Ġëª©":1385,"ë³Ħ":1386,"Ġì¶ķ":1387,"Ġ....":1388,"ë£¨":1389,"»Ĳ":1390,"íĳľ":1391,"ĨĪ":1392,"ĠíĦ°":1393,"ĠíķĻ":1394,"ĠìĤ¬ì§Ħ":1395,"ĠìĤ¬ìĭ¤":1396,"ĠëĮĢëĭ¨":1397,"Ġì°½":1398,"ìĮį":1399,"ħĢ":1400,"ķĮ":1401,"Ġìķ½":1402,"Ġëĭ®":1403,"ĠìĤ¬íļĮ":1404,"ĠëĲĲ":1405,"Ġë²ķ":1406,"Ġì¡´":1407,"ĠëĨĢ":1408,"ĠëŀĢ":1409,"ĠíĶ¼íķ´":1410,"į¼":1411,"Ġíķ´ìļĶ":1412,"Ġë§ĪìĿĮ":1413,"Ġ20":1414,"Ġìħ¨":1415,"Ġê±´ëį°":1416,"ëĶĶ":1417,"Łģ":1418,"Ġìª½":1419,"Ġìĸ´ì©":1420,"ê¹Ĳ":1421,"ĠíĮĲ":1422,"Ġê´ľ":1423,"Ġìµľê³ł":1424,"ĠâĢ":1425,"ìĿ´íĮħ":1426,"¼ë¦¬":1427,"Ġãħģ":1428,"ëĿ¼ëıĦ":1429,"Ġëħ¸ëŀĺ":1430,"ëıħ":1431,"ĠëĬĲëĤĮ":1432,"ì±":1433,"ĠìĿ´ìľł":1434,"Ġëĵ£":1435,"Ġìĭľê°Ħ":1436,"Ġê¸ī":1437,"Ġìĸ´ëĶĶ":1438,"Ġë´Ĳìķ¼":1439,"Ġëĸł":1440,"Ł´":1441,"Ġì·¨":1442,"Ġê½":1443,"ãħ¡":1444,"Ġê°ĳ":1445,"ìĥī":1446,"Ġë¯¸ì¹ľ":1447,"!!!!":1448,"ĠíĹĪ":1449,"Ġë³¸ìĿ¸":1450,"ë£Į":1451,"íķľë¯¼":1452,"Ġëĺĳê°Ļ":1453,"ĠìĿ¼ë":1454,"ãħĩ":1455,"ĠìķĦëĵ¤":1456,"íķł":1457,"Ġë³´ìĹ¬":1458,"ëł¹":1459,"ĠëĮĢê°Ģë¦¬":1460,"ĠìĹĨìĿ´":1461,"ĠìĥĿê²¼":1462,"ĠìĿ´ë¯¸":1463,"ĠëĪĦêµ¬":1464,"ĠíķĦìļĶ":1465,"ëŃ":1466,"ĠìĿ´ê²Į":1467,"Ġìĭľë°ľ":1468,"ëĭĪê¹Į":1469,"ë°±":1470,"ĠìĦ¸ê³Ħ":1471,"Ġì¡°ìĦł":1472,"Ġêµ¬ë§Į":1473,"íĮĲ":1474,"ĠìĪł":1475,"Ġíģ°":1476,"íķľë¯¼êµŃ":1477,"°ĺ":1478,"ìĿĳ":1479,"ê¹¨":1480,"íķľêµŃ":1481,"ĠëĶĶ":1482,"ëħ¸":1483,"ëĦĪ":1484,"íĻľ":1485,"ĠíŀĺëĤ´":1486,"ê¼":1487,"ëĿ½":1488,"ì¸":1489,"íľ´":1490,"Ġì¼":1491,"Ġê¿":1492,"ĠíķŃ":1493,"ĠìłĲ":1494,"ìłĢë":1495,"ëŀĮ":1496,"ìĸ¸":1497,"ĠíĺĲ":1498,"ĠëŀĦ":1499,"ìŀ¬ìĿ¸":1500,"ĠìĬ¤íĥĢ":1501,"Ġì±ħ":1502,"Ġíĺ¼ìŀĲ":1503,"¦Ħ":1504,"ë¨":1505,"ì¾":1506,"Ġì¥":1507,"Ġë¸":1508,"Ġë½":1509,"ĠëĤ³":1510,"¸ëĿ¼":1511,"Ġê·¹":1512,"ìĽĢ":1513,"Ġë²Ķ":1514,"ĠìĹ¬ê¸°":1515,"Ġìĭľì¼":1516,"ì²ĺ":1517,"ĠìĽĶ":1518,"Ġíĥľ":1519,"ìĿ´ëŁ°":1520,"ĠíıŃ":1521,"Ġì³Ĳë¨¹":1522,"ĠìłľìĿ¼":1523,"ĠëĤĺìĺ¨":1524,"Ġìº":1525,"Ġê°Ģì¡±":1526,"Ġìłľë°ľ":1527,"ĠìĦľë":1528,"Ġì§ľ":1529,"Ġê¸°ìŀĲ":1530,"Ġìļ´":1531,"ĠìĭľíĤ¤":1532,"ìľ¡":1533,"ìľ¼ë":1534,"Ġìĸ´ëĿ¼":1535,"ĠëŃĺ":1536,"Ġ.....":1537,"ì¦Ī":1538,"łĩê²Į":1539,"ëĺ":1540,"Ġ9":1541,"Ġë»":1542,"Ġë§Ľ":1543,"Ġê°ĢëĬ¥":1544,"Ġê²Ģ":1545,"ê·¹":1546,"ë³¸":1547,"íĸ¥":1548,"Ġë¶ĪìĮį":1549,"ĠíĻĶìĿ´íĮħ":1550,"íĹĺ":1551,"Ġì±Ħ":1552,"Ġãħ¡ãħ¡":1553,"Ġëĸ¨ìĸ´":1554,"ì½Ķ":1555,"Ġ)":1556,"Ġìĸ´ìļ":1557,"Ġê¸°ëĮĢ":1558,"ë¶Ī":1559,"ĠìĤ¼":1560,"ì°®":1561,"ì¤Į":1562,"Ġë¯¸êµŃ":1563,"Ġë¨¸":1564,"íĽĦ":1565,"ëģ":1566,"Ġ8":1567,"Ġ;;":1568,"ł¥":1569,"ĠíĪ¬":1570,"ĠëĬĶêµ¬":1571,"Ġëĭ¤ìĿĮ":1572,"ĪëĮĢ":1573,"íķ©":1574,"ìĹĦ":1575,"ìľ¤":1576,"ìľ¼":1577,"ĠìĹĦì²Ń":1578,"íıŃ":1579,"ĠìĹŃìĭľ":1580,"Ġê³ĦìĨį":1581,"ë¶Ģëª¨":1582,"²Ħ":1583,"Ġì¿":1584,"Ġë¸Į":1585,"ĠìķĦë¬´":1586,"Ġê±į":1587,"Ġëª¸":1588,"Ġê·¸ëŁ¼":1589,"Ġê·¸ëŀĺëıĦ":1590,"Ģëĭ¤":1591,"ëł¸":1592,"ë°ĺ":1593,"Ġëı¼":1594,"Ġëª¨ìĬµ":1595,"íĽĪ":1596,"ĠìĮ":1597,"ĠëĤĺìļĶ":1598,"ĠìŀĲì²´":1599,"Ġì°¾":1600,"ê¸¸":1601,"ì°°":1602,"Ġëª»íķĺ":1603,"ĠãĦ±":1604,"Ġê³µê°ľ":1605,"ë²Ķ":1606,"Ġë´ĲëıĦ":1607,"ĠìĦ¤ë¦¬":1608,"Ġì¹ľêµ¬":1609,"¦½":1610,"ìĵ":1611,"Ġë§Īëĭ¤":1612,"ĠìĿĦê¹Į":1613,"Ġë¹¼":1614,"ĠìŀĲìĭĿ":1615,"ĠëįĶëĭĪ":1616,"íĥĦ":1617,"ĠíĻĺ":1618,"íĸĪ":1619,"ìĦ¸ìļĶ":1620,"Ġìĸĺê¸°":1621,"±ìĿ´":1622,"ìķĦìĿ´":1623,"ĠìĨ¡":1624,"ìĻ¸":1625,"Ġë°Ķë¡ľ":1626,"Ġê³µë¶Ģ":1627,"ĠêµŃê°Ģ":1628,"ìĹŃìĭľ":1629,"ì´Ī":1630,"Ġê´ĳê³ł":1631,"~~":1632,"³´":1633,"ðŁ":1634,"Ġë¶ģ":1635,"Ġì°Į":1636,"íķ´ìĦľ":1637,"ëĪĦ":1638,"Ġì¼Ģ":1639,"00":1640,"¬´":1641,"íģ":1642,"Ħ¸":1643,"ĩ´":1644,"Ġíľ´":1645,"Ġìŀł":1646,"Ġê²ģ":1647,"ê°Ī":1648,"Ġíķľëį°":1649,"Ġê±°ëĤĺ":1650,"ĠëĿ¼ë©´":1651,"ĠëĮĢíķľë¯¼êµŃ":1652,"Ġì°©":1653,"ĠìĬ¬":1654,"ì¹´":1655,"Ġê±´ê°Ģ":1656,"Ġìĺ¬ë¦¬":1657,"ëĶ°":1658,"Ġêµ°ëĮĢ":1659,"Ġê»ĺ":1660,"Ġ(":1661,"Ġ-":1662,"Ġ7":1663,"ĠëĤĺìĻĶ":1664,"Ġê³³":1665,"ì°¸":1666,"ê·¸ëĥ¥":1667,"Ġë³´ëĤ´":1668,"ëĤ¨ìŀĲ":1669,"ĠíĻįìĸ´":1670,"Ġìĸ¸ìłľ":1671,"ĠâĢ¼":1672,"ëĥ":1673,"Ġ%":1674,"Ġê¶ģ":1675,"ĠíħĮ":1676,"Ġê°Ķ":1677,"ìĹ´":1678,"ĠìĦ¸ê¸Ī":1679,"ĠíĴĢ":1680,"Ġìį¨":1681,"ĠìĻĦìłĦ":1682,"¦¼":1683,"µì¾":1684,"Ġ\"":1685,"ī´":1686,"ł¨":1687,"ĠìĿ´ê±°":1688,"ĠìķĦì£¼":1689,"ĠëĦ£":1690,"Ġë°¥":1691,"Ġê·¼":1692,"ìĭľëĭ¤":1693,"ĠëĤĺê°Ģ":1694,"Ġìłķê¶Į":1695,"ìĻľ":1696,"ë¦´":1697,"ë¦¼":1698,"ĠëĬ¥":1699,"ĠìĻĢìĦľ":1700,"íĻĺ":1701,"ĠìĺĪìģĺ":1702,"Ġìļ©ìłĳ":1703,"ĠíķŃìĥģ":1704,"ĠëĬĶêµ¬ëĤĺ":1705,"µì¾ħ":1706,"ëģ¼":1707,"ìį":1708,"Ķ´":1709,"ĠìĿ´ê¸°":1710,"ìŀ¡":1711,"ĠìķĦë¹ł":1712,"Ġë³Ħ":1713,"ĠìĦ¸ë":1714,"ë§ī":1715,"ìĥĪëģ¼":1716,"ĠìŀĲìĤ´":1717,"ĠëĭĪê¹Ĳ":1718,"Ġì²Ļ":1719,"ĠëĬĺ":1720,"íĶĮ":1721,"ê´ĳ":1722,"Ġë²Ħë¦¬":1723,"ĠíĺĦìĭ¤":1724,"Ġê´Ģìĭ¬":1725,"ĠíĨł":1726,"Ġê°ľëı":1727,"ê¿":1728,"ĠìĹħ":1729,"ãħĪ":1730,"Ġë§ĺ":1731,"ìĦŃ":1732,"ê°±ìĿ´":1733,"ëĭµ":1734,"ìłł":1735,"ëŀĢ":1736,"ĠëĮĢíĨµ":1737,"Ġê¸Ī":1738,"ĠíĻ©":1739,"ĠíıĲ":1740,"ĠìķĦëĭĮëį°":1741,"Ġìŀĳê°Ģ":1742,"ëıĪ":1743,"Ġ30":1744,"ìħĺ":1745,"¥´":1746,"Ġê°ĸ":1747,"Ġìĭľìŀĳ":1748,"íĥģ":1749,"Ġíķľëĭ¤ê³ł":1750,"Ġë¶Īíİ¸":1751,"ë¡ł":1752,"ë¶Ģë¶Ħ":1753,"Ġì±ħìŀĦ":1754,"ìª½":1755,"ī¤":1756,"Ġìŀĩ":1757,"ê²¹":1758,"Ġê²ĮìĿ´":1759,"ĠìŀĲê¾¸":1760,"ĠìĿ´ë²Ī":1761,"Ġê·¸ê²Į":1762,"ĠëĨĴ":1763,"Ġíĥĵ":1764,"ĠìĬ¤ëŁ½":1765,"ëŁ¬ìļ´":1766,"Ġë¨¼":1767,"ĠìħĶ":1768,"ĠìłľëĮĢë¡ľ":1769,"ĠëĩĮ":1770,"¬¼":1771,"±ìłķ":1772,"íļ¨":1773,"Ġ=":1774,"łĪ":1775,"ĠìĿ´ìķ¼":1776,"ĠìķĶ":1777,"Ġë°ĺë":1778,"Ġë§ĮíĻĶ":1779,"ìĸµ":1780,"ìĸ´ëĤĺ":1781,"ĠëĮĢë¶Ģë¶Ħ":1782,"Ġì¤Ģ":1783,"Ġìłķë¶Ģ":1784,"Ġë´Ħ":1785,"ë¡ľëĤĺ":1786,"Ġëĭ¹ìĹ°":1787,"ĠìķĦëĭĮê°Ģ":1788,"Ġì´Ī":1789,"ìĹĦë§Ī":1790,"¥¸":1791,"íģ¼":1792,"Ġ:":1793,"ħĦ":1794,"ĠìłĪëĮĢ":1795,"ìĹ½":1796,"Ġì£¼ë":1797,"Ġì°Ĳ":1798,"ìĨĶì§ģíŀĪ":1799,"ĠìĹ¬ìĦ±":1800,"Ġëª¨ëĵł":1801,"Ġë¬¸ìŀ¬ìĿ¸":1802,"ë²ķ":1803,"ìĶ¹":1804,"íı¬":1805,"Ġë¯¼ì£¼":1806,"Ġê´ľì°®":1807,"ìľ¼ë©´":1808,"²Į":1809,"ëĳĺ":1810,"ì»":1811,"ì½":1812,"Ġíŀ":1813,"ĠìķĦëĿ¼":1814,"Ġê±±ìłķ":1815,"Ġë³Ħë¡ľ":1816,"ìłľë":1817,"ĠìĭŃ":1818,"Ġë¶Ļ":1819,"ìĺ¨":1820,"ĠìĿ¸ìłķ":1821,"Ġë¹¡":1822,"ĠìĻ¸ë":1823,"ìĬ¬":1824,"ë¬´ë¦¬":1825,"ì°Į":1826,"Ġì£½ìĿ´":1827,"ìħĶ":1828,"ĠìĭľëĮĢ":1829,"Ġì¦Ŀ":1830,"ĠìĺĪëĬ¥":1831,"ìī¬":1832,"ŀĢ":1833,"ĠìķĦìĿ´ë":1834,"Ġìľ¤":1835,"ĠìĦ¹":1836,"ì§ķ":1837,"ĠìĤ¬ê³¼":1838,"Ġì§ķ":1839,"ê²Ģ":1840,"Ġìĥī":1841,"Ġê¸°ëĭ¤":1842,"ĠëĥĦ":1843,"Ġìłķì¹ĺ":1844,"Ġì§Ħìĭ¬":1845,"ĠìĿ´ëŁ¬":1846,"ĠìĿ´ë»Ĳ":1847,"ìļ°ë¦¬":1848,"ĠìłĦë¶Ģ":1849,"ë²Į":1850,"ĠìĥģíĻ©":1851,"Ġìĺģìĥģ":1852,"Ġìľ¼ëĭĪê¹Į":1853,"ë¯":1854,"ëŁ":1855,"Ġì©":1856,"ĠìĿ´ê±´":1857,"ĠëĤ¬":1858,"Ġìłĳ":1859,"ëŀĲ":1860,"ìĸ¼":1861,"Ġìĸ´ë¦°":1862,"ëĮĢì²´":1863,"ĠëĤ´ìļ©":1864,"ĠíĥĪ":1865,"íĬ¼":1866,"ìĪĻ":1867,"Ġìĺ¬ëĿ¼":1868,"Ġìī¬":1869,"Ġì¢ĮíĮĮ":1870,"ŁģìĿ´":1871,"ì±ħ":1872,"ĠëĮĢíĨµëł¹":1873,"°©":1874,"Ġì«":1875,"ãħĤ":1876,"ìŀĲê¸°":1877,"Ġë§Įëĵľ":1878,"ìĨĲ":1879,"ĠìĿ´ë¦Ħ":1880,"Ġìĺ¤ëĬĺ":1881,"ë²Ī":1882,"Ġê¹Ģì¹ĺ":1883,"Ġë¹¨ê°±ìĿ´":1884,"ĠìµľìŀĲ":1885,"ĠëĤľë¦¬":1886,"Ġë°ĸìĹĲ":1887,"Ġì¶ķíķĺ":1888,"Ġìĸ´ì©Į":1889,"ì¤Įë§Ī":1890,"Ġê°ľëı¼ì§Ģ":1891,"£¨":1892,"Ġ,":1893,"ĠìķĦê¹Ŀ":1894,"ĠìłĬ":1895,"ì§ĢëŀĦ":1896,"Ġë°ľë":1897,"Ġìľ¡":1898,"ĠìķĪíĥĢ":1899,"Ġê³¨":1900,"ìĬ´":1901,"ĠëĤ¨íİ¸":1902,"ĠíĮ©":1903,"Ġì¹´":1904,"ĠìłĦíĻĶ":1905,"Ġëŀĺ":1906,"Ġë©į":1907,"ìļ´ìłĦ":1908,"Ġì²ĺë¨¹":1909,"ĠíĿ¬":1910,"ĠëĶ°ëĿ¼":1911,"ĠíĸīëıĻ":1912,"ĠëĤĺìĺ¬":1913,"ì¸ł":1914,"Ġë²Ķì£Ħ":1915,"Ġìĭľì¼ľ":1916,"ĠëĬ¥ëł¥":1917,"ĳ¥":1918,"Ľ°":1919,"Ġíį¼":1920,"ìŀĺ":1921,"¸ëŀĺ":1922,"ĠíķľëĤ¨":1923,"ìĭ¸":1924,"Ģëĵľ":1925,"ëĭ¤ê³ł":1926,"ìĽł":1927,"Ġëı¼ì§Ģ":1928,"ĠìĨĶì§ģíŀĪ":1929,"Ġì²´":1930,"ëĵ±":1931,"ìłķë§Ĳ":1932,"ìĭľìķĦ":1933,"Ġì¡°ê¸Ī":1934,"Ġê±´ì§Ģ":1935,"íĮ¨":1936,"Ġëĭ¹íķĺ":1937,"Ġíķľëĭ¤ëĬĶ":1938,"ĠíĹ¤":1939,"ĠëŃĶê°Ģ":1940,"ë²Ħì§Ģ":1941,"ê»ĺ":1942,"ĠìĿ¼ë°ĺ":1943,"ĠìºĲ":1944,"Ġìĸ´ìļ¸ë":1945,"ìĵ°":1946,"ëĥĲ":1947,"ìį¨":1948,"ª©":1949,"ªħ":1950,"Ġ0":1951,"ĠðŁ":1952,"ĬĲ":1953,"Ġëī´":1954,"ĠíĦ¸":1955,"ĠìĿ´ìģľ":1956,"ìĿ¸ë":1957,"Ġë³¸ëĭ¤":1958,"ãħĭãħĭãħĭ":1959,"ĠìĤ¬ìĿ´":1960,"Ġì¢ĥ":1961,"ĠìĻĶ":1962,"Ġìļ¸":1963,"ì£½":1964,"ì°¬":1965,"íĥĿ":1966,"Ġì¹ĺë":1967,"ĠíĥĦ":1968,"Ġê³µìĤ°":1969,"ĠëĬĻ":1970,"Ġì§ĳëĭ¨":1971,"Ġíķ´ìķ¼ì§Ģ":1972,"íĹĪ":1973,"Ġëĵ¤ìĸ´ê°Ģ":1974,"íĨłë¦¬":1975,"Ġì¥Ĳ":1976,"£Į":1977,"³¤":1978,"ëĮ":1979,"Ġ6":1980,"Ġì¯":1981,"ìķĮ":1982,"Ġê±°ë¦¬":1983,"Ġê±°ê¸°":1984,"ëĿ¼ìĿ´":1985,"Ġê¹Ģë":1986,"ìľ¨":1987,"ĠìĤ´ë":1988,"ĠìĥĿíĻľ":1989,"Ġìĸ´ëł¤":1990,"Ġê·¸ê±¸":1991,"ì£¼ìļ´ìłĦ":1992,"ĠìĨĮìĨį":1993,"ìĭ¬íŀĪ":1994,"íĬ¸ë":1995,"ì¢Ĩ":1996,"ëª©":1997,"ĠëģĮ":1998,"ê»´":1999,"Ġê·¸ëŀĺìĦľ":2000,"ĠíĶ¼íķ´ìŀĲ":2001,"Ġë»Ķ":2002,"ì¿":2003,"íĤ":2004,"íĪ":2005,"ĩ¼":2006,"Ġì½":2007,"ĠìĿ´íĺ¼":2008,"Ġê°ĢìĪĺ":2009,"Ġìĸ¸ë":2010,"ĠãħĨ":2011,"ĠìĿ¸ê¸°":2012,"ĠìŀĲìľł":2013,"ĠìĻķ":2014,"Ġêµ³":2015,"ìĽĥ":2016,"ìĽĶ":2017,"Ġíĸĩ":2018,"ëĵľë":2019,"Ġê°ľìĨĮë¦¬":2020,"Ġê·¸ê±°":2021,"ĠíĶ¼ë":2022,"ì¢Į":2023,"ìĪľ":2024,"ĠíĽ¨":2025,"Ġë§¤ëł¥":2026,"íĺ¸ì¤ĳ":2027,"ëŃĲ":2028,"Ġì¿µì¾ħ":2029,"Ġë¶ģíķľ":2030,"Ġê¶ģê¸Ī":2031,"íħ":2032,"Ģëŀ":2033,"ģĦ":2034,"Ġíĳ":2035,"Ġë§¨":2036,"Ġìł¸":2037,"ĠìĹĲìĦł":2038,"ìļķ":2039,"´ëĭ¤":2040,"´ëĿ¼":2041,"ĠëıĦëĮĢì²´":2042,"ĠëĤĺìģľ":2043,"ì§ĵ":2044,"ìĹĪ":2045,"Ġë³´ê³ł":2046,"ê°Ģì§Ģ":2047,"Ġë§Įíģ¼":2048,"Ġë¹Į":2049,"ĠëĮĢë¡ľ":2050,"ëĵĿ":2051,"ĠìĥĿê¸°":2052,"Ġëª¨ëĳĲ":2053,"Ġìĵ´":2054,"Ġìĵ¸":2055,"ìĥĿê¸´":2056,"ĠêµŃìĤ°":2057,"Ġëĵľë¦½":2058,"Ġë¹¨ë¦¬":2059,"íıĲ":2060,"ĠìĽĥê¸°":2061,"ëĶ©":2062,"Ġì¤ĺëĿ¼":2063,"Ġì²ĺìĿĮ":2064,"ìłĢëŁ°":2065,"Ġë¸Ķ":2066,"ĢëŀĢëĵľ":2067,"¦´":2068,"²ķ":2069,"¹íĪ":2070,"Ġê¾¸":2071,"Ġëĭ¤ë©´":2072,"ĠìķĦì¤Įë§Ī":2073,"ê°Ķ":2074,"ëĭ´":2075,"´ë°":2076,"ĠìĤ¬ê±´":2077,"Ġë¬¼ë":2078,"ĠëĥĲê³ł":2079,"Ġìĭľì²Ń":2080,"ĠëįĶë§Į":2081,"Ġì²ł":2082,"Ġìĸ´ëĬĲ":2083,"Ġê°ľìĿ¸":2084,"Ġê·¸ê²ĥ":2085,"Ġë¶ĢëŁ½":2086,"ĠìŀĦìĭł":2087,"ëĦĪë¬´":2088,"íĻį":2089,"Ġê²°êµŃ":2090,"ëĭ¹íŀĪ":2091,"Ġëģ¼ë¦¬":2092,"Ġì§ģìĹħ":2093,"Ġë©ĭìŀĪ":2094,"Ġì§±ê¹¨":2095,"Ġëľ¨":2096,"¹íĪ°":2097,"--":2098,"êº":2099,"ìµľ":2100,"Ħ¤":2101,"ĠìĹł":2102,"Ġê°ģ":2103,"ĠëĤ«":2104,"ëĭĺ":2105,"Ġë°Ŀ":2106,"ľëıĻ":2107,"Ġì§¤":2108,"ìĺĢ":2109,"ĠìĿ¸ìĦ±":2110,"ĠìĿ¸íĦ°":2111,"Ġë¹µ":2112,"Ġ!!!":2113,"ìĬ¤íĬ¸":2114,"ĠìłĦëĿ¼ëıĦ":2115,"Ġì¤ĳìļĶ":2116,"ë¯¸ì¹ľ":2117,"Ġì°¨ìĿ´":2118,"ìĶ¬":2119,"Ġìļķë¨¹":2120,"ì°¨íĶ¼":2121,"Ġìĸ´ëĸ¤":2122,"Ġíĭ°ë¹Ħ":2123,"¡Ń":2124,"ëĨ":2125,"ëĨĪ":2126,"ıĮ":2127,"ŀ¨":2128,"Ġíļ¨":2129,"Ġê³łìĿ¸":2130,"ĠëĤľëĭ¤":2131,"Ġì§Ģì§Ģ":2132,"ĠìĤ¬ê¸°":2133,"Ġìļ´ë":2134,"Ġìłķìĥģ":2135,"ë¥¼":2136,"íĥķ":2137,"ìĪĺë¡Ŀ":2138,"ĠìĹ°ìķł":2139,"Ġì¡°ìļ©":2140,"ìĺ¤ëĬĺ":2141,"ĠìĦ±ê³µ":2142,"ĠìĬ¤íĨłë¦¬":2143,"Ġíı°":2144,"Ġë³ĳìĽĲ":2145,"ĠìłĢëłĩê²Į":2146,"Ġê°ĲìĤ¬":2147,"ĠíĹ¬":2148,"Ġê´Ģê³Ħ":2149,"Ġì¢Ĩê°Ļ":2150,"ĠíıīìĥĿ":2151,"ĠìĹ´ìĭ¬íŀĪ":2152,"ĠëĤĺìĻĢìĦľ":2153,"ĠëłĪê¸°":2154,"ĠëıĮìķĦê°Ģ":2155,"Įãħ":2156,"ł¸":2157,"Ġìĳ":2158,"ĠìĮį":2159,"ĠëĿ":2160,"ĠëĽ°":2161,"Ġíķĺê³ł":2162,"Ġê³łìĨĮ":2163,"ĠìłĪ":2164,"ëĭ¥":2165,"ìķ¡":2166,"Īëł¤":2167,"Ġë°Ģ":2168,"ìļĶì¦ĺ":2169,"ìķĦë¨¹":2170,"ĠìĽĮ":2171,"ãĦ¹":2172,"ë¹Ī":2173,"Ġìĺ¤ëŀĺ":2174,"ĠãĦ²":2175,"ìĤ¼":2176,"ĠìĦ±ê²©":2177,"Ġë°Ķëŀ":2178,"ìŀ¬íĺĦ":2179,"ë²ł":2180,"ĠìłĢëŁ¬":2181,"Ġìŀ¥ëĤľ":2182,"ĠëĴ·":2183,"Ġëħ¸ëł¥":2184,"Ġì¤ĺìķ¼":2185,"Ġìŀ¬ë¯¸ìĹĨ":2186,"Ġê±¸ë¡ľ":2187,"Ġê¿Ģ":2188,"§¤":2189,"ì³¤":2190,"íį¼":2191,"ĵł":2192,"ìĿµ":2193,"ĠìķĦê¹Į":2194,"ê°ľë":2195,"ìĿ´ê±°":2196,"ì§Ĳ":2197,"ë§Īë":2198,"ĠìĺĨ":2199,"Ġê¸°ë¶Ģ":2200,"Ġê¸°ìĪł":2201,"ìĸĺ":2202,"Ġì¢ĭìķĦ":2203,"Ġíĺľ":2204,"ì²ł":2205,"ìĸ´ì§Ģ":2206,"Ġì¹¼":2207,"ĠìĶ©":2208,"Ġë¬´ìĦŃ":2209,"ìĻķ":2210,"Ġìľ¼ë©´ìĦľ":2211,"ì¢ĥ":2212,"ĠìĺĪìģľ":2213,"Ġê¹¨ë¬¸":2214,"ĠìĥĪê¸°":2215,"ĠëĤ´ëł¤":2216,"ĠíĴį":2217,"ĠíļĮìĤ¬":2218,"Ġì¶ľìĹ°":2219,"ìī½":2220,"Ġê½ĥ":2221,"ëĺĲ":2222,"Ġì°ĲëĶ°":2223,"ëŁī":2224,"ĠíĽ¨ìĶ¬":2225,"¬¸":2226,"Ġëº":2227,"Ġê¾":2228,"Ġíĩ´":2229,"ĠìĿ´ë¦¬":2230,"ê°ĳ":2231,"ê°Ĵ":2232,"Ġì§ĢëĤĺ":2233,"ìļ±":2234,"Ġìĸ¸ëĭĪ":2235,"Ġëĭ´":2236,"ì§¸":2237,"ľë¸Į":2238,"ĠëĿ¼ìĦľ":2239,"Ġìľ¼ëł¤":2240,"ëĤĺëĿ¼":2241,"Ġë¹Ļ":2242,"ìķĦê°Ģ":2243,"ĠëĮĢíķľ":2244,"ìĬ·":2245,"ĠëĨį":2246,"ĠìĹ°ìŀ¥":2247,"Ġì¡°ìĤ¬":2248,"Ġì¡°ìŀĳ":2249,"Ġìĺ¤ì§Ģ":2250,"Ġë¶Ģë¶Ģ":2251,"ìĹ°ê¸°":2252,"Ġìĥģê´Ģ":2253,"Ġëĭ¹ìĭł":2254,"ê·¸ëŀĺ":2255,"ê·¸ëŀĺëıĦ":2256,"ê·¸ëŀ¨":2257,"ìĭ¤íŀĪ":2258,"ĠëĪĦêµ°":2259,"ëĬĲ":2260,"ĠìĽĲëŀĺ":2261,"ĠìĪ¨":2262,"ì¡°ê±´":2263,"ëįĺ":2264,"Ġê´Ģë¦¬":2265,"Ġë¿Į":2266,"Ġê·ĢìĹ½":2267,"Ġì½Ķë¡ľëĤĺ":2268,"ĠìĤ°ëĭ¤":2269,"Ġëĩ¬":2270,"ĠìĬ¹ë¦¬":2271,"Ġë½ĳ":2272,"ìľ¼ëĭĪ":2273,"íģĲ":2274,"ĠìĿ´ìķ¼ê¸°":2275,"Ġëī´ìĬ¤":2276,"ëĮĵê¸Ģ":2277,"©ëĭĪëĭ¤":2278,"ëĤ¬":2279,"ãħħ":2280,"Ġê°ļ":2281,"Ġê°Ģìłķ":2282,"Ġê°Ģìł¸":2283,"ĠìķĦìī½":2284,"íķľëĭ¤":2285,"Ġãħ£":2286,"Ġì§Ĳ":2287,"Ġê¸°ìķĪ":2288,"Ġê¸°ë¶Ħ":2289,"ĠìŀĲë¦¬":2290,"ĠëĮĢìĥģ":2291,"ĠëĮĢë°ķ":2292,"Ġì¡Į":2293,"ìłķìĭł":2294,"ë¥ĺ":2295,"ĠìĥĿê¸´":2296,"ĠëķĲ":2297,"Ġëķľ":2298,"ê³¨":2299,"Ġì¹¨":2300,"Ġìĺ¤ë¹ł":2301,"Ġë©Ģ":2302,"ĠìĦ±íĺķ":2303,"Ġë°ĶëŀĮ":2304,"Ġìľłëªħ":2305,"íĶĪ":2306,"ĠìĥģëĮĢ":2307,"ì¦Į":2308,"....":2309,"ĠëĦĪíĿ¬":2310,"ĠíĿ¥":2311,"Ġê²½ìłľ":2312,"ĠíĶĦë¡ľê·¸ëŀ¨":2313,"Ġìŀ¬ë¯¸ìŀĪ":2314,"Ġíĺ¸ê°Ĳ":2315,"Ġ40":2316,"Ġê°ĳìŀĲê¸°":2317,"ĠìĿ´ë¯¸ì§Ģ":2318,"ĠìĦľë¡ľ":2319,"Ġìļ´ìłĦ":2320,"¨¸ëĭĪ":2321,"ê¶ģ":2322,"ë´":2323,"ħ¸":2324,"Ł¤":2325,"ĠìĿ½":2326,"Ġìķī":2327,"ĠìŀĶ":2328,"ĠìķĦëıĦ":2329,"ĠëıĦë¡Ŀ":2330,"Ġíķľìĭ¬":2331,"íķĺë":2332,"ìĭŃ":2333,"ë§ŀ":2334,"Ġìĺ·":2335,"ê²¬":2336,"ĠìĥĪë":2337,"ëĿ¼ì§Ģ":2338,"ìĺ¥":2339,"ì¹¨":2340,"Ġê°ľìĥĪëģ¼":2341,"ĠìĽ¹íĪ°":2342,"Ġë¬´ì¡°ê±´":2343,"Ġë¹ĦìĬ·":2344,"Ġë¶Ģë¶Ħ":2345,"ĠíĻľëıĻ":2346,"Ġì£½ìĹ¬":2347,"Ġê°Ĳìłķ":2348,"Ġëªħë³µ":2349,"Ġìĺ¬ëł¤":2350,"Ġì±Ļ":2351,"Ġì´Īë":2352,"ì¼Ģ":2353,"ĠìĬ¤íĥĢìĿ¼":2354,"Ġíľ´ê°Ģ":2355,"ĠìķĪíĥĢê¹Ŀ":2356,"Ġs":2357,"Ġx":2358,"įëĭĪëĭ¤":2359,"ļ±":2360,"ĠìŁģìĿ´":2361,"ìĿĦ":2362,"ĠëĤ®":2363,"ĠìķĦíĶĦ":2364,"Ġìł¤":2365,"ìĿ´ìłľ":2366,"ì§Ģë§ī":2367,"íķĦ":2368,"ì§Ŀ":2369,"Ġê±°ìĿĺ":2370,"ĠìĤ¬ê·Ģ":2371,"Ġë³´ìŀĦ":2372,"Ġê¸°ìĸµ":2373,"Ġê·¸ëŀ":2374,"Ġê·¸ëŁ´":2375,"Ġë¬»":2376,"íĺģ":2377,"Ġì°¬":2378,"ĠìĥĪëģ¼ìķ¼":2379,"Ġê´Ģë":2380,"Ġìĭłê²½":2381,"ê´´":2382,"ĠëĦĺìĸ´":2383,"ĠìľĦíķ´":2384,"ìĽĮìĦľ":2385,"ĠëĬĲê»´":2386,"ĠìĹŃê²¹":2387,"ì¢ħìĽĲ":2388,"Ġì»¨":2389,"íĭĢ":2390,"ë©Ķ":2391,"Ġì¦Ĳ":2392,"Ġë³µê·Ģ":2393,"ĠíĳľíĺĦ":2394,"ë¨¸":2395,"Ġê²ģëĤĺ":2396,"Ġëĭ¹ìĹ°íŀĪ":2397,"Ġë¯¼ì£¼ëĭ¹":2398,"ĠìĻ¸ëª¨":2399,"ĠìĦ¹ìĬ¤":2400,"Ġìĸ¸ë¡ł":2401,"Ŀ¤":2402,"ĠìķĦê°Ģë¦¬":2403,"ĠìķĦë¬´ë¦¬":2404,"ìĿ´ê²Į":2405,"ì§Ģë§Į":2406,"ĠëĭĪëĭ¤":2407,"ĠëĤĺì¤ĳ":2408,"Ġìĸ´ì°¨íĶ¼":2409,"ê°Ģëĭ¤":2410,"ĠëĿ¼ëĭĪ":2411,"ëĿ¼ë¦¬":2412,"ìĺ¬":2413,"ĠìŀĲëŀĳ":2414,"Ġì¤¬":2415,"ĠìłķìĿĺ":2416,"ĠìĭľìłĪ":2417,"ë¶ģ":2418,"ĠëĨĶ":2419,"Īë¬¼":2420,"ĠìĤ´ìĿ¸":2421,"Ġë¬´ìĭľ":2422,"ì¶ķ":2423,"ł¤ìļĶ":2424,"Ġë¶ĢëŁ¬":2425,"Ġê´´ë":2426,"ıĻìĤ°":2427,"Ġëĵ¯ìĿ´":2428,"íĬľë¸Į":2429,"ĠìķĦëĭĲ":2430,"ĠìĦłíĥĿ":2431,"Ġìŀ¥ë©´":2432,"ĠìľĦìŀ¥":2433,"ĠëıĻìķĪ":2434,"Ġìķħë§Ī":2435,"ìł¸ìĦľ":2436,"Ġë§Ŀíķĺ":2437,"ë³ĳìĭł":2438,"Ġ50":2439,"Ġíŀĺëĵł":2440,"ĠìĻ¸êµŃ":2441,"Ġì»¤íĶĮ":2442,"Ġë¨¼ìłĢ":2443,"ĠìķĦìĿ´ëıĮ":2444,"ĠëĥĦìĥĪ":2445,"Ġêµ³ìĿ´":2446,"Ġìļ´ëıĻ":2447,"ĮãħĬ":2448,">>":2449,"³µ":2450,"ãĨ":2451,"ë·":2452,"ħìĭł":2453,"Ġíķĳ":2454,"ĠìĿ´ëŀĺ":2455,"ìĿ¸ëĭ¤":2456,"ìŀĶ":2457,"Ġíķľë²Ī":2458,"ì§Ģê¸Ī":2459,"ì§±":2460,"ĠìĤ¬ê³ł":2461,"ĠìĺĽ":2462,"Ġê¸°ìĹħ":2463,"Ġë§Įëĵł":2464,"Ġëįķ":2465,"Ġë¹ķ":2466,"ĠìŀĲë¹ł":2467,"ìķĦì¹ĺ":2468,"ĠëĮĢì²´":2469,"ĠìĪĺìŀħ":2470,"Ġì²¨":2471,"Ġíĺĳ":2472,"Ġê¸¸ëŀĺ":2473,"ì¤Ħ":2474,"Ġë§Īìĭľ":2475,"Ġë§ĪìĦ¸ìļĶ":2476,"Ġê±´ê°ķ":2477,"Ġë°Ķë¦¬":2478,"Ġëįĺê°Ģ":2479,"ë¯¸ìķł":2480,"Ġë´ĲìĦľ":2481,"ĠìĺĪìłĦ":2482,"ĠëıĻëĦ¤":2483,"Ġê²½ê¸°":2484,"Ġëł¤ëĬĶ":2485,"ĠíĤ¤ìļ°":2486,"Ġãħĩãħĩ":2487,"Ġë°±ìĭł":2488,"Ġìī½":2489,"ë©°":2490,"ë°°ìļ°":2491,"Ġìĳ¤":2492,"Ġê·¸ëŀ¬":2493,"ãĨį":2494,"20":2495,"©Ķ":2496,"ì·¨":2497,"ìŁģ":2498,"ĦĪ":2499,"ĦëĿ¼":2500,"ĵ±":2501,"Ġìĩ¼":2502,"ĠíĮĢ":2503,"ĠìĿ´ìģ":2504,"ĠìĿ´ìļ©":2505,"ĠìĿ´ê²ĥ":2506,"ĠìĿ´íĽĦ":2507,"ĠìĿ´ìłł":2508,"ĠìŀĬ":2509,"Ġëĭ¤ë¥´":2510,"Ġëĭ¤íģĲ":2511,"Ġê°ĢìĬ´":2512,"Ġê²Ł":2513,"ĠìķĦë¦Ħ":2514,"Ġì§ĢìļĶ":2515,"Ġë°¤":2516,"Ġëĭ¥":2517,"ìĹĺ":2518,"Ġë³´ëĭ¨":2519,"ĠëĲ©ëĭĪëĭ¤":2520,"ĠìŀĲìĭł":2521,"Ġëħ¼ë":2522,"Ġì¤Ģëĭ¤":2523,"Ġ~!!":2524,"ĠìĬĪ":2525,"ĠëįĶëŁ½":2526,"ĠìĤ¶":2527,"Ġìłģëĭ¹íŀĪ":2528,"Ġìķłë¯¸":2529,"Ġë°Ķê¿":2530,"ìŀ¬ìĦĿ":2531,"ìĿ´ë²Ħ":2532,"ëĦĲ":2533,"ĠíĬ¼":2534,"Ġê¹Ģíĺ¸ì¤ĳ":2535,"ĠìĦłìĥĿ":2536,"íİĺ":2537,"Ġê²½ì°°":2538,"ĠìŀĳíĴĪ":2539,"Ġì´Ŀ":2540,"ĠêµĲìľ¡":2541,"ĠìĪľê°Ħ":2542,"Ġëª©ìĨĮë¦¬":2543,"Ġë©įì²Ń":2544,"Ġì¹ĺë£Į":2545,"íĩ´":2546,"íī¤":2547,"Ġ+":2548,"Ġë±":2549,"Ġëİ":2550,"Ġíī¤":2551,"Ġê°ľë°ľ":2552,"Ġíķĺì°¨":2553,"Ġíķĺë£¨":2554,"Ġê°Ģë¥´":2555,"¸ë¡ľ":2556,"ìĿ´íģ¬":2557,"Ġìĭ¹":2558,"Ġì§¸":2559,"Ġì§Ŀ":2560,"Ġê·¸ëĮĢë¡ľ":2561,"ĠìĿĺë¯¸":2562,"Ġë¹ļ":2563,"ĠëĮĢíĳľ":2564,"Ġë¥ł":2565,"Ġ~^^":2566,"ë³Ģ":2567,"ĠëįĶëŁ¬ìļ´":2568,"ì¡´":2569,"Ġë§Īìķ½":2570,"ì¶°":2571,"Ġë°ĶëĿ¼":2572,"Ġë¶ĢëģĦ":2573,"Ġë¶Ģíĥģ":2574,"ê·¸ëŁ¬":2575,"Ġë²Ħëł¤":2576,"ĠíĹĪë":2577,"ìĸ´ëĤ":2578,"íıī":2579,"Ġê°ķê°Ħ":2580,"Ġì§ĪíĪ¬":2581,"ìľĦê¸°":2582,"Ġë°ĺìĦ±":2583,"íĺľìĦł":2584,"íĺľêµĲ":2585,"Ġíİ¸íķĺ":2586,"ĠëĤĺìĺ¨ëĭ¤":2587,"Ġì§ľì¦Ŀ":2588,"Ġ84":2589,"ì½©":2590,"ìĵ°ëłĪê¸°":2591,"®¤":2592,"ëŁ°":2593,"Ġ;":2594,"Įë¥":2595,"Ġë¡":2596,"ĠìķĻ":2597,"ĠìĹ¿":2598,"ĠìĹī":2599,"Ġê°Ģìŀ¥":2600,"Ġê°Ģê²©":2601,"Ġê²¨":2602,"ĠìķĦíĮĮ":2603,"Ġì§ĢìĽĲ":2604,"ìĿ´ê±´":2605,"ìĿ´íĶĦ":2606,"ê¸°ìķĪ":2607,"Ġìĸ´ì°Į":2608,"Ġë³´ìĪĺ":2609,"Ġê·¸ëķĮ":2610,"Ġê¹Ķ":2611,"ê·ł":2612,"ìĨĶ":2613,"ĠìĹ¬ëŁ¬":2614,"Ġì¡±":2615,"ë¬´ë":2616,"ĠìĨĶ":2617,"Ġì£¼ìŀĳ":2618,"ĠìĿĮì£¼ìļ´ìłĦ":2619,"íŀĪëł¤":2620,"Ġëª»íķľ":2621,"ĠëķĮë¦¬":2622,"Ġë§Īì§Ģë§ī":2623,"ìĹ¬ê¸°":2624,"ĠëĪĪë¬¼":2625,"Ġëįĺì§Ģ":2626,"Ġ18":2627,"Ġìĭłê¸°":2628,"Ġë¯¸ê°ľ":2629,"Ġê³¼ê±°":2630,"Ġìĥģìĥģ":2631,"Ġìŀħìŀ¥":2632,"ĠëĺĲëĿ¼ìĿ´":2633,"ĠìľĦíķľ":2634,"ĠëĬĲëģ¼":2635,"Ġê²½ìļ°":2636,"Ġê°Ħëĭ¤":2637,"ĠìĿ¸ê°ĢìļĶ":2638,"ĠíĬ¹íŀĪ":2639,"Ġ100":2640,"ìĦ¤ë¦¬":2641,"ì±Ħ":2642,"Ġê¿Ī":2643,"Ġëĸ¨ìĸ´ì§Ģ":2644,"Ġë²Ķì£ĦìŀĲ":2645,"Ġë§¨ëĤł":2646,"Ġë¬¼ë¡ł":2647,"Įë¥Ń":2648,"³ĳ":2649,"¶Ģë":2650,"ë¸":2651,"ë¸Į":2652,"ĠãĨį":2653,"ĺì§Ģ":2654,"ĠíĢ":2655,"Ġê°Īë":2656,"Ġê³łìĥĿ":2657,"ĠìķĦëĥĲ":2658,"ëĭĲ":2659,"ĠìĹĲìļĶ":2660,"ĠëĦĲ":2661,"ľëĿ¼":2662,"Ġëª¸ë":2663,"ĠìĿĺìĤ¬":2664,"Ġê³§":2665,"Ġë¹Ī":2666,"ê¹Ģë":2667,"Ġ!!!!!":2668,"ĠìĹ¬íĸī":2669,"Ġìĭľê¸°":2670,"ì¹ľë":2671,"Ġì£¼ìłľ":2672,"ĠìĿĮìĭĿ":2673,"Ġìĸ´ëĶ":2674,"ì°©":2675,"Ġìĺ¤íŀĪëł¤":2676,"Ġë¬¸íĻĶ":2677,"ĠìĤ´ìķĦ":2678,"Ġë°Ķë":2679,"Ġë¶Ģë¥´":2680,"ìŀ¬ë°Į":2681,"Ġëħ¸ê°Ģëĭ¤":2682,"ìĿ´ëŁ¬":2683,"ĠìľłíĬľë¸Į":2684,"Ġëĭ¹íķľ":2685,"ĠìłĢëłĩ":2686,"Ġë¶ĦìľĦê¸°":2687,"Ġê²°ê³¼":2688,"ìĻĢìĦľ":2689,"Ġëĸ¡":2690,"Ġê°Ĳëıħ":2691,"ĠíĿĲ":2692,"Ġë²Įìį¨":2693,"íĹĮ":2694,"Ġëł¨":2695,"Ġìĭ¬íķĺ":2696,"Ġëĵ±ê¸ī":2697,"ìħī":2698,"Ġãħİãħİãħİ":2699,"ĠâĿ¤":2700,"Ġëª°ëŀĲ":2701,"ìĶ¨ë°ľ":2702,"Ġì§ĵê±°ë¦¬":2703,"Ġì§ģìĽĲ":2704,"Ġë©ĭì§Ħ":2705,"Ġìłľëª©":2706,"Ġë¶Īë²ķ":2707,"Ġë½ķ":2708,"ëģĶ":2709,"ĠíŀĪ":2710,"Ġê¸°ëĭ¤ë¦¬":2711,"íĤ¨":2712,"Ġê¾¼":2713,"¤ë²Ħ":2714,"§Ī":2715,"ê½":2716,"ëĸ":2717,"ìº":2718,"ľ¨":2719,"Ġìª":2720,"Ġíĩ":2721,"ĠìĹĩ":2722,"Ġê°Ģì§Ħ":2723,"¸ëĮĢ":2724,"Ŀ¼ê³ł":2725,"ĠìķĦë²Ħì§Ģ":2726,"Ġìłĸ":2727,"Ġì§Ģì¼":2728,"Ġìĸ»":2729,"ìķŀ":2730,"ìĭ±":2731,"ìĭľë":2732,"ìĭľë°ľ":2733,"Ġê±°ì§ĵ":2734,"ê¸°ìĤ¬":2735,"ìŀĲì§Ģ":2736,"ĠìĻł":2737,"ìĬĪ":2738,"Ġìĭľìŀ¥":2739,"Ġì£¼ìĿ¸":2740,"ì§Ħìĺģ":2741,"ë§ĮíŀĪ":2742,"íŀĮ":2743,"ĠìĿ´ëĶ´":2744,"ë¹¨":2745,"Ġë¬´ìĭĿ":2746,"ĠìĭłìķĦ":2747,"Ġìĥģì²ĺ":2748,"íĺĦë¬´":2749,"ľë°ķ":2750,"Ġë²Ħë¦°":2751,"ĠíĽĮë¥Ń":2752,"¼ë³´":2753,"¼ë³ĳ":2754,"Ġë²ĮëłĪ":2755,"Ġëĵłê°Ģ":2756,"ëıĮ":2757,"Ġìłķìĭłë³ĳ":2758,"Ġê·ĢìĹ¬":2759,"ĠìĺĪë»Ĳ":2760,"Ġë¯¸ëª¨":2761,"Ġì¥¬":2762,"Ġìĸ´ìļ¸ë¦¬":2763,"Ġìļ©ìłĳê³µ":2764,"ĠìŀĲë¹łì¡Į":2765,"Ġë°ĶëĢ":2766,"£¹":2767,"Ġc":2768,"ĪĦëĿ¼":2769,"Ļ¥":2770,"Ġì¸":2771,"Ġìı":2772,"ĠìŁ¤":2773,"ĠíķĢëŀĢëĵľ":2774,"Ġê°ĵ":2775,"ìĿ¼ë³¸":2776,"ìĦ¼":2777,"Ġíķľê°Ģ":2778,"Ġë°ĳ":2779,"ĠìĦ¼":2780,"ë§Ľ":2781,"ĠãħĲ":2782,"ĠìĤ¬íĺķ":2783,"Ġê¸°ë³¸":2784,"Ġíķ´ê²°":2785,"Ġê³±":2786,"Ġì°¢":2787,"ê·ľ":2788,"ĠìĹ¬ë¡ł":2789,"Ġìłķì±ħ":2790,"Ġì²«":2791,"íĥĪ":2792,"Ġì¡°ìĭ¬":2793,"Ġë¶ĢëıĻìĤ°":2794,"ĠìłĢê±°":2795,"íĮĶ":2796,"Ġì°¨ëĿ¼ë¦¬":2797,"ĠìĥĿê°ģëĤĺ":2798,"ĠíĬĢ":2799,"Ġê¹Ģìłķ":2800,"ìłĢìĶ¨":2801,"ĠìĺĪìļĶ":2802,"¼ë³Ģ":2803,"ĠìħĪ":2804,"ĠìĹŃê²¨":2805,"Ġë§¤ìĿ¼":2806,"ìĹĨìĿ´":2807,"Ġì¶©ë¶Ħ":2808,"Ġ~~~~":2809,"Ġìĸµìļ¸":2810,"Ġëľ»":2811,"Ġìĸ´ìķ¼ì§Ģ":2812,"????":2813,"Ġê´ľíŀĪ":2814,"Ġì·¨ê¸ī":2815,"ëŃĶ":2816,"ê¼¬":2817,"Ġë¸ħìĭł":2818,"Ġê²ĢìĤ¬":2819,"Ġê²ģëĭĪëĭ¤":2820,"ìłľë¡ľ":2821,"Ġê³µìĤ°ì£¼ìĿĺ":2822,"êº¼":2823,"Ġì¡°ìļ©íŀĪ":2824,"Ġë°ĶëŀįëĭĪëĭ¤":2825,"ë§ĪëĶĶ":2826,"Ġëª¸ë§¤":2827,"ì¯":2828,"Ġ/":2829,"Ġk":2830,"ŃìĿ´":2831,"ĠíķĺëĬĺ":2832,"Ġê³łë§Ī":2833,"ĠìķĦìłĢìĶ¨":2834,"Ġì§Ģë¯¼":2835,"Ġì§ĢëĦ¤":2836,"ĠìĹĲëĭ¤":2837,"ìķķ":2838,"ĠëıĦìĻĢ":2839,"Ġëĭ´ë°":2840,"Ġê·ľ":2841,"Ġìľ¨":2842,"ĠìĤ¬ìŀ¥":2843,"ëĤĺìĿ´":2844,"ëĤĺëŀĺ":2845,"Ġëįľ":2846,"ĠìŀĲëĿ¼":2847,"ìķĦëĵ¤":2848,"Ġì¡¸ëĿ¼":2849,"Ġìĭľì¦Į":2850,"Ġíĺ¸ë":2851,"ĠìĿĮìķħ":2852,"ĠìĿ¼ëĭ¨":2853,"íŀĺ":2854,"Ġìķłê¸°":2855,"Ġêµ¬íķĺ":2856,"ìĹ¬ê°Ħ":2857,"Ġë¬´ìĦľ":2858,"Ġë©¤ë²Ħ":2859,"Ġë¹Ħíķĺ":2860,"Ġë¹ĦëĤľ":2861,"ĠíĻľ":2862,"ë¬¸ìŀ¬ìĿ¸":2863,"ì¢Ģ":2864,"Ġíķ¨ê»ĺ":2865,"ìłĢê¸°":2866,"íĻķ":2867,"ĠíĻĶìŀ¥":2868,"Ġìĭ¤ë§Ŀ":2869,"Ġì²ĺë²Į":2870,"ëŁ¬ìĽĮ":2871,"ì¤Ģìĺģ":2872,"ĠëıĮë¦¬":2873,"ë¡±":2874,"ĠíĿĶ":2875,"Ġê·¸ëŁ°ì§Ģ":2876,"Ġë°©ìĨ¡êµŃ":2877,"ë°©ë¶Ģ":2878,"ëĶ±":2879,"ĠìĸĳìķĦì¹ĺ":2880,"Ġë¯¼ì¡±":2881,"ĠíĻįë³´":2882,"Ġíģ´ë":2883,"Ġìį©":2884,"Ġë¶ĪëŁ¬":2885,"Ġì¶ľìĭł":2886,"Ġë¯¸ëŀĺ":2887,"ĠíĦ°ì§Ģ":2888,"ëĦĪíĿ¬":2889,"ĠìłĲìłĲ":2890,"Ġì°©íķľ":2891,"ĠìĦ¸ëģ¼":2892,"Ġë°ĺëĮĢ":2893,"Ġìľ¼ëł¤ê³ł":2894,"Ġë°Ķê¿Ķ":2895,"¥ĺ":2896,"ëĥ¥":2897,"Ġ^":2898,"Ġm":2899,"Ġt":2900,"ħëĭĪëĭ¤":2901,"ĳìĨĮ":2902,"ľĺ":2903,"ĠìķĹ":2904,"ĠìķĪë":2905,"ĠìĹ´ë":2906,"ĠëĤĻ":2907,"Ġê°Ģë¦¬":2908,"ê°Ŀ":2909,"ëĭĪë":2910,"Ġê±¸ë¦¬":2911,"ìłľë°ľ":2912,"ìł¸ëĿ¼":2913,"ĠëĦĮ":2914,"Ġíķľë§ĪëĶĶ":2915,"Ġëĭ·":2916,"ĠëĭĪë":2917,"íķµ":2918,"ê¸°ìŀĲ":2919,"ìĹ¼":2920,"ê°ĢëĿ½":2921,"Ġì£¼ë³Ģ":2922,"ĠìŀĲê³ł":2923,"ĠìŀĲìĹ°":2924,"Ġê¹ľ":2925,"ë°¥":2926,"Ġì¤Į":2927,"Ġìłķë³´":2928,"Ġì¡¸":2929,"ì¹ł":2930,"Ġê·¸ê±´":2931,"ĠíĶĦ":2932,"ĠìłĦíĺĢ":2933,"Ġìŀ¬ìĤ°":2934,"Ġêµ¬ëĿ¼":2935,"ì¶ĺ":2936,"ĠìłĢê²Į":2937,"ë²½":2938,"ĠìķĮëł¤":2939,"ë¦½":2940,"ë¦Ń":2941,"Ġë¯¸ìķĪ":2942,"ê·¸ëŁ¼":2943,"ĠìķĦëĭĻ":2944,"ëł¤ê³ł":2945,"Ġìļ°íĮĮ":2946,"Ġëĵľëł¤ìļĶ":2947,"ì¤ĳê¸°":2948,"Ġìĭ¤ëªħ":2949,"íİĺë¯¸":2950,"ëį¸":2951,"ĠìĦ¤ìłķ":2952,"Ġê³Ħì§ĳ":2953,"Ġëħ¸ë¬´":2954,"Ġë¹łì§Ģ":2955,"ĠëįĶëĿ¼ëıĦ":2956,"ëĶ¸":2957,"ĠëĴ¤ì§Ģ":2958,"Ġìĸĳë°ĺ":2959,"Ġëª°ëł¤":2960,"ĠëŁ¬ìĭľìķĦ":2961,"Ġ???":2962,"Ġ~~~~~":2963,"Ġíĺ¸êµ¬":2964,"ë©į":2965,"Ġìĸµì§Ģ":2966,"Ġì²ŃìĽĲ":2967,"ĠíķĻêµĲ":2968,"Ġìĸ´ì©Ķ":2969,"Ġëĺĳê°ĻìĿ´":2970,"ëģĹ":2971,"Ġì°Įì§Ī":2972,"ê¿Ģ":2973,"Ġì¦Ŀê±°":2974,"ë¯¸ë":2975,"ĠìĿ¼ë°ĺìĿ¸":2976,"ĠðŁĲ":2977,"ìĿ¸ëĵľ":2978,"íħĶ":2979,"ê·¸ëŀĺìĦľ":2980,"ëįĺëį°":2981,"Ġê´´ë¡Ń":2982,"ë·°":2983,"Ġëĭ´ë°°":2984,"³Ħ":2985,"íĤ¬":2986,"Ĩĵ":2987,"łµ":2988,"Ġíķ§":2989,"Ġ.?":2990,"ĠìĿ´ìĬ¹":2991,"Ġìŀĥ":2992,"Ġëĭ¤íĸī":2993,"Ġëĭ¤ëħĢ":2994,"ĠìķĦê¸°":2995,"Ġê±·":2996,"Ġë³¸ë":2997,"ìłĵ":2998,"ĠëĭŃ":2999,"íķ´ë":3000,"ĠëĤĺê°Ħ":3001,"ë§¨":3002,"ë§İ":3003,"Ġê±°ì§Ģ":3004,"ĠãħĬ":3005,"ĠìĤ¬ìĹħ":3006,"ĠëĦ¤ìĿ´ë²Ħ":3007,"Ġëª½":3008,"ê²ģ":3009,"Ġë³´ìĨĮ":3010,"Ġë³´ìĿ¸ëĭ¤":3011,"Ġê¸°ìĥĿ":3012,"Ġê·¸ë£¹":3013,"ĠìĿ¸ìĤ¬":3014,"ĠìĿ¸ê¶Į":3015,"Ġëį®":3016,"ĠìŀĲê·¹":3017,"ìķĦë¬´ë¦¬":3018,"Ġê¹¡":3019,"Ġë²¤":3020,"Ġë²Ĺ":3021,"ë³¼":3022,"ĠìĪĺì§Ģ":3023,"Ġê¸Īë":3024,"Ġìĸ´ë¨¸ëĭĪ":3025,"ì§Ħëĭ¤":3026,"Ġëķħ":3027,"ì¤ĺ":3028,"ìĬ¤íģ¬":3029,"ì¡´ëĤĺ":3030,"ĠëĶ©":3031,"Ġë§ĪìĿ¸ëĵľ":3032,"Ġë¬¸ìŀ¬":3033,"ĠëħĦëĨĪ":3034,"Ġë¹Ħìĭ¸":3035,"Ġë¹Ħìľ¨":3036,"Ġë°Ķë³´":3037,"Ġë°Ķê¾¸":3038,"Ġë¶ĢëĮĢ":3039,"Ġ19":3040,"ĠìĬ¤ëŁ°":3041,"ìĿ´ë²Ī":3042,"Ġë¯¸ì³¤":3043,"Ġìľłì§Ģ":3044,"ìĹ°ìĺĪ":3045,"Ġì°¨ë¦¬":3046,"Ġë¨¹ìĿ´":3047,"Ġëĭ¹íĸĪ":3048,"ê·¸ë§Į":3049,"ê·¸ëħĢ":3050,"ëĦ·":3051,"ĠìĺģìĽĲ":3052,"Ġíİĺ":3053,"ĶĶìĸ´":3054,"Ġíķ©ìĭľëĭ¤":3055,"Ġìŀ¥ìķł":3056,"ĠíķľêµŃìĿ¸":3057,"ìĶĢ":3058,"Ġìĭ¤ëł¥":3059,"Ġìĭ¤ìłľë¡ľ":3060,"ĠëģĬ":3061,"ĠìµľìĨĮ":3062,"ĠíĺĦëĮĢ":3063,"ì¢ħêµŃ":3064,"Ġì¶Ķë¯¸ìķł":3065,"Ġëĵ±ëĵ±":3066,"Ġë°ĺìĿĳ":3067,"Ġëª°ëĿ¼":3068,"Ġê°ľëħĲ":3069,"Ġë§ĪëĪĦëĿ¼":3070,"ĠíĬ¹ì§ķ":3071,"ĠíĻķìĭ¤":3072,"Ġë¬´ëĮĢ":3073,"ê·¼íĺľ":3074,"ĠëĸłëĤĺ":3075,"ĠíĺĲìĺ¤":3076,"Ġì±ĦëĦĲ":3077,"Ġ80":3078,"Ġì°©íķĺ":3079,"Ġê·¼ê±°":3080,"ĠìħĶìĦľ":3081,"ìĸ¼êµ´":3082,"Ġì«Į":3083,"Ġíĩ´ì¶ľ":3084,"Ġê´Ģëł¨":3085,"ĠìĺĽëĤł":3086,"ìĿ´ëŁ¬ìĬ¤":3087,"¨¸":3088,"ë±":3089,"ĵ¯":3090,"Ġë£¨":3091,"Ġê°Ĵ":3092,"ìĿ¼ë":3093,"Ġê³łê¸°":3094,"Ġëĭ¤ìĿ´":3095,"Ġëĭ¤ë¦¬":3096,"Ġë§¹":3097,"ìŀł":3098,"Ġê²¬":3099,"ĠìķĦìŀ¬":3100,"ĠìķĦíĶĪ":3101,"ìķĶ":3102,"ĠëıĦë§Ŀ":3103,"ìĿ´ìĥģ":3104,"íķĢëŀĢëĵľ":3105,"ĠëĤĺëĮĢ":3106,"Ġê±°ëĵł":3107,"ĠìĤ¬ìĦ¸ìļĶ":3108,"ĠìĤ¬ëĥ¥":3109,"Ġì§ł":3110,"ìĹĩ":3111,"Ġìĸ´íľ´":3112,"Ġë¬ĺ":3113,"ĠìŀĲì§Ģ":3114,"Ġëħ¼ë¦¬":3115,"íĺ¹":3116,"íĺ¸ë":3117,"Ġì°Ķ":3118,"ê¹Ķ":3119,"Ġ~!":3120,"ê±į":3121,"Ġì£¼ìŀ¥":3122,"ĠìĪĺìĤ¬":3123,"Ġë§ĲìĶĢ":3124,"ĠëĤ¨ì¹ľ":3125,"ë¥¸ëĭ¤":3126,"ĠíĸĪìĹĪ":3127,"ĠìĥĿê²¨":3128,"Ġë´ī":3129,"ê³¤":3130,"Ġìķ¼ì§Ģ":3131,"ìĪĺë£Į":3132,"Ġëª¨ìĸĳ":3133,"Ġëª¨ëį¸":3134,"ãĦ´":3135,"ìĬ¤ë¡ľ":3136,"Ġìķłë¹Ħ":3137,"ĠìĦľìļ¸":3138,"ìĥĿíĻľ":3139,"Ġë¶Ģëĵ¤":3140,"Ġ12":3141,"Ġìĭłê³ł":3142,"ĠìĬ¤ìĬ¤ë¡ľ":3143,"Ġê³¼íķĻ":3144,"Ġì°¨ë³Ħ":3145,"Ġëĭ¹ìŀ¥":3146,"Ġë°©íĥĦ":3147,"Ġë°©ë²ķ":3148,"Ġë°°ìĽĮ":3149,"Ġíķ©ìĿĺ":3150,"ĠìĦłëıĻ":3151,"Ġ25":3152,"Ġëį°ë¦¬":3153,"ì¡°ìĦł":3154,"Ġê°ĲëıĻ":3155,"ë¬´ìĽĲ":3156,"íı°":3157,"ë¡Ģ":3158,"ëįķ":3159,"Ġëł¤ëĤĺ":3160,"Ġëł¤ë©´":3161,"íĹĲ":3162,"Ġì¶Ķì²ľ":3163,"Ġãħłãħłãħł":3164,"Ġìĭ¬ê°ģ":3165,"Ġë§Īë¦¬":3166,"ĠëĤĺìĺ´":3167,"Ġì§ģìłĳ":3168,"ĠíĴĪ":3169,"Ġë©ĭì§Ģ":3170,"ĠìĹ´íıŃ":3171,"ì´Į":3172,"Ġë¬´ëĦĪ":3173,"ë°Ķë¡ľ":3174,"Ġì¡´ê²½":3175,"ë¨¼":3176,"ĠíıŃëł¥":3177,"ì½Ķë¡ľëĤĺ":3178,"Ġì°¾ìķĦ":3179,"ĠíĻĺê²½":3180,"Ġì©Į":3181,"Ġì¯¤":3182,"Ġì¯§":3183,"Ġëĵľë¦½ëĭĪëĭ¤":3184,"Ġë°ĿíĺĢ":3185,"ĠìĿ¸íĦ°ëĦ·":3186,"Ġì»¨ìħī":3187,"Ġìĳ¤ìħĶ":3188,"Ġì¶©ë¶ĦíŀĪ":3189,"´Ĳ":3190,"ë»":3191,"ëĳ":3192,"ëķ":3193,"ìĮ":3194,"ìŁģìĿ´":3195,"íĦ¸":3196,"Ĥ¨":3197,"Ńī":3198,"Ġìµ":3199,"Ġëļ":3200,"ĠíĦ":3201,"ĠìĿ´êµŃ":3202,"ĠìĿ´ê±¸":3203,"Ġìķķ":3204,"Ġìķ¼ë":3205,"Ġëĵ¤ë¦¬":3206,"Ġê°Ģì¹ĺ":3207,"Ġê°Ģë§ĮíŀĪ":3208,"ìŀĸ":3209,"ĠìķĦì¹¨":3210,"ìĿ´íĬ¸":3211,"ì§ĢìĽĲ":3212,"ì§Ģë¯¼":3213,"íķŃ":3214,"ëĤĻ":3215,"ĠìĦŃ":3216,"ľëį°":3217,"Ġìĸ´ìĿ´":3218,"Ġìĸ´ìłľ":3219,"Ġìĸ´ìĥī":3220,"Ġë¶ķ":3221,"ĠëĿ¼ìĿ¸":3222,"ëĭĪìłĢ":3223,"ĠëĲ¬":3224,"Ġíķ´ìĻ¸":3225,"ìĺĪë":3226,"ëĤĺìļ´":3227,"ĢëĮĢ":3228,"ĠìĿĺìĭ¬":3229,"ĠìĿĺë£Į":3230,"Ġë¹Ľ":3231,"Ġê¹Ĭ":3232,"ëĭ¤ë¥¸":3233,"ĺëıĦ":3234,"ê¸ĭ":3235,"Ġìłķíķ´":3236,"Ġë¡ľìĦľ":3237,"ê²ĮìļĶ":3238,"Ġì²ľë°ķ":3239,"íĥĳ":3240,"ìĬ¤íĥĢ":3241,"Ġìķłì´Ī":3242,"Ġêµ¬ìĨį":3243,"ê°Ħëĭ¤":3244,"ĠìĦ±ìĿ¸":3245,"ĠìĦ±ë³Ħ":3246,"Ġë¹ĦêµĲ":3247,"Ġ15":3248,"ĠìłĢê±¸":3249,"ıĻìķĪ":3250,"ìĿĮì£¼ìļ´ìłĦ":3251,"ĠíĬ¸ë":3252,"ĠëĵľëŁ¬":3253,"ĠëĪĦëĤĺ":3254,"ĠìĺĪìĪł":3255,"ĠìĦłìĪĺ":3256,"ĠìĪĻ":3257,"ĠìľĦíĹĺ":3258,"Ġìĭ¤ìĪĺ":3259,"ĠëıĻìĥĿ":3260,"ìĪŃìĿ´":3261,"ĠëĮĵ":3262,"ĠíĿĳ":3263,"Ġìħĭ":3264,"Ġê°ķìĤ¬":3265,"Ġëĭ¨ê³Ħ":3266,"Ġëĵ±ìĭł":3267,"ĠãħĩãħĪ":3268,"¦°ëĭ¤":3269,"Ġíİ¸ì§ĳ":3270,"ë§¤ë§¤":3271,"Ġìĸ¼ë§Ī":3272,"Ġëĵ¤ìĸ´ìĺ¤":3273,"Ġê¶Įëł¥":3274,"Ġì¡°ìĦłì¡±":3275,"Ġ90":3276,"ë²Ķì£Ħ":3277,"Ġìľ¡ìķĦ":3278,"ĳ¥ìĿ´":3279,"ĠíĶ¼ëĶĶ":3280,"ĠëĿĦ":3281,"ê°ľëı":3282,"ĠìķĦëĭĲê¹Į":3283,"ĠìķĦë¦Ħëĭ¤":3284,"Ġëħ¼ëŀĢ":3285,"Ġê±°ì§ĵë§Ĳ":3286,"Ġê¹ĢìłķìĿĢ":3287,"40":3288,"ĠS":3289,"Ġj":3290,"ŀĳ":3291,"Ġëĳ":3292,"Ġíį":3293,"ĠìĿ´ë³ĳ":3294,"ĠìĿ´ìĬĪ":3295,"ĠëĬĶê°Ģ":3296,"ĠëĬĶëĶĶ":3297,"Ġëĭ¤ëĭĲ":3298,"Ġê°Ģì¦Ī":3299,"ëĭĮ":3300,"´ëĤ´":3301,"ìĿ´ìħĺ":3302,"¼ëĮĢ":3303,"ĠãħĮãħĬ":3304,"ìŀĲë¦¬":3305,"ĠìĤ¬ê·":3306,"ľëĵľ":3307,"Ġì§§":3308,"ìĹł":3309,"ëĿ¼ê³ł":3310,"Ģë¹Ħ":3311,"Ġëį©":3312,"ĠìĿĺìĽĲ":3313,"ĠìŀĲì£¼":3314,"ìķĦê¸°":3315,"ìķĦì§ģ":3316,"ĠëĮĢìĤ¬":3317,"ëĭ¤ëĭĪ":3318,"ê¸´ëĭ¤":3319,"Ġìłķìŀĳ":3320,"ĠìĪĺìĪĺë£Į":3321,"Ġì§Ħì§Ģ":3322,"íķĺëĤĺ":3323,"ĠìĿ´ë¯¼":3324,"Ġê·¸ì§Ģ":3325,"Ġê·¸ìłĢ":3326,"ìĸ´íĬ¸":3327,"Ġíķłê¹Į":3328,"ĠìłģíıĲ":3329,"Ġìĺ¤ë°Ķ":3330,"ìĻĦ":3331,"Ġë°ĶìĿ´ëŁ¬ìĬ¤":3332,"ìŀ¬ë¯¸":3333,"Ġê³µê°Ĳ":3334,"Ġê³¼ìĹ°":3335,"Ġìľłë¦¬":3336,"ĠìľłíĪ¬":3337,"Ġì°¨ëł¤":3338,"Ġëĭ¹ìĭľ":3339,"Ġëĭ¹íķ´":3340,"ê·¸ë¦¬":3341,"ì¢ĭ":3342,"ĠìłĢëĬ¥":3343,"ìłĢê±°":3344,"Ġë¶Ħëªħ":3345,"Ġë¶Ħíĥķ":3346,"Ġë§ŀì¶°":3347,"ìĺģíĻĶ":3348,"Ġìŀ¥ìĤ¬":3349,"íĿ¥":3350,"ĠìľĦíķ´ìĦľ":3351,"ĠëıĻë¬¼":3352,"ìĪ¨":3353,"Ġë°ķê·¼íĺľ":3354,"Ġì¡´ëĤĺê²Į":3355,"ãħİãħİ":3356,"ĠëĮķ":3357,"íĺ¸ìĤ¬":3358,"Ġêº¼ë":3359,"¼ë§Ĳ":3360,"Ġë°ľíĳľ":3361,"Ġëª°ìŀħ":3362,"Ġì¤ĺìĦľ":3363,"Ġë§Īëĥ¥":3364,"ĠìīĲ":3365,"Ġìį¼":3366,"Ġìĸ¸ê¸ī":3367,"Ġëĺĳë°Ķë¡ľ":3368,"Ġãħīãħīãħī":3369,"Ġëľ¬":3370,"Ġë§īìŀ¥":3371,"ĠíĻķìĿ¸":3372,"Ġìĺ¨ê°":3373,"ì¶Ķíĸī":3374,"Ġì¡´ìŀ¬":3375,"ë°±ì¢ħìĽĲ":3376,"ë¨¸ë¦¬":3377,"Ġìĭľì¼ľëĿ¼":3378,"Ġìļ´ìĺģ":3379,"ëĺ¥":3380,"ĠíĻĺìŀĲ":3381,"ĠíħĮëŁ¬":3382,"ĠìĿ´ë»ĲìļĶ":3383,"ĠíĹ¤ìĸ´ì§Ģ":3384,"ĠìºĲë¦Ń":3385,"ì¿ł":3386,"ì¿µì¾ħ":3387,"ëĵľëĿ¼ë§Ī":3388,"ĠíĶ¼ë¶Ģ":3389,"ëĨĵ":3390,"Ġë¹Ļìĭł":3391,"ë´ī":3392,"Ġíĺĳë°ķ":3393,"ìĸ´ëĤľ":3394,"ì¯§":3395,"ĠìķĦëĭĻëĭĪëĭ¤":3396,"ìĹ°ìĺĪìĿ¸":3397,"Ġìĸ´ìĿ´ìĹĨ":3398,"ëĤĺìļ´ìĦľ":3399,"bc":3400,"©°":3401,"ë½":3402,"Ġd":3403,"Ġg":3404,"Ġo":3405,"łĢ":3406,"Ġë®¤":3407,"ĠíĤ":3408,"Ġíķµ":3409,"ĠìĿ´ëŀĢ":3410,"Ġìķµ":3411,"Ġê³łê¸ī":3412,"Ġê²ª":3413,"ĠìķĦìĺĪ":3414,"ĠìķĦìī¬":3415,"ĠìķĦëĤĺìļ´ìĦľ":3416,"Ġìł¸ëĿ¼":3417,"Ġì§Ģë°©":3418,"Ġì§ĢëĬ¥":3419,"¡ľìļ´":3420,"Ġë°ī":3421,"ĠëĤĺìģĺ":3422,"ĠëĤĺë¨¸":3423,"ĠìĦĿ":3424,"Ġìĺ³":3425,"ëŀ¬":3426,"ëŀľ":3427,"ê°ĢìĬ´":3428,"Ġê²ĮìŀĦ":3429,"ĠìĿ¸êµ¬":3430,"ĠìķĪìŀ¬íĺĦ":3431,"ìķĦë²Ħì§Ģ":3432,"ĠëĮĢíķĻ":3433,"ìĽħ":3434,"Ġìłķì¤Ģìĺģ":3435,"ì¹Ļ":3436,"ì¹Ń":3437,"Ġíĺ¹":3438,"ì²ĺë":3439,"Ġìĸ´ëłµ":3440,"ì§ĦêµŃ":3441,"Ġê°ľíĮĲ":3442,"ëĮĢê°Ģë¦¬":3443,"ĠìĽĢ":3444,"Ġëª¨ìŀĲ":3445,"Ġëª¨ìķĦ":3446,"Ġì¹ł":3447,"Ġì¹´ë":3448,"ĠìłĦíĺĦë¬´":3449,"ë¹Ļ":3450,"ĠìķłêµŃ":3451,"Ġêµ¬ìļĶ":3452,"Ġë¬´ìĹĩ":3453,"ĠìĦ±íıŃ":3454,"ĠìĦ±ì¶Ķíĸī":3455,"Ġë¶Ģë¦¬":3456,"ĠìĨĮë¦Ħ":3457,"Ġ11":3458,"ìŀ¬ëªħ":3459,"Ġìĭłìĥģ":3460,"Ġìĭłë¬¸":3461,"ĠìĬ¤ëŁ¬ìļ´":3462,"Ġê³µìŀ¥":3463,"Ġìľłìŀ¬ìĦĿ":3464,"ëł¤ìĦľ":3465,"ëħ¸ë":3466,"íĨ¡":3467,"ĠìļĶë¦¬":3468,"ëª»":3469,"ĠìĺĪìĥģ":3470,"ĠìĦłê±°":3471,"Ġëį°ëł¤":3472,"ìĦ¸ìĥģ":3473,"ì¤ĳêµŃ":3474,"ëĤ¨íİ¸":3475,"Ġìłľìŀĳ":3476,"ëŁ¬ìĭľìķĦ":3477,"Ġë°ķìĪĺ":3478,"ìĸ´ëıĦ":3479,"ĠíĭĢë":3480,"ëį©":3481,"ĠìĦ¤ì¹ĺ":3482,"Ġê²½íĹĺ":3483,"ĠíĺĦìŀ¬":3484,"ĠëĶ°ë¡ľ":3485,"ëı¼ì§Ģ":3486,"Ġë°ľìłĦ":3487,";;;;":3488,"ĠëĤ´ë¦¬":3489,"ĠëĤ´ëĤ´":3490,"Ġ????":3491,"ë¦°ëĭ¤":3492,"Ġë°±ì¢ħìĽĲ":3493,"íĴį":3494,"íķľë³Ħ":3495,"ĠíĻķìĭ¤íŀĪ":3496,"Ġëıħê°Ĳ":3497,"Ġíĳľìłķ":3498,"ëĪĪ":3499,"ĠìĤ¬íļĮì£¼ìĿĺ":3500,"ĠíĮĲëĭ¨":3501,"Ġê°ĳëĭĪëĭ¤":3502,"ê¼Ń":3503,"ì¸µ":3504,"ĠìĮ©":3505,"Ġ70":3506,"ĠíıĲì§Ģ":3507,"łĪìĬ¤":3508,"ĠíĥĦíķµ":3509,"Ġê³µìĤ°ëĭ¹":3510,"Ġíĳ¸":3511,"ĠìĿ¸íĦ°ë·°":3512,"Ġì§ĲìĬ¹":3513,"ĠëĦĺìĸ´ê°Ģ":3514,"Ġë°ĶëĢĮ":3515,"Ġê¸°ìĥĿì¶©":3516,"Ġëĭ¤ìĿ´ìĸ´íĬ¸":3517,"Ġìĺ¨ê°ĸ":3518,"ĠìºĲë¦ŃíĦ°":3519,"§Ŀ":3520,"¬ìĺģ":3521,"¹¼":3522,"ëī´":3523,"ëļ±":3524,"ìĩ¼":3525,"íĦ":3526,"ĩĦ":3527,"ŁŃ":3528,"Ńì°¬":3529,"Ġì¾":3530,"Ġëļ±":3531,"Ġíħ":3532,"ĠìĿ´ìłĦ":3533,"ĠìĹ¼ë³ĳ":3534,"ãħĮãħĬ":3535,"ĠíķĺìĹ¬ê°Ħ":3536,"Ġê°ĢëģĶ":3537,"ĠìķĦê°Ģ":3538,"ĠìķĦëĤ´":3539,"Ġì§Ģìĺ¥":3540,"ìļ´ë":3541,"Ġìĸ¼ë":3542,"ĠëıĦìĽĢ":3543,"Ġìĭ¼":3544,"Ġë°ĭ":3545,"Ġë°Ł":3546,"íķĳ":3547,"ëĤ¸":3548,"ë¦¬ìĬ¤":3549,"ĠìĿĦì§Ģ":3550,"ë§Ļ":3551,"Ġê±°ë¶Ģ":3552,"ĠãħĹ":3553,"ĠìĤ¬ëĿ¼":3554,"ĠìĤ¬ìĥĿíĻľ":3555,"ľë²Ħ":3556,"Ġìĺ¹":3557,"Ġë³´íĨµ":3558,"Ġë³´ìĺĢ":3559,"Ġë©´ìĥģ":3560,"Ġê¸°ì¤Ģ":3561,"ĠëĿ¼ë©°":3562,"Ġë§Įì§Ģ":3563,"Ġë§Įì¡±":3564,"Ġë§ĮëĤ¬":3565,"Ģëł¤":3566,"Ġë¬´ë¦¬":3567,"Ġê³¡":3568,"Ġë¹¤":3569,"ĠìŀĲëĬĶ":3570,"ĠìŀĲìĪĻ":3571,"íĺĲ":3572,"ĠëĮĢë¦¬":3573,"ĠëĮĢêµ¬":3574,"ĠëĮĢì¤ĳ":3575,"Ġê¹Ŀ":3576,"ëĭ¤ë¦¬":3577,"Ġëĥ¥":3578,"ìĤ¬ëŀĮ":3579,"ĠìĭľíĤ¨":3580,"ê²ĮìĿ´":3581,"ë³´ë":3582,"ë¶Īë":3583,"ĠìĤ´ë¦¬":3584,"ĠìŀĺìĥĿê¸´":3585,"ì²Ļ":3586,"Ġìĸ´ëķĮ":3587,"ĠìĿ¼ìĥģ":3588,"Ġê°ľìĶ¹":3589,"ê³¡":3590,"Ġëª»íķ¨":3591,"Ġëª»ìĥĿê¸´":3592,"ëĮĢíķľë¯¼êµŃ":3593,"íĥĢë":3594,"ìļ°ìĦ±":3595,"Ġëª¨ë¥¼":3596,"Ġì¹Ńì°¬":3597,"ĠìĶĮ":3598,"ĠëĶ´":3599,"Ġë§ĪìĬ¤íģ¬":3600,"Ġìĵ¸ë":3601,"ìĹ¬ìĦľ":3602,"Ĥĺë§Ī":3603,"ĠëĪĪë":3604,"Ġíĥĳ":3605,"ĠìĨĮìŀ¬":3606,"ĠìĨĮìĦ¤":3607,"ĠìłĢê¸°":3608,"ë¯¸êµŃ":3609,"Ġëħ¸ì¶ľ":3610,"ìĿ´ë¯¸":3611,"ìĹ°íŀĪ":3612,"ĠêµŃíļĮ":3613,"íĬ¸ë¦¬":3614,"ê·¸ëłĩê²Į":3615,"ëħĲ":3616,"ĠíĬľë²Ħ":3617,"Ġê¼´ë¦¬":3618,"ĠìłĢëĶ´":3619,"Ġì£½ìĿ¸":3620,"Ġì£½ìĿĮ":3621,"Ġì³Ĳëĭ¤":3622,"Ġì§ĳìķĪ":3623,"ë³´ìķĦ":3624,"ë³´ê²Ģ":3625,"ĠìĦłë¹Ħ":3626,"Ġëĸ¼":3627,"ĠëıĻìĿĺ":3628,"ĠëģĦ":3629,"ĠìłľíĴĪ":3630,"...":3631,"Ġìľ¼ìĭł":3632,"ìĸ´ëĶĶ":3633,"ĠíĿĺ":3634,"ĠëĬĲëĿ¼":3635,"ĠìĹŃíķł":3636,"Ġê³Ħìĭł":3637,"Ġë§¤ëĭĪìłĢ":3638,"Ġê·¸ëŁ°ëį°":3639,"ë¶Ģëĵ¤":3640,"ĠëĶ°ë¨¹":3641,"ê¹Ģíĺ¸ì¤ĳ":3642,"Ġìľ¼ëĭĪê¹Ĳ":3643,"Ġìĸĳìĭ¬":3644,"ĠâĻ¥":3645,"íĺľì§Ħ":3646,"Ġì¶©ìĿ´":3647,"Ġë§ĪëħĢ":3648,"íĥľíĿ¬":3649,"Ġê°ĪìĪĺë¡Ŀ":3650,"íĴĢ":3651,"Ġíģ´ëĿ¼":3652,"ĠêµĲíļĮ":3653,"ê»ı":3654,"ĠìĻ¸ìłľ":3655,"Ġì£Ħëĭ¤":3656,"Ġíı¬ê¸°":3657,"ì´Ŀ":3658,"Ġëľ¯":3659,"Ġëıħìŀ¬":3660,"Ġê±¸ëłĪ":3661,"Ġê¼¬ëĿ¼ì§Ģ":3662,"ê²°íĺ¼":3663,"ĠìķĦìķ¼ì§Ģ":3664,"Ġëª©ìĪ¨":3665,"Ġê½Ĥ":3666,"ì¾Į":3667,"ëĺĳ":3668,"Ġ99":3669,"Ġê²Ģì°°":3670,"ĠìĤ¼ê°Ģ":3671,"ĠìĨ¡íĺľêµĲ":3672,"ëĪĦêµ°":3673,"Ġíľ´ì§ģ":3674,"Ġì°©ê°ģ":3675,"ĠìĬ¬íĶĦ":3676,"ì»¬":3677,"Ġìĭľì¼ľìķ¼":3678,"ëĨĢ":3679,"Ġì¢ĭìķĦíķĺ":3680,"ĠëĪĦêµ°ì§Ģ":3681,"Ġì¦Ĳê¸°":3682,"Ġê°Ģë¥´ì¹ĺ":3683,"¶ĢëŁ¬":3684,"ë¸Ķ":3685,"Ġìłķìĭłë³ĳìŀĲ":3686,"íŀĺëĤ´":3687,"Ġtv":3688,"ë»Ķ":3689,"ĠìĿ´ë³ĳíĹĮ":3690,"ĠìłĢëĬ¥ìķĦ":3691,"18":3692,"¢°":3693,"°ëĮĢ":3694,"ëĲ":3695,"ëĴ":3696,"ëļ":3697,"ëķĮ":3698,"ëŁ´":3699,"Ġ>":3700,"ĩĮ":3701,"ļį":3702,"Ġìİ":3703,"Ġë£":3704,"Ġë·":3705,"Ġë¦°":3706,"ĠìĿ´íķĺ":3707,"ĠìĹĳìĨĮ":3708,"ĠëĵĿ":3709,"Ġíķĺì§Ģë§Į":3710,"Ġê³łë§Ļ":3711,"ĠëĤ¼":3712,"Ġë§¡":3713,"Ġë§ĺë":3714,"Ġê°ĢëĵĿ":3715,"Ġê²¸":3716,"Ġê²ī":3717,"Ġìłł":3718,"Ġì§ĢëıĦ":3719,"Ġì§Ģê²¹":3720,"ëĭĿ":3721,"ĠìĹĲíľ´":3722,"Ġê±Ķ":3723,"ĠëıĦìĭľ":3724,"ìĿ´íĦ°":3725,"ìĿ´ìģĺ":3726,"Ġìĭ±":3727,"¼ë¨¹":3728,"Ġëĭ«":3729,"ĠëĤĺíĥĢ":3730,"ëĤ´ë":3731,"ë¦¬ìĸ´":3732,"ë§ģ":3733,"Ġê±°ë¥´":3734,"ĠìĤ¬ìļ©":3735,"ê²Ĳ":3736,"ê²ł":3737,"Ġê¸°ë¡Ŀ":3738,"Ġê·¸ë¦¼":3739,"Ġê·¸ëıĻìķĪ":3740,"ëĿ¼ìĦľ":3741,"Ġíķ´ìĦĿ":3742,"Ġìľ¼ëĿ¼ê³ł":3743,"ĠìĿ¸ìĥģ":3744,"ĠìĿ¸ìĭĿ":3745,"ĠìĿĺë¬´":3746,"Ġë¹»":3747,"Ġëħ¼":3748,"ĠëĮĢì¶©":3749,"ĠëĮĢíķ´ìĦľ":3750,"ëĭ¤ê°Ģ":3751,"Ġë¥ľ":3752,"Ġë²¼":3753,"ĠìĹ¬ì¹ľ":3754,"êµŃë¯¼":3755,"ĠëĲĺê²Į":3756,"ĠìĤĲ":3757,"ĠìĤŃ":3758,"ĠìĥĿëªħ":3759,"Ġìĸ´ë¦´":3760,"Ġê°ľìĽĶ":3761,"ì°į":3762,"ëĮĢë¡ľ":3763,"Ġíķłì§Ģ":3764,"êµ¬íĺľìĦł":3765,"Ġì¹ľë":3766,"íķ´ìŀĲ":3767,"ĠìĹ°êµ¬":3768,"ĠìĹ°ì¶ľ":3769,"íķľëĤ¨":3770,"ĠìĶ¬":3771,"ìĽĲëŀĺ":3772,"ĠìłĦì²´":3773,"Ġìŀ¬ëĬ¥":3774,"Ġëĺĺ":3775,"ìĻĢëĮĢ":3776,"ìłĦëĿ¼ëıĦ":3777,"ĠíĥĪë":3778,"ĠìĦ±ë§¤ë§¤":3779,"ĠìĨĮë¹Ħ":3780,"Ġì¤ĳê°ľ":3781,"Ġëħ¸ìĺĪ":3782,"íĮ¬":3783,"ĠìĭłìĿ¸":3784,"ĠìĭłëıĻ":3785,"Ġê³µìłķ":3786,"Ġë¯¸íĪ¬":3787,"ĠêµŃë°©ë¶Ģ":3788,"íĶĶ":3789,"ĠìĥģìĭĿ":3790,"Ġìĥģíĥľ":3791,"Ġëĭ¹ëĭ¹":3792,"ë¯¼ì£¼":3793,"ìĿĺìĽĲ":3794,"ĠìĻĢìĿ´íĶĦ":3795,"ëĦĺ":3796,"íĺĦì£¼":3797,"Ġìĺģíĸ¥":3798,"ìĺĪìłĦ":3799,"Ġë§ŀìĿĮ":3800,"Ġì§ĳì¤ĳ":3801,"Ġì§ĳê°Ĵ":3802,"Ġìŀ¥ëıĻ":3803,"ĠìĽĲìĪŃìĿ´":3804,"Ġë²Ħë¦¼":3805,"Ġìĭ¤íĮ¨":3806,"ì¡°ë¦¬":3807,"ìķłì´Ī":3808,"Ġìłľìłķìĭł":3809,"ĠíĽĪë":3810,"Ġìµľìķħ":3811,"ìĸ´ë¦¬":3812,"ìĸ´ë¨¹":3813,"Ġìĺ¬ë¦°":3814,"Ġê±¸ê¹Į":3815,"ĠëĮĦ":3816,"ĠëıĮëł¤":3817,"ĠëıĮë¦¼":3818,"íĿ¬ë¡±":3819,"ĠíĿī":3820,"ĠëĬĲê·¸":3821,"ĠìĹŃìĤ¬":3822,"Ġê²½ìŁģ":3823,"ĠíĺĦë¹Ī":3824,"Ġëĵłëĭ¤":3825,"ĠëŃĶì§Ģ":3826,"Ġì»´":3827,"Ġì»·":3828,"ĠíĤ¤ìĽĮ":3829,"ë°©ìĨ¡":3830,"ĠìķĦìĿ´ìľł":3831,"ĵľìĭľ":3832,"ĠìĽĥê¸´":3833,"Ġì´¬ìĺģ":3834,"ĠëĤ´ë³":3835,"ĠëĤ´ëĨĵ":3836,"ĠãħĩãħĤ":3837,"Ġëª°ëĿ¼ëıĦ":3838,"ĠíĽĦíļĮ":3839,"Ġì²ĺë¦¬":3840,"Ġêº¼ìł¸":3841,"Ġìĭ¸ìĿ´":3842,"Ġìĭ¸ìļ°":3843,"ĠêµĲìĪĺ":3844,"Ġë©ĭìł¸":3845,"Ġì¢ħìĿ´":3846,"Ġì¢ħêµĲ":3847,"Ġëĭµëĭµ":3848,"Ġë³µì§Ģ":3849,"ĠíĻķì§Ħ":3850,"Ġë³Ģíĺ¸ìĤ¬":3851,"ĠëıħìĿ¼":3852,"ëįĶëĭĪ":3853,"ëĭ¬ìĪĺ":3854,"Ġì¶ķêµ¬":3855,"ĠíķĻìĥĿ":3856,"Ġìķ½ìĨį":3857,"Ġë´Ĳìķ¼ì§Ģ":3858,"ĠìĹ¬ê¸°ìłĢê¸°":3859,"ĠìĽĶê¸ī":3860,"Ġ......":3861,"Ġê²Ģìĥī":3862,"ë³¸ì£¼ìĿĺ":3863,"Ġëĸ¨ìĸ´ì§Ħ":3864,"Ġë¸ĮëĿ¼":3865,"ëĪĦê°Ģ":3866,"Ġìį¨ëĿ¼":3867,"ĠìĦ¸ëĮĢ":3868,"íļ¨ë¦¬":3869,"ĠìķĶíĬ¼":3870,"Ġë°ĺëĵľìĭľ":3871,"ì»¤":3872,"Ġìĥīê¸°":3873,"Ġì©Ķ":3874,"Ġì¹´íĨ¡":3875,"Ġìĸ´ìļ¸ë¦¼":3876,"ĠìĤ¬ìĿ´íĬ¸":3877,"Ġìĸ´ëł¤ìļ´":3878,"íĤ¹":3879,"êºĦ":3880,"ìµľìŀĲ":3881,"Ġê½ĥê¸¸":3882,"ëĬĲë¦¬":3883,"Ġë¿Įë¦¬":3884,"ê¶ģë¯¼":3885,"Ġì´Īë°ĺ":3886,"ì§±ê¹¨":3887,"Ġëİħ":3888,"Ġíī¤íī¤":3889,"Ġë¶ĢëģĦëŁ½":3890,"ĠíĢ´ë":3891,"Ġíĩĺì§Ģ":3892,"ĠðŁĲķ":3893,"Ġíķ§ìķĦ":3894,"Ġì¯§ì¯§":3895,"Ġìķ¼ëıĻ":3896,"ĠëĤĺë¨¸ì§Ģ":3897,"íĦ´":3898,"Ġìĸ¼ë¥¸":3899,"ns":3900,"¥ľ":3901,"¦ĩ":3902,"°¥":3903,"¶Ī":3904,"¹Ľ":3905,"¿Ķ":3906,"ëľ":3907,"íĢ":3908,"íħĲ":3909,"íľĺ":3910,"ĠP":3911,"ĠT":3912,"Ġn":3913,"Ġy":3914,"Ĭĺ":3915,"Ġë¦":3916,"Ġëĳ¥":3917,"Ġë¡Ń":3918,"ĠìĿ´ì¤ĳ":3919,"ĠìĿ´íĺ¸":3920,"Ġìķ¡":3921,"ĠìĹ¼":3922,"Ġê°±":3923,"ìĿ¼ë³´":3924,"Ġê³łë°ľ":3925,"Ġê³łë°±":3926,"Ġëĭ¤ë¥¼":3927,"ĠëĤ¸":3928,"ĠëĤŃ":3929,"Ġë§Ļ":3930,"Ġê²Ħ":3931,"ĠìķĦë§Ī":3932,"ĠìķĦëħĢ":3933,"ĠìķĦë¬´ë":3934,"Ġì§Ģë¦¬":3935,"Ġì§ĢëĤ´":3936,"Ġì§Ģìłģ":3937,"ĠìĹĲìĿ´":3938,"ìļ¸ëĮĢ":3939,"Ġë³¼ë":3940,"ĠëıĦë°ķ":3941,"ĠëĦĵ":3942,"ĠëĤĺìĦľ":3943,"ĠëĤĺë¦Ħ":3944,"ĠëĤĺê°Ķ":3945,"ëĤľëĭ¤":3946,"ĠìľĹ":3947,"Ġê±°ëŀĺ":3948,"ĠìĤ¬ìĿ´ë":3949,"ĠìĤ¬ëĿ¼ì§Ģ":3950,"Ġìĺ¥":3951,"ìĹĶ":3952,"ëŀĻ":3953,"Ġë³´íĹĺ":3954,"Ġê¸°ë¦Ħ":3955,"ĠëĿ¼ìĿ´":3956,"ĠëĿ¼ìĿ´ë":3957,"Ġê·¸ë¦½":3958,"Ġ..?":3959,"ĢëıĦ":3960,"ĠìĿ¸ì¦Ŀ":3961,"ĠìĿĺëıĦ":3962,"ĠìŀĲëıĻ":3963,"ĠìŀĲê²©":3964,"ĠìŀĲì¡´":3965,"ìķĦì£¼":3966,"Ġêµ¿":3967,"ĠëĮĢìĭł":3968,"ëĭ¤ìĿĮ":3969,"Ġë¥ĺ":3970,"Ġì¤Ģë¹Ħ":3971,"Ġëıĭ":3972,"ĠìĹ¬ë°°ìļ°":3973,"ìĤ¬ëŀĳ":3974,"ìĤ¬ëĬ¥":3975,"Ġíĸ¥":3976,"Ġì£¼ìĿĺ":3977,"ĠìĪĺë¦¬":3978,"ĠìĪĺíķĻ":3979,"Ġì§Ħìłķ":3980,"ĠíĺĢ":3981,"ë¥ł":3982,"ĠìĥĿê¹Ģ":3983,"Ġë´£":3984,"Ġìĸ´ë¦¬":3985,"Ġê°ľê¿Ģ":3986,"ĠíĮħ":3987,"êµ¬ìļĶ":3988,"êµ¬ìĦĿ":3989,"ãĦ±":3990,"ìĬ¤íĦ°":3991,"ĠìłĦë¬¸":3992,"ĠìłĦíĺķ":3993,"Ġë§ĪìħĶ":3994,"Ġìŀ¬ìĪĺ":3995,"Ġêµ¬íĺľìĦł":3996,"ìłĦíŀĪ":3997,"ìłĦëĵľ":3998,"Ġíĥ±":3999,"ĠìĦ±ìŀ¥":4000,"ĠìĦ±ë¹Ħ":4001,"ĠìĦ±íĿ¬ë¡±":4002,"Ġë°Ķëŀĺ":4003,"ĠìĨĮìĨ¡":4004,"Ġì¤ĳê°Ħ":4005,"ĠìłĢì§Ģ":4006,"ĠìłĢëŀĺ":4007,"ìĨĮëħĦ":4008,"Ġê³µê²©":4009,"Ġê³¼ìłķ":4010,"Ġìĵ°ëŀĺ":4011,"ĠêµŃëĤ´":4012,"ĠìĿ¸ëĵ¯":4013,"Ġë°©ìĤ¬ëĬ¥":4014,"ìľłìŀ¬ìĦĿ":4015,"ĠìĻĢì¤ĳ":4016,"Ġìļ°ìļ¸":4017,"Ġê¼°ëĮĢ":4018,"íĺĦìķĦ":4019,"ê°ľìĨĮë¦¬":4020,"Ġì£½ìĿ¼":4021,"ĠëĵľëĿ¼":4022,"Ġê²°ë§Ĳ":4023,"ëª°":4024,"ĠìĺĪìĪĺ":4025,"ĠìĦłë°°":4026,"ìĺģìĥģ":4027,"Ġìŀ¥ê´Ģ":4028,"ĠìĪŃ":4029,"Ġë¯¸ë¦¬":4030,"Ġë²Ħëł¸":4031,"Ġìĭ¤ìłľ":4032,"ìķłë¯¸":4033,"ĠíĹĽ":4034,"Ġë°ķìĤ¬":4035,"Ġë°ķìłķ":4036,"Ġìľ¼ìĭľ":4037,"ìĸ´ëĸ":4038,"ë¬´ìĬ¨":4039,"ĠìĬµëĭĪê¹Į":4040,"Ġìĺ¬íķ´":4041,"Ġëĭ¬ëł¤":4042,"ĠìĹ°ê¸°ëł¥":4043,"ĠìĦ¤ëªħ":4044,"Ġê°ķìĿĺ":4045,"Ġê°ķëĤ¨":4046,"ì¢ħë¯¼":4047,"Ġê·¸ëŁ°ê°Ģ":4048,"ĠìŀĳìĹħ":4049,"Ġìĭ¬ìłķ":4050,"Ġë°ľìĸ¸":4051,"ĠìĽĥìĿĮ":4052,"ìħ¨":4053,"Ġìļ©ìĦľ":4054,"Ġê°ľë¿Ķ":4055,"Ġì§ģìŀ¥":4056,"Ġíŀĺëĵľ":4057,"ĠíĽĦë³´":4058,"Ġíĺ¸íħĶ":4059,"ìĬ¹ìļ°":4060,"Ġìī´":4061,"ĠëĪĪì¹ĺ":4062,"ë©ĭ":4063,"Ġíıīê°Ģ":4064,"ĠíıīìĨĮ":4065,"Ġìĸ¸ìłł":4066,"Ġì¦Ī":4067,"ĠìĻ¸ì¹ĺ":4068,"ĠìĨįìĥģ":4069,"Ġíı¬ìŀ¥":4070,"ĠìĭĿëĭ¹":4071,"Ġì²ľë§Į":4072,"ĠíĨµìĭł":4073,"ĠìĹĶëĶ©":4074,"ĠíĮ¨ëĶ©":4075,"ĠëĬĶëĭ¤ëĬĶ":4076,"Ġë³Ģíĥľ":4077,"ĠìĻĦë²½":4078,"ì²ľì§Ģ":4079,"ĠíĭĢëĭĪ":4080,"Ġì²ŃìĻĢëĮĢ":4081,"ĠëłĪìłĦëĵľ":4082,"ê²°êµŃ":4083,"Ġëĵľë§Į":4084,"Ġë³´ìĹ¬ìļĶ":4085,"ĠìĪłì§ĳ":4086,"ê¼´":4087,"Ġíĥľìĸ´ëĤĺ":4088,"ĠìĤ¼ìĦ±":4089,"ìľ¤ìłķ":4090,"ĠìķĦë¬´ê²ĥ":4091,"íģ°":4092,"Ġê±´ê°ĢìļĶ":4093,"Ġì²Ļíķĺ":4094,"Ġê¸Īìķ¡":4095,"Ġì±ħìŀĦì§Ģ":4096,"íı¬ì¸ł":4097,"ë²ĮëłĪ":4098,"ĠìķĪíĥĢê¹Į":4099,"Ġì½©":4100,"Ġìł¸ìķ¼":4101,"ìĤ¼ê°Ģ":4102,"Ġìĥģê´ĢìĹĨ":4103,"ĠëĪĦêµ°ê°Ģ":4104,"ë´Ĳ":4105,"Ġì±Ļê¸°":4106,"Ġì±Ļê²¨":4107,"ĠìĻ¸êµŃìĿ¸":4108,"Ġíķĳíģ¬":4109,"©ĶìĿ´ìħĺ":4110,"ĠìĿ´ìģľëį°":4111,"ĠìķĦíĮĮìĦľ":4112,"Ġìĸ´ëĶ¨":4113,"Ġê·ĢìĹ¬ìĽĮ":4114,"ĠíĻľìļ©":4115,"ĠìĹ´ëĵ±":4116,"ëĭĪë©ĶìĿ´ìħĺ":4117,"Ġìµľë":4118,"Ġëį©ìĸ´ë¦¬":4119,"Ġêº¼ëĤ´":4120,"ë½ķ":4121,"BC":4122,"bs":4123,"³¸":4124,"»¤":4125,"ëĿ":4126,"ë®¤":4127,"ëľ¨":4128,"ë¢°":4129,"íĵ":4130,"íļį":4131,"Ġ*":4132,"ĠA":4133,"ĠD":4134,"ĠX":4135,"Ġb":4136,"Ġv":4137,"ģī":4138,"Ķ°":4139,"ľ¯":4140,"ł¹":4141,"ĠìŃī":4142,"Ġëµ":4143,"Ġë¼":4144,"ĠëŁ°":4145,"ĠìĿ¼ë³´":4146,"Ġíľ":4147,"ãħ£":4148,"ãħĨ":4149,"Ġê³łìĦľ":4150,"Ġê³łíĨµ":4151,"Ġë§¥":4152,"Ġëĵ¤ìľ¼ë©´":4153,"ìĦ¹":4154,"Ġê°ĢìļĶ":4155,"Ġê°Ģê²Į":4156,"ĠìłĪë":4157,"ĠìĹĲê²Ĳ":4158,"´ëĮĢ":4159,"´ë¥´":4160,"ĠëıĦë¡ľ":4161,"ĠëĦ·":4162,"ĠëĦĪë¬":4163,"ĪëĶĶ":4164,"ìĿ´ìłł":4165,"ĠëĭĿ":4166,"Ġãħı":4167,"Ġìĺ´":4168,"Ġë³´ìĥģ":4169,"Ġë©´íĹĪ":4170,"Ġê·¸ëħĢ":4171,"Ġê·¸ëĤĺë§Ī":4172,"Ġë§ĮëĤł":4173,"Ġìľ¼ë¡ł":4174,"ëĤĺë¹Ħ":4175,"Ġë¬µ":4176,"Ġë¬¶":4177,"Ġë¹¼ë¨¹":4178,"ĠìŀĲë¥´":4179,"ĠëĮĢíķ´":4180,"Ġëĥħ":4181,"Ġëĥī":4182,"ĺëŁ¬":4183,"ìĿ¸ê°Ħ":4184,"ĠìĹĨìķł":4185,"ìĤ¬ì§Ħ":4186,"ìĤ¬ìĭ¤":4187,"ĠìĬ´":4188,"ë¬µ":4189,"Ġì£¼ìĤ¬":4190,"Ġì£¼ì°¨":4191,"ĠìĪĺìŀ¬":4192,"ĠìĪĺìĪł":4193,"ĠëįĶëŁ¬":4194,"Ġë§ĲìķĦë¨¹":4195,"ĠìĤ½":4196,"ëıĦìĨĮ":4197,"ëĵ¬":4198,"ĠëĤ¨ìĦ±":4199,"ìĭľìĬ¤":4200,"Ġì§Ħëĭ¤":4201,"Ġì§Ħìĭ¤":4202,"ĠíĸĪìľ¼ëĭĪ":4203,"Ġë´ħëĭĪëĭ¤":4204,"ĠìĦ¸ìĹ°":4205,"Ġìĸ´ë¥¸":4206,"ë§ĮíĻĶ":4207,"Ġê°ľê·¸":4208,"ê³¤ì¶©":4209,"ì°Ĳ":4210,"ìĸ´ìłľ":4211,"Ġëª»ìĥĿ":4212,"Ġëª»íķľëĭ¤":4213,"êµ¬ë¦¬":4214,"êµ¬ëĿ¼":4215,"ëĬĶëį°":4216,"ìĽĲìŀĳ":4217,"Ġìłģìļ©":4218,"Ġì¡°ìķĦ":4219,"Ġì¡°ìłķ":4220,"Ġì¡°ì°¨":4221,"Ġì¡°íıŃ":4222,"Ġì¡°ì¹´":4223,"Ġì¡°ìĦ¼":4224,"Ġë§ĪëĭĪ":4225,"Ġë§Īì°¬":4226,"Ġêµ¬ë¶Ħ":4227,"Ġêµ¬ë§¤":4228,"ĠëŀĮ":4229,"Ġìĺ¤ë¥´":4230,"Ġë©ĺ":4231,"ê±°ì§Ģ":4232,"ĠëĤ´ìĿ¼":4233,"ĠíĥĶ":4234,"ĠíĥĢë":4235,"ìĦ±ìķł":4236,"ìĥĿê°ģ":4237,"ĠìĦ±ë²Ķì£Ħ":4238,"Ġë¹Ħíķ´":4239,"Ġë¹Ħìļ©":4240,"Ġë°Ķëĭ¤":4241,"Ġë°Ķëĭ¥":4242,"Ġë¶Ģì¡±":4243,"Ġì¤ĳê³µ":4244,"Ġì¤ĳëıħ":4245,"Ġê³µìĿ¸":4246,"Ġê³µì§ľ":4247,"Ġê³µì£¼":4248,"Ġê³µë¬´ìĽĲ":4249,"ìĿ´ëĵľ":4250,"ìĿ´ëłĩê²Į":4251,"ìģ¨":4252,"Ġë¯¸ìĿ¸":4253,"Ġë¯¸ì³Ĳ":4254,"íĬ¹":4255,"ĠìĿ¸ë¬¼":4256,"Ġë°©íĸ¥":4257,"Ġë°°ëł¤":4258,"Ġë°°ìļ´":4259,"ê°ľìĿ¸":4260,"Ġì£½ìĺĢ":4261,"ĠìļĶìĥĪ":4262,"ìłĢê²Į":4263,"ĠëĵľëŁ½":4264,"ĠëĪĦêµ´":4265,"ëª¸":4266,"ëĬĻ":4267,"ìĤ°ë¬¼":4268,"Ġë¶Īê°Ģ":4269,"ĠìĽĲìŀĳ":4270,"Ġìļķíķĺ":4271,"Ġë¨¸ë":4272,"ìĽĮìļĶ":4273,"ëıĻìĥĿ":4274,"ĠíĽĪ":4275,"ìĸ´ëĦ":4276,"ìĸ´ë¨¸ëĭĪ":4277,"ìĸ´ëľ¯":4278,"ë°ķëĤĺëŀĺ":4279,"ĠíĺĦìķĦ":4280,"Ġë§¤êµŃ":4281,"ĠëĶ°ì§Ģ":4282,"ĠëĶ°ìľĦ":4283,"Ġëĵłì§Ģ":4284,"ĠëŃĶëį°":4285,"Ġì»¸":4286,"Ġëĭ¨ëĭ¤":4287,"Ġëĭ¨ì²´":4288,"Ġì´Į":4289,"ĠìĥĪêºĦ":4290,"Ġâģī":4291,"Ġë§ĪëĿ¼":4292,"Ġë§ĪëĶĶ":4293,"Ġë¯¼íıĲ":4294,"Ġë©°ëĬĲë¦¬":4295,"ĠìĭľëģĦ":4296,"Ġì²ĺë§ŀ":4297,"Ġìī°":4298,"ë©¸":4299,"ĠêµĲëıĦìĨĮ":4300,"ìĹĲíľ´":4301,"ĠìĨĲê°ĢëĿ½":4302,"ì©¡":4303,"ì©Į":4304,"ĠíĬ¹ë³Ħ":4305,"ĠëĲľëĭ¤ëĬĶ":4306,"ĠìĭĿë¬¼":4307,"Ġê»´":4308,"ì°½ìĦĿ":4309,"Ġë©ĶìĿ¸":4310,"Ġê±¸ëŁ¬":4311,"Ġê±¸ë¦°":4312,"ĠëıĮìķĦìĺ¤":4313,"Ġì°½ìŀĳ":4314,"Ġì°½ëħĢ":4315,"ĠëĨĢëŀĢ":4316,"ëĶĶìĺ¤":4317,"ĠíĮĲìĤ¬":4318,"!!!!!!!!":4319,"Ġìļ´ìļ´":4320,"Ġ.........":4321,"Ġ900":4322,"Ġë§ĽìŀĪ":4323,"ë³¸ìĿ¸":4324,"Ġ;;;":4325,"íķ©ëĭĪëĭ¤":4326,"ĠíĻĺìŀ¥":4327,"ĠìĨ¡ì¤ĳê¸°":4328,"³´ìŀĲ":4329,"Ġì¼ĢìĿ´":4330,"Ġ---":4331,"ĠìĹħì²´":4332,"Ġê¸Īì§Ģ":4333,"ĠíĻ©íĿ¬":4334,"íļ¨ì§Ħ":4335,"Ġë°ĺë³µ":4336,"ĠíŀĻ":4337,"ĠìĥīíŀĪ":4338,"ë¯¿":4339,"Ġìłĳì¢ħ":4340,"Ġì«Ħ":4341,"ĠíĹ¤ìĸ´":4342,"Ġê¹Ģë¯¼":4343,"ĠìĤ´ëł¤":4344,"Ġìĸ´ëł¤ìĽĢ":4345,"íĬ¸ëłĪìĬ¤":4346,"ĠìĽĮëĤĻ":4347,"ì¶ķíķĺ":4348,"Ġì¤Ģëĭ¤ê³ł":4349,"Ġ~!!!":4350,"ĠíĹĪë¦¬":4351,"ĠíĹĪëĿ½":4352,"ì¹ľëħĦ":4353,"ê½ĥ":4354,"Ġì§Ģì¼ľ":4355,"Ġì¸µ":4356,"Ġê³łë§ĪìĽĮ":4357,"Ġë²¤ì¸ł":4358,"ìŀĸìķĦ":4359,"ĠìķĦë¦Ħëĭ¤ìļ´":4360,"Ġíį¼ë":4361,"ĠíĤ¹":4362,"Ġë°īìĥģ":4363,"ĠìĦ±íıŃíĸī":4364,"Ġìŀ¥ëıĻê±´":4365,"Ġíī¤íī¤íī¤":4366,"íħĲì¸ł":4367,"§¨":4368,"¨ë²Ķ":4369,"°ķ":4370,"ëĩĮ":4371,"ì¨":4372,"ìŁ¤":4373,"ìĩĦ":4374,"Ġl":4375,"ģĪ":4376,"ħìĭľëĭ¤":4377,"Įãħĭãħĭ":4378,"ĵľë":4379,"Ġìģ":4380,"ĠíķĢ":4381,"ĠìĿ´ëĿ¼ëıĦ":4382,"ãħģ":4383,"ãħı":4384,"ĠëĬĶê²¨":4385,"Ġëĵ¬":4386,"Ġê³łìļĶ":4387,"Ġëĭ¤ë§Į":4388,"ĠëĤľë":4389,"Ġê°ĢìĭĿ":4390,"ìŀī":4391,"¸ëĵľ":4392,"ĠìķĦëŀĺ":4393,"ĠìķĦëģ¼":4394,"Ġì§Ģêµ¬":4395,"Ġì§ĢìĹŃ":4396,"Ġì§ĢíĤ¤":4397,"Ġì§Ģë£¨":4398,"ĠìĿĢíĩ´":4399,"´ë¬¼":4400,"ĠëıĦìłĢ":4401,"Ġíķľì§Ģ":4402,"ìĿ´ìĦ±":4403,"ì§Ģìĺģ":4404,"Ġë°ı":4405,"ĠëĤĺê°Ī":4406,"ëĤ®":4407,"ĠìĦŀ":4408,"ìŀĲìĹ°":4409,"ĠìĤ¬ìłķ":4410,"ĠìĤ¬ëĤ´":4411,"ĠìĤ¬íĪ¬":4412,"Ġì§¬":4413,"Ġì§ĸ":4414,"Ġìĸ´ì§Ģ":4415,"ê³łìĥĿ":4416,"Ġì¢ģ":4417,"Ġê²Įëĭ¤ê°Ģ":4418,"Ġê¸°ê°Ħ":4419,"Ġë§Įìķ½":4420,"Ġì£¼ë§Ĳ":4421,"ìĺ´":4422,"Ġìľ¼ëŁ¬":4423,"ĠìĿ¸ê²©":4424,"ĠìĿĺì§Ģ":4425,"ĠìĿĺìŀĲ":4426,"ĠìĿĺê²¬":4427,"ĠìķĪëĭ¬":4428,"Ġê³¤":4429,"Ġë¹ħ":4430,"ĠìŀĲë³¸ì£¼ìĿĺ":4431,"íĺĳ":4432,"ìĸ¼ë§":4433,"ìĸ¸ëĭĪ":4434,"ĠëĮĢìĦ¸":4435,"ĠëĮĢì¶ľ":4436,"Ġê¹ľë":4437,"Ġì°¸ë":4438,"ĠìĹ¬íĺĲ":4439,"Ġì¡¸ë":4440,"Ġìĭľë¦¬":4441,"ìķ¼ì§Ģ":4442,"ĠìĬ¥":4443,"ĠìĨĶì§ģ":4444,"ĠëįĶìļ±":4445,"Ġì§Ħìŀĳ":4446,"Ġíĺģ":4447,"ë§ĪìĿĮ":4448,"íķĺíķĺ":4449,"ĠìĦ¸ìĽĶ":4450,"ĠìĿ¼ê¹Į":4451,"Ġëķ¡":4452,"ĠìĿ´ëĨĪ":4453,"ĠìĿ´ëķĮ":4454,"ê³³":4455,"ìĸ´ìĦľ":4456,"ìĸ´ê°Ģ":4457,"ìĸ´íľ´":4458,"Ġëª»íķ´":4459,"ĠëĨ¨":4460,"Ġëª¨ë¦Ħ":4461,"Ġëª¨ë¥¸ëĭ¤":4462,"ĠìĹ°íķĺ":4463,"ĠëķĮëł¤":4464,"ì£¼ìĸ¼":4465,"ìĺ¤ë¹ł":4466,"ĠìķłëĭĪë©ĶìĿ´ìħĺ":4467,"ĠëŀĢëĭ¤":4468,"Ġë¬¸ì£Ħ":4469,"Ġìĵ´ëĭ¤":4470,"ìĹ¬ìĦ±":4471,"ìĹ¬ëŁ¬":4472,"Ġë©Ī":4473,"ł¤ìĦľ":4474,"Ġë¹Ħë¦¬":4475,"Ġë¹Ħì£¼ìĸ¼":4476,"ĠìĨĮìĪĺ":4477,"Ġì¤ĳìĭ¬":4478,"Ġ16":4479,"ĠìłĢë¦¬":4480,"Ġëħ¸ìĿ¸":4481,"Ġëħ¸ì¡°":4482,"ĠìĭłìĦł":4483,"ĠìĬ¤ì¹´":4484,"ĠìĬ¤íı¬ì¸ł":4485,"ìĨĮìĹ°":4486,"Ġê³µìĿµ":4487,"ĠìķĮìķĦ":4488,"Ġíķ´ëªħ":4489,"Ġíķ´ë´Ĳ":4490,"Ġ~~^^":4491,"Ġë´ĲìļĶ":4492,"Ġìľłì¹ĺ":4493,"ĠìľłìĿ¼":4494,"ĠìľłëŁ½":4495,"ìĹ°ìķł":4496,"ĠìĿ¸ëł¥":4497,"ê·¸ëŁ°":4498,"Ġë°©ìĹŃ":4499,"Ġë³´ëıĦ":4500,"Ġë°°ìĭł":4501,"ëĦĮ":4502,"ĠíĬ¸ë¦¬":4503,"Ġíİĺë":4504,"ĠìļĶêµ¬":4505,"Ġì³ĲìĦľ":4506,"Ġë¶Ħëħ¸":4507,"ìĺĪìĽĲ":4508,"Ġíķ©ëĭĪê¹Į":4509,"ĠìĺĪìĿĺ":4510,"ĠìĦłì§ĦêµŃ":4511,"ìļ©ìłĳ":4512,"ľë°©":4513,"ĠíĻĶìĤ¬":4514,"Ġë¯Ħ":4515,"Ġë²Ħë¦´":4516,"Ġìĭ¤ê²Ģ":4517,"ĠëıĻê¸ī":4518,"ì¡°ê°ľ":4519,"ëĤ¨ëħĢ":4520,"Ġë°ķìĤ":4521,"Ġë°ķëĤĺëŀĺ":4522,"ĠëªħìĺĪ":4523,"ĠëªħíĴĪ":4524,"ãħłãħł":4525,"íĥĢê¸°":4526,"ĠíĿł":4527,"Ġëĭ¬ëĿ¼":4528,"ĠìĹ°ê¸°ìŀĲ":4529,"Ġê°ķìłľ":4530,"Ġì°¸ê³ł":4531,"íĹ¤":4532,"íĹ¬":4533,"ëªħìĪĺ":4534,"Ġë§¤ìļ°":4535,"ë¶Ģë¡ľ":4536,"ĠíĸīìľĦ":4537,"Ġëĭ¨ìĸ´":4538,"Ġì¶Ķìĸµ":4539,"Ġë¹łì§Ħ":4540,"Ġë¹łìł¸":4541,"ĠíĤ¤ìĬ¤":4542,"Ġìĭ¬íķľ":4543,"Ġê¸´ìŀ¥":4544,"íĮĮìĿ´":4545,"Ġìļ©ê¸°":4546,"ĠëĴ¤ì§Ħ":4547,"Ġë°ĺìłĦ":4548,"Ġë°ĺë°ķ":4549,"Ġëª°ëŀĺ":4550,"ãħīãħī":4551,"ĠìĹ°ìĺĪê³Ħ":4552,"Ġë§Ŀì¹ĺ":4553,"Ġë§ĿíĸĪ":4554,"Ġíİ¸íŀĪ":4555,"Ġíİ¸ìĿĺ":4556,"Ġë¯¼êµŃ":4557,"Ġë¬¼ìĸ´ëľ¯":4558,"Ġìķŀì°¨":4559,"ĠíĻįì§Ħìĺģ":4560,"Ġëĭ¤ëĭĪìĹĺ":4561,"Ġê±´ë¬¼":4562,"ĠìĭľëıĦ":4563,"ìĬ¹ë¦¬":4564,"ìĿĢìĿ´":4565,"ĠíĮĮìķħ":4566,"Ġì½ĶìĬ¤":4567,"Ġíıīëĵ±":4568,"ĠíĬ¹ìľł":4569,"Ġë¦¬ëįĶ":4570,"Ġì£ĦìĿ¸":4571,"ĠëĲľëĭ¤ê³ł":4572,"Ġì²ľì§Ģ":4573,"Ġì²ľìŀ¬":4574,"¸ëĭĺ":4575,"êµ°ëĮĢ":4576,"Ġë³µìĭ±":4577,"ĠìĪľìĪĺ":4578,"Ġê°Ģì§Ģê°Ģì§Ģ":4579,"Ġê»Ģ":4580,"ĠíĻķëĮĢ":4581,"Ġë³Ģê¸°":4582,"Ġê¶Įë¦¬":4583,"ë°Ķëĭ¥":4584,"ĠìŀĸìķĦìļĶ":4585,"Ġëĵľë¦¬":4586,"Ġì¶ķë³µ":4587,"ĠëĨĢìķĦ":4588,"Ġ200":4589,"Ġê½¤":4590,"ê¹¨ë¹Ħ":4591,"ì¸¡":4592,"Ġë½Ģ":4593,"Ġìĭľì¼°":4594,"ĠìĽĶëĵľ":4595,"ĠíĥľêµŃ":4596,"ĠíıŃíĸī":4597,"Ġì±Ħì§ĳ":4598,"ĠëĬĶêµ¬ë§Į":4599,"Ġì¿ł":4600,"ĠìĮĶ":4601,"ĠìĿĦê¹ĮìļĶ":4602,"ìķĦìĿ´ìľł":4603,"~~~~":4604,"ëĪĦêµ¬":4605,"Ġê»ĺìĦľ":4606,"Ġìĸ¸ìłľëĤĺ":4607,"Ġê°ľëıħ":4608,"ĠìħĶìķ¼":4609,"ĠìķĦëĭĮê°ĢìļĶ":4610,"Ġë¯¼ì£¼ì£¼ìĿĺ":4611,"ìłľëıĻ":4612,"Ġë¶ĻìĿ´":4613,"Ġì§ķì§ķ":4614,"Ġì©Ŀ":4615,"Ġìĺ¬ëĿ¼ìĺ¤":4616,"ĠíĿ¬ë§Ŀ":4617,"ĠðŁĳ":4618,"ĠìĤ´ë¹¼":4619,"Ġì½ĺ":4620,"íħľ":4621,"Ġìĭľì²ŃìŀĲ":4622,"ĠãĦ²ëĵ¤":4623,"Ġë°ĶëŀĢëĭ¤":4624,"Ġê¾¸ë":4625,"ĠìĥĪë¡ľìļ´":4626,"Ġsns":4627,"Ġë¶ĢëŁ¬ìļ°":4628,">>>>":4629,"©ĶëĿ¼":4630,"ĠìĿ´ìģ¨":4631,"Ġë¡¤":4632,"ĠìķĦíĮĮíĬ¸":4633,"ĠìĹ¬ëŁ¬ë¶Ħ":4634,"ê½ģ":4635,"ìºĲ":4636,"ĠìĺĪë»ĲìļĶ":4637,"ĠìĹŃê²¨ìļ´":4638,"Ġê·ľìłľ":4639,"Ġëħ¸ë¬´íĺĦ":4640,"Ġìĸµì§Ģë¡ľ":4641,"Ġê´´ë¡ŃíŀĪ":4642,"ĠìĺģìĽĲíŀĪ":4643,"ĠìĿ´êµŃì¢ħ":4644,"ĠìĦŃìĻ¸":4645,"ê°ľëıħ":4646,"ëŀľë§Į":4647,"ì²ĺëħĢ":4648,"Ġëª¨ìķĦìĦľ":4649,"Ġì¹´ë©ĶëĿ¼":4650,"Ġìłľìŀĳì§Ħ":4651,"ëį©ìĿ´":4652,"Ġìĸ´ëķĮìĦľ":4653,"ĠêµŃíļĮìĿĺìĽĲ":4654,"ëĪĦêµ°ì§Ģ":4655,"Ġë²¼ìĬ¬":4656,"Ġì¹ľë¬¸":4657,"ë¯¼ì£¼ëĭ¹":4658,"ĠíĽĪëł¨":4659,"ĠìĿ´íĺ¸ìĦĿ":4660,"Ġë°ķìłķíĿ¬":4661,"Ġë§Īì°¬ê°Ģì§Ģ":4662,"10":4663,"MBC":4664,"¡ì³Ĳ":4665,"¦İ":4666,"¬µ":4667,"²Ķ":4668,"âĻ¥":4669,"ëĳ¥":4670,"íĳ":4671,"íĤ´":4672,"Ġ@":4673,"Ġa":4674,"Ġp":4675,"ĥĲ":4676,"Ķ¸":4677,"ŀĲ":4678,"ĠìŁ":4679,"ĠëŁ¼":4680,"Ġë¡ł":4681,"ĠìĿį":4682,"ĠíĪ":4683,"Ġíľĺ":4684,"ĠìĿ´ìĤ¬":4685,"ĠìĿ´ìĪĺ":4686,"ĠìĿ´ê²¨":4687,"ĠëĵĢ":4688,"ĠíķĺëĦ¤":4689,"Ġíķĺê¸´":4690,"Ġê³łìĤ¬":4691,"Ġê³łíĸ¥":4692,"Ġëĭ¤ìļ´":4693,"Ġëĭ¤ëįĺëį°":4694,"ĠëĤļ":4695,"Ġë§Īë¬":4696,"Ġëĵ¤ìĹ¬":4697,"Ġê°Ģë¡ľ":4698,"Ġê°Ģì§ľ":4699,"Ġê°ĢëĤľ":4700,"Ġê°Ģíķ´ìŀĲ":4701,"ìŀĺëª»":4702,"Ġê²©":4703,"ĠìłĿ":4704,"Ġì§ĢìĿ¸":4705,"Ġì§ĢìĭĿ":4706,"ĠìĿĢíĺľ":4707,"ĠìĿĢê·¼":4708,"´ëª¨":4709,"ìķĹ":4710,"Ġíķľíĺľì§Ħ":4711,"ìĿ´ì§Ģ":4712,"ìĿ´ìķ¼":4713,"ìĿ´ìŀ¬ëªħ":4714,"¼ëĵ¤":4715,"¼ëŀĢ":4716,"ìĭ¼":4717,"ëĤ©":4718,"ìŀĲìĿ¸":4719,"ìŀĲíĺĦ":4720,"ĠìĤ¬íĥľ":4721,"ìļĶìĿ¼":4722,"Ġìĥĺ":4723,"Ġìĸ´ìļ©":4724,"Ġìĸ´ì§¸":4725,"ê³łìĿĢ":4726,"ëŀ«":4727,"ëŀľëĵľ":4728,"Ġë³´ì§Ģ":4729,"Ġë³´ìĿ¼":4730,"Ġë³´íĺ¸":4731,"Ġë³´ìĤ´":4732,"Ġê¸°ëıĦ":4733,"Ġê¸°ë¥´":4734,"Ġê¸°ê³Ħ":4735,"Ġê¸°íļĮ":4736,"Ġê¸°ê´´":4737,"ĠëĿ¼êµ¬":4738,"ĠëĿ¼ì§Ģë§Į":4739,"ĠëĿ¼ëįĺëį°":4740,"Ġê·¸ëĶ´":4741,"Ġíķ´ìĨĮ":4742,"Ġìľ¼ë©°":4743,"ĠìĿ¸ì¢ħ":4744,"ĠìĿĺëĮĢ":4745,"ĠìĿĺìĭĿ":4746,"Ġë¬¸ë":4747,"ĠìķĪìłķ":4748,"ĠìķĪìłĦ":4749,"ĠìķĪíķ¨":4750,"ĠìŀĲëħĢ":4751,"Ġëħ¹":4752,"ìķĦëĤ´":4753,"ìķĦë¹ł":4754,"ëł¨":4755,"ëł´":4756,"ëłĪë":4757,"ĠëĮĢíĻĶ":4758,"ĠëĮĢëĨĵ":4759,"ëĭ¤ìĭľ":4760,"ë°Ľ":4761,"ìĽ¨":4762,"ĺëĮĢ":4763,"ê·¼ëĮĢ":4764,"ĠìĹ¬ìĭł":4765,"ĠìĹ¬ì£¼":4766,"ĠìĹ¬ë¦Ħ":4767,"Ġì¡ĭ":4768,"Ġìĭľì§ĳ":4769,"Ġìĭľê¸ī":4770,"ĠìĭľíĹĺ":4771,"ĠìĭľíĤ¬":4772,"Ġë¡ľìļ´":4773,"Ġë¡ľìį¨":4774,"ê±¸ë":4775,"ê±¸ë¡ľ":4776,"ë³į":4777,"ì¹ĺë":4778,"ĠìĪĺì¹ĺ":4779,"Ġë§ĲíĪ¬":4780,"ĠëĤ¨ë¶Ī":4781,"ì£ł":4782,"ì£¼ë":4783,"Ġì§Ħíĸī":4784,"ë§ĪìŀĲ":4785,"ĠìĥĿìĤ°":4786,"ì²©":4787,"ĠìĦ¸ê·ł":4788,"ĠìĿ¼ìľ¼":4789,"ë§Įê°Ħ":4790,"ĠëŃī":4791,"Ġê°ľíĺģ":4792,"Ġê·¸ì¹ĺ":4793,"Ġê·¸ìª½":4794,"ìĸ´ìļĶ":4795,"ìĸ´ì°¨íĶ¼":4796,"ëĮĢêµ¬":4797,"ĠìĽ¬":4798,"ìĪĺìĹ°":4799,"Ġíķłëł¤":4800,"Ġíķłë°°":4801,"Ġíķłê²ĮìļĶ":4802,"ĠíĮį":4803,"ĠìĹ°ëĿ½":4804,"ĠìĹ°ë´ī":4805,"ìĬ¤ëŁ½":4806,"Ġìłģëĭ¹":4807,"ĠìłĦêµŃ":4808,"ĠìłĦìŁģ":4809,"ĠëĶ¸ë":4810,"Ġì¡°êµŃ":4811,"Īë¬¸":4812,"Ġë§Īì£¼":4813,"ìĺ¤ë¥´":4814,"ìĺ¤ëŀĺ":4815,"ë¹µ":4816,"Ġêµ¬ë©į":4817,"ĠìĦľíĺĦ":4818,"ĠìĦľìļ¸ëĮĢ":4819,"Ġëŀ©":4820,"Ġìĺ¤ë²Ħ":4821,"Ġìĺ¤ì¤Į":4822,"Ġë¬¸ìŀĲ":4823,"Ġë¬¸ê°Ģ":4824,"Ġê¹ĮìĿ´":4825,"ĠìĤ´ìķĦê°Ģ":4826,"ĠìĤ´ì§Ŀ":4827,"ìĹ¬íĸī":4828,"ìĹ¬íĬ¼":4829,"Ġë¬´ì£Ħ":4830,"ĠëĪĮ":4831,"ĠíĥĲ":4832,"Ġíĥľë":4833,"ìĦ±ë¡Ŀ":4834,"Ġë¹ĦíĮĲ":4835,"Ġë¹Ħë²Ī":4836,"Ġê´´":4837,"Ġë¶ĢìĹ¬":4838,"Ġë¶Ģì¶Ķ":4839,"ĠìĨĮë°©":4840,"Ġ14":4841,"Ġ17":4842,"ìŀ¬ìķĻ":4843,"íĻĶë¬¸":4844,"ĠíĻĢ":4845,"ĠìĭłëħĦ":4846,"Ġìĭłë¢°":4847,"ĠìĬ¤íĬ¸ëłĪìĬ¤":4848,"ìĿ´ë¦Ħ":4849,"ĠëĬ¦":4850,"Ġìľłíĸī":4851,"ĠìĥģíĴĪ":4852,"ê·¸ëłĩ":4853,"ìľłë¦¬":4854,"ìľłì§Ħ":4855,"ìľłë°©":4856,"ëł¤ìķ¼":4857,"Ġìŀħë§Ľ":4858,"Ġìļ°ì£¼":4859,"Ġìļ°ëł¤":4860,"Ġíķ¨ë¶Ģë¡ľ":4861,"Ġê¼½":4862,"íĺĦìĭ¤":4863,"Ġê¹ĢìĦ±":4864,"Ġê¹ĢíĥľíĿ¬":4865,"Ġìĺģìĸ´":4866,"Ġìĺģìŀ¬":4867,"ĠìłĢë¶Ħ":4868,"ĠíİĦ":4869,"Ġì³ĲëĿ¼":4870,"Ġì³ĲëıĦ":4871,"Ġãħłãħľ":4872,"Ġë¶Ħìķ¼":4873,"ìĺĪì§Ħ":4874,"ìĺĪìģĺ":4875,"Ġì§ĳíļĮ":4876,"ë³´ìŀ¡":4877,"ìĺģìŀĲ":4878,"ìĦ¸ì§Ģ":4879,"Ġë¶Īêµ¬":4880,"Ġë¹¨ìķĦë¨¹":4881,"íĿĲ":4882,"Ġë²ĦìĬ¤":4883,"Ġëĸ³":4884,"ĠëĸĦ":4885,"ìĨ¡íĺľêµĲ":4886,"ìĨ¡ì¤ĳê¸°":4887,"ìķĪíĥĢ":4888,"ĠëıĻìĺģìĥģ":4889,"Ġê°ĲìĦ±":4890,"ëŁ¬ì§Ģ":4891,"ĠíĹĮ":4892,"ĠíĹĲ":4893,"Ġë°ķë³´ê²Ģ":4894,"ìĸ´ëĵ¤":4895,"Ġíĭ´":4896,"ĠëĮĲ":4897,"ĠíĿĺëŁ¬":4898,"ë°ķíķľë³Ħ":4899,"Ġë³¸ìĦ±":4900,"Ġê°ķíķľ":4901,"Ġê³Ħìĭľ":4902,"Ġëħ¸ë¹Ħ":4903,"ì¢ħìĦĿ":4904,"ë¶ĢëŁ¬":4905,"Ġëĵłëį°":4906,"Ġê¹¨ëģĹ":4907,"Ġì»´ë°":4908,"Ġëł¥":4909,"ĠëłĪë":4910,"Ġëĭ¨ìĪľ":4911,"Ġì¶Ķê°Ģ":4912,"Ġìĭ¬ë¦¬":4913,"ë°©íĥĦ":4914,"Ġìĸ´ëĸ¡":4915,"Ġë°ľê´ĳ":4916,"ĠìĽĥê²¨":4917,"ê¹Ģìłķ":4918,"ê¹Ģì¹ĺ":4919,"ê³µìĤ°":4920,"íĭ´":4921,"¸ĮëĿ¼":4922,"Ġâĺ":4923,"ê°ĻìĿ´":4924,"Ġì¶©ê²©":4925,"Ġë§Ŀìĭł":4926,"íĶĦëłĪ":4927,"íĥľíĺĦ":4928,"Ġë¬¼íĥĢê¸°":4929,"íķĻìĥĿ":4930,"Ġê±´ëĵ¤":4931,"Ġìĭľë¹Ħ":4932,"Ġê·Ģì°®":4933,"ĠëģĿëĤĺ":4934,"ĠíĮĮìĬ¤íĥĢ":4935,"Ġìįħ":4936,"Ġìĭ¸ìĽĢ":4937,"ĠíıīìłĲ":4938,"Ġíıīë²Ķ":4939,"ĠìłľëıĦ":4940,"Ġëĺĳëĺĳ":4941,"ì´Īë":4942,"Ġì²ľìĤ¬":4943,"Ġì²ľêµŃ":4944,"ĠíĨµìĪĺ":4945,"ĠíĨµê³Ħ":4946,"Ġë³µë¹Ħ":4947,"ĠìĪľìľĦ":4948,"ĠíĮĶìķĦë¨¹":4949,"ĠíĮ¨ìĬ¤":4950,"Ġë¶Īë§Į":4951,"Ġë¶Īë¥ľ":4952,"ĠíļĮìĪĺ":4953,"Ġëģ¼ì¹ĺ":4954,"Ġë¬´ëıĦ":4955,"Ġë¬´ëĬ¥":4956,"Ġë¬´ë¦İ":4957,"Ġãħľãħľãħľ":4958,"ĠëĤĺìĻĢëĿ¼":4959,"Ġìĺ¨ëĭ¤":4960,"Ġìĺ¨íĨµ":4961,"ĠíĭĢë¦¬":4962,"Ġë¨¸ë¦¬ì±Ħ":4963,"ëĭ¬ë¦¬":4964,"ê²°íķ©":4965,"ĠëıĮìķĦìĻĢ":4966,"Ġëª©ìłģ":4967,"ĠíķĻìĽĲ":4968,"Ġìª½íĮĶ":4969,"Ġìĸ´ì©ľ":4970,"ĠíĮĲë§¤":4971,"Ġëĵ£ë³´ìŀ¡":4972,"Ġì·¨ìĹħ":4973,"ĠìĿ¼ë¶Ģ":4974,"ĠìĿ¼ë¶ĢëŁ¬":4975,"ãħĩãħĩ":4976,"ê¼Ī":4977,"ĠìłĲìĪĺ":4978,"ìłĢëłĩê²Į":4979,"ìĸ¸ìłľ":4980,"Ġë²ĶìĿ¸":4981,"ĠìĽĶìĦ¸":4982,"ĠìĦľë¯¼":4983,"Ġë»¥":4984,"ê·¹ê¸°":4985,"Ġì¿¨":4986,"Ġë¸ĮëłĪ":4987,"Ġë¸Įëŀľëĵľ":4988,"ĠìĮĪ":4989,"Ġì°¾ìķĦê°Ģ":4990,"ĠëĿ¼ë©´ìĦľ":4991,"Ġê´Ģìĭ¬ìĹĨ":4992,"ĠìħĶìļĶ":4993,"ì½ľ":4994,"ĠíŀĲ":4995,"ĠìĭŃëĭĪëĭ¤":4996,"ĠìķĦìĿ´ëĶĶ":4997,"ëŁŃ":4998,"Ġìĺ¬ëĿ¼ê°Ģ":4999,"Ġë°ľëł¨":5000,"Ġì¹´íİĺ":5001,"Ġìĸ´ìļ¸ëł¤ìļĶ":5002,"ĠðŁĺ":5003,"ĠíĥĦìķķ":5004,"Ġë»Ķë»Ķ":5005,"Ġìł¸ìĦľ":5006,"----":5007,"Ġ!!!!":5008,"ĠìķĦê¹ĮìĽĮ":5009,"ĠíĴįëħĦ":5010,"Ġëĭ´ì£¼":5011,"Ġì¹¨íķ´":5012,"íķĺëĬĺ":5013,"Ġì£½ìĹ¬ìķ¼":5014,"Ġì°¬ìĸĳ":5015,"Ġë¶ĢëŁ¬ìĽĮ":5016,"Ġíŀĺëĵłëį°":5017,"Ġíķĳê³Ħ":5018,"ĠìĿ´ëŀĺìĦľ":5019,"Ġëįķë¶Ħ":5020,"ĠìķĦë¦Ħëĭµ":5021,"Ġëĭ¥ì¹ĺ":5022,"Ġë±ħ":5023,"Ġê°Ģë¥´ì³Ĳ":5024,"Ġë²Ħëł¤ëĿ¼":5025,"Ġê°Īë³´":5026,"ì¹ľë¬¸":5027,"Ġìĸ´ëĶľ":5028,"Ġì§Ģì¼ľë":5029,"Ġì£¼ìĿ¸ê³µ":5030,"ë¹¨ê°±ìĿ´":5031,"Ġì¸¡":5032,"Ġìıł":5033,"ĠìĹŃê²¨ìĽĮ":5034,"Ġkg":5035,"ĠìĹĲëĭ¤ê°Ģ":5036,"Ġmbc":5037,"ĠìķĪëıĻ":5038,"Ġê¹¡íĮ¨":5039,"Ġë¶Ģëĵ¤ë¶Ģëĵ¤":5040,"ìĻĦìłĦ":5041,"ê·¸ë¦¬ê³ł":5042,"Ġë¶ĦëªħíŀĪ":5043,"Ġíĺ¹ìĭľ":5044,"ĠìĽĢì§ģ":5045,"ĠíĭĢë¦°":5046,"Ġì¾Į":5047,"Ġìĺ¹íĺ¸":5048,"Ġíģ´ëĿ¼ìĬ¤":5049,"ëĴ¤":5050,"ê²łëĭ¤":5051,"ĠìĨĮë¹ĦìŀĲ":5052,"ëľ»":5053,"Ġyg":5054,"Ġìŀ¬ìĪĺìĹĨ":5055,"ìĨĮëħĦëĭ¨":5056,"ĠìµľëĮĢ":5057,"ëĿł":5058,"Ġë¼Ī":5059,"ĠíĥĢëł¹":5060,"ĠëıĦìłĢíŀĪ":5061,"ĠìĤ¬íĪ¬ë¦¬":5062,"Ġìĭľë¦¬ì¦Ī":5063,"ìĹ¬ëŁ¬ë¶Ħ":5064,"Ġì½ĶìĬ¤íĶĦëłĪ":5065,"Ġë§Īë¬´ë¦¬":5066,"Ġì»´ë°±":5067,"BS":5068,"NS":5069,"YG":5070,"¤Ħ":5071,"§íĮħ":5072,"¨íĦ°":5073,"¨¸ëĭĺ":5074,"¬¼ë":5075,"¯¸ëĭĪ":5076,"°ë¦¬":5077,"²½":5078,"´ìĿ´":5079,"¹Ī":5080,"¹ł":5081,"ê¾":5082,"ëĳ¥ìĿ´":5083,"Ġ&":5084,"ĠE":5085,"ĠI":5086,"ĥĪ":5087,"ħģ":5088,"ħìĿ´":5089,"įĶ":5090,"Ķ©":5091,"ĺ¥":5092,"Ġì³¤":5093,"ĠíĲ":5094,"ĠìĿ´ëĿ¼":5095,"ĠìĿ´ìĬ¤":5096,"ĠìĿ´ìĦ±":5097,"ĠìĿ´ìĿµ":5098,"Ġìķ¤":5099,"Ġìķľ":5100,"Ġìķ¨ë²Ķ":5101,"ĠìĹ¥":5102,"ĠìĹ®":5103,"ĠìĹĳ":5104,"ãħĹ":5105,"ĠíķĺëıĦ":5106,"Ġíķĺíķĺ":5107,"Ġê³łìŀĲ":5108,"Ġê³łì§ĳ":5109,"Ġëĭ¤ìĪĺ":5110,"Ġëĭ¤ëħ":5111,"Ġëĭ¤ë©°":5112,"ĠëĤ©":5113,"Ġë§ģ":5114,"ìĦ¬":5115,"ìĦ¸ë":5116,"Ġê°ĢìĤ¬":5117,"Ġê°Ģê´Ģ":5118,"Ġê°ĢìĻķ":5119,"ìŀĩ":5120,"Ġê²¹":5121,"¸ë¥¸":5122,"Ġì§Ģë¥´":5123,"Ġì§ĢëĤľ":5124,"ĠìĿĢì§Ģ":5125,"ĠìĿĢê°Ģ":5126,"ĠìĹĲëĿ¼ìĿ´":5127,"ìķĪë":5128,"Ġë³Ģë":5129,"ĠëıĦë°°":5130,"ĠëıĦëįķ":5131,"ĠíķľëĳĲ":5132,"ìĿ´ê²ĥ":5133,"ì§Ģì»¬":5134,"¼ëĭ¤":5135,"Ġê·¼ë":5136,"Ġê·¼ë³¸":5137,"ìĭ¹":5138,"ĠëĤĺë¬´":5139,"ĠëĤĺë°ľ":5140,"ĠëĤĺëĪĦ":5141,"ëĤ´ë¦¬":5142,"ĠìĦ¬":5143,"ì§Īë":5144,"ì§ľë":5145,"ĠìĿĦëł¤ê³ł":5146,"ë§¹":5147,"ê¸°ë¶Ģ":5148,"Ġãħķ":5149,"ìŀĲìĭĿ":5150,"ĠìĤ¬ìĥģ":5151,"ľëĨĪ":5152,"Ġìĺµ":5153,"Ġëª¬":5154,"ìĹ£":5155,"ìĹ¼ë³ĳ":5156,"ê³łê¸°":5157,"Ġë¶ĵ":5158,"Ġê²ĮìĬ¤íĬ¸":5159,"Ġê¸°íļį":5160,"ìĥ¤":5161,"ìĥĪë":5162,"ĠëĿ¼ëįĶëĭĪ":5163,"ëĭĪíĭ°":5164,"ĠëĲ«":5165,"Ġë§Įë§Į":5166,"Ġë§ĮìĦ¸":5167,"Ġíķ´ëĭ¹":5168,"Ġíķ´ì¶©":5169,"ìĺĨ":5170,"Ġìľ¼ëĤĺ":5171,"Ġëį¤":5172,"Ġëį¥":5173,"ĠìķĪê°Ĳ":5174,"Ġê³°":5175,"ĠìŀĲíķľ":5176,"ĠìŀĲìĦ¸":5177,"ĠìŀĲëŀĲ":5178,"ĠìŀĲë§ĪìŀĲ":5179,"ìķĦì§Ģ":5180,"ìķĦëĿ¼":5181,"ìķĦë¬´":5182,"ìķĦì¤Įë§Ī":5183,"íĺ¼ë":5184,"ìĸ¸ë":5185,"Ġêµī":5186,"Ġêµ´ë":5187,"Ġìļ±":5188,"ĠëĮĢíķĺ":5189,"ĠëĮĢìŀ¥":5190,"ĠëĮĢì±ħ":5191,"ĠëĥĪ":5192,"ë°¤":5193,"ë°Ģ":5194,"Ġì°°":5195,"ìĽ¹íĪ°":5196,"Ġì¤«":5197,"Ġì¤į":5198,"Ġë²¨":5199,"ĠëĥĲëĬĶ":5200,"ìĿ¸ìĥĿ":5201,"ĠëıĪë":5202,"ĠìĹ¬íĥľ":5203,"ĠìłķìĦ±":5204,"Ġìłķìľł":5205,"Ġìłķëĭµ":5206,"ĠìłķëıĪ":5207,"ĠìłķíĻķ":5208,"ìĤ¬íļĮ":5209,"êµŃìĤ°":5210,"êµŃë°©ë¶Ģ":5211,"ĠìĭľìĽĲ":5212,"ĠìĭľìĦł":5213,"Ġìĭľê¶ģ":5214,"ê±´ëª¨":5215,"ìĥģìĭĿ":5216,"ìĭłë¹Ħ":5217,"ë¬¼ë":5218,"ĠìĪĺê³ł":5219,"ĠìĪĺë§İ":5220,"ĠëįĶêµ¬":5221,"ĠëĤ¨ëħĢ":5222,"ĠëĤ¨ê¶ģë¯¼":5223,"ìĭľê°Ħ":5224,"ĠìŀĺìĤ¬":5225,"Ġì§Ħì¶ľ":5226,"ĠíĺĪ":5227,"íķĺìĹ¬ê°Ħ":5228,"Ġë´ħìĭľëĭ¤":5229,"ì§Ħìĭ¬":5230,"ì§Ħìĭ¤":5231,"ĠìĿ¼ìĸ´ëĤĺ":5232,"ĠëŃ£":5233,"Ġê°ľìłķ":5234,"Ġê°ľìĽĥ":5235,"ĠìĿ´ëª¨":5236,"ĠìĿ´ë¡ł":5237,"ĠìĿ´ëŁ´":5238,"ĠìĿ´ë£¨":5239,"ĠìĿ´ë»¤":5240,"ëĮĢëĭ¨":5241,"ĠìĽħ":5242,"ìĪĺì§Ģ":5243,"ìĪĺìķĦ":5244,"ìĪĺìŀħ":5245,"Ġëª¨ì§Ģ":5246,"Ġëª¨ìļķ":5247,"Ġëª¨ì¡°ë¦¬":5248,"Ġì¹ľëĭ¤":5249,"ĠìĹ°ìĿ¸":5250,"ĠìĹ°ìĥģ":5251,"ĠìĹ°ìĬµ":5252,"ĠìłĦê°ľ":5253,"Ġì¡°ê±´":5254,"Ġì¡°ìĸ¸":5255,"Ġì¡°íķ©":5256,"Ġë§Īì¹ĺ":5257,"Ġë§ĪìłĢ":5258,"ĠìĻľêµ¬":5259,"ìĺ¤ì°½ìĦĿ":5260,"ë¹ħ":5261,"Ġìŀ¬ë°©":5262,"Ġìŀ¬ë²Į":5263,"Ġìŀ¬ê²°íķ©":5264,"Ġëŀĺë":5265,"Ġìĺ¤ìĹ¼":5266,"Ġì¶¤":5267,"Ġê¹Įì§Ħ":5268,"ìĹ¬ìłķ":5269,"ĠëĤ´ìļĶ":5270,"ìłĦíĺĦë¬´":5271,"Ġíĥģ":5272,"ìĦ±íĽĪ":5273,"ĠìĦ±ìłģ":5274,"Ġë¹Ħìĭ¼":5275,"Ġë¶ĢëĶĶ":5276,"Ġë¶Ģë¥ĺ":5277,"Ġë¶ĢìŀĲ":5278,"Ġë¶ĢìĿ¸":5279,"Ġë¶ĢìĤ°":5280,"ĠìĨĮìĭĿ":5281,"ĠìĨĮê°ľ":5282,"ĠìĨĮì¤ĳ":5283,"Ġì¤ĳë°ĺ":5284,"ĠíĻĢë":5285,"ĠìŀĦê¸Ī":5286,"Ġëħ¸ìĿ´":5287,"Ġëħ¸íĽĦ":5288,"Ġëħ¸ì²ĺëħĢ":5289,"íĮ©":5290,"Ġìĭłëŀĳ":5291,"Ġìĭłë¶Ħ":5292,"ĠìĬ¤ëŁ¬":5293,"Ġê³µëıĻ":5294,"Ġê³µíļ¨ì§Ħ":5295,"ìĿ´ëŀĺ":5296,"ìĿ´ë¶Ħ":5297,"ìĿ´ëķĮ":5298,"ìĿ´ëĦ¤":5299,"ĠìķĮë¦¬":5300,"ĠìķĮì½ľ":5301,"Ġë¯¸ì¹ľëħĦ":5302,"ĠìĶ¨ë¶Ģ":5303,"ĠìľłìĤ¬":5304,"ë¬¸íĿ¬":5305,"Ġëĭ¹íķł":5306,"ê·¸ë§¨":5307,"ë¯¼íĺĦ":5308,"Ġë°©ìĭĿ":5309,"Ġë°©êµ¬ìĦĿ":5310,"ĠìŀħêµŃ":5311,"Ġë°°ëĭ¬":5312,"Ġë°°ìĽł":5313,"ìĿĺìĤ¬":5314,"ëħķ":5315,"Ġìļ°íķľ":5316,"Ġìļ°ìĦł":5317,"Ġìļ°ëıĻ":5318,"Ġìļ°ìĬ¹":5319,"Ġê¼´ë":5320,"Ġë³ĳìŀ¥":5321,"íĺĦë¹Ī":5322,"Ġê¹ĢìĪĺ":5323,"Ġê¹Ģì¢ħë¯¼":5324,"ĠìłĢëĨĪ":5325,"ĠìłĢëħģ":5326,"!!!":5327,"íĨ±":5328,"Ġê²°ìłķ":5329,"Ġê²°ë¡ł":5330,"ëª½":5331,"ĠìĺĪìĽĲ":5332,"Ġì§ĳìĤ¬":5333,"ĠìĦłíķľ":5334,"Ġì¤Ħê²Į":5335,"ìĦ¸ê³Ħ":5336,"íĺ¼ìŀĲ":5337,"ľë°Ķ":5338,"ĠíĻĶìłľ":5339,"ìŀĳê°Ģ":5340,"ĠëĦĺì¹ĺ":5341,"íĿł":5342,"Ġë²Ħíĭ°":5343,"ìķĪìŀ¬íĺĦ":5344,"Ġìĭ¤íĻĶ":5345,"Ġìĭ¤ì²´":5346,"Ġì²ĺëħĢ":5347,"ĠëıĻê¸°":5348,"ĠëıĻì°¸":5349,"ì¡°ìŀ¬íĺĦ":5350,"Ġê°ĲíŀĪ":5351,"ìķłê¸°":5352,"ëĤ¨ì£¼":5353,"Ġìļķíķ¨":5354,"Ġìłľì¡°":5355,"ëıĻê·¼":5356,"Ġë°ķíĺĢ":5357,"Ġìµľì´Ī":5358,"íİĻ":5359,"Ġìľ¼ìĦ¸ìļĶ":5360,"ìĸ´ëĤ¬":5361,"ìĸ´ë¦°":5362,"ĠëªħìĿĺ":5363,"ãħİãħĮãħĬ":5364,"Ġê±¸ìĸ´":5365,"Ġì¹ĺê³ł":5366,"ĠíĿĻ":5367,"Ġëĭ¬ì°½":5368,"Ġë²Įê¸Ī":5369,"ëį¤":5370,"ĠìħĢ":5371,"ĠíķĺëĤĺëĭĺ":5372,"ĠìĦ¤ë§Ī":5373,"ĠìķĦëĭĮì§Ģ":5374,"Ġëĭ¤ëĬĶëį°":5375,"Ġê°ķíķĺ":5376,"Ġê°ķíĻĶ":5377,"ĠíĺĦëªħ":5378,"Ġê³Ħìķ½":5379,"Ġê´Ģì°°":5380,"Ġê´Ģê´ĳ":5381,"ĠìĿĢëį°ìļĶ":5382,"Ġë§¤ìŀ¥":5383,"ë¶ĢëıĻìĤ°":5384,"íĨµìĭłë¹Ħ":5385,"ĠíĨ¡":5386,"Ġëł´":5387,"Ġì¶Ķíķĺ":5388,"Ġë²Īíĺ¸":5389,"Ġìĭ¬ìĭ¬":5390,"Ġëĵ±ìŀ¥":5391,"ĠìķĦìĿ´ì¦Ī":5392,"Ġìĸ´ëĸł":5393,"Ġë°ľìĥĿ":5394,"ĠìĽĥê²¼":5395,"Ġì´ĪëĮĢ":5396,"Ġêµ°ìĿ¸":5397,";;;":5398,"ĠëĴ¤ì§Ī":5399,"ĠëĴ¤ì§ĳ":5400,"ĠëŁ¬ë¸Į":5401,"Ġê°ľë³´":5402,"ĠëĲłê¹Į":5403,"Ġì¶©ìłĦ":5404,"ê²¨ìļ´":5405,"Ġì¤ĺìļĶ":5406,"Ġë§Ŀê°Ģ":5407,"Ġë§Ŀìĥģ":5408,"Ġë§Ŀíķł":5409,"Ġ500":5410,"Ġëĭ¤ëĭĪê¹Į":5411,"Ġê±´ë°©":5412,"Ġìĭľë¯¼":5413,"Ġê¸Ģê³ł":5414,"Ġêº¼ìł¸ëĿ¼":5415,"Ġíĺ¸ìĨĮ":5416,"ĠëģĿëĤ´":5417,"ĠíĮĮìĿ´íĮħ":5418,"íķľëį°":5419,"ĠíĮ¬íĭ°":5420,"ĠíĮ¬ëį¤":5421,"Ġíıīê·ł":5422,"ĠìĨĲíķ´":5423,"ĠìłľëĮĢ":5424,"ĠìłľëĦ¤":5425,"Ġìłľë³´ìŀĲ":5426,"Ġëĵ¤ìĸ´ê°Ķ":5427,"Ġì¦ī":5428,"Ġë³¼ê¹Į":5429,"Ġíı¬ìĬ¤":5430,"Ġíı¬íķ¨":5431,"Ġê´ĳíĻĶë¬¸":5432,"ĠíĮĶë¦¬":5433,"ĠíĮ¨ê±°ë¦¬":5434,"ĠìĺĪë°©":5435,"Ġë§īìĥģ":5436,"Ġë§īë§Ĳ":5437,"Ġì¶ľìĤ°":5438,"ĠíĻķë¥ł":5439,"Ġë¯¸ëĤĺ":5440,"Ġë³Ģíķĺ":5441,"Ġì¤ĳêµŃìĿ¸":5442,"Ġíģ¬ë¦¬ìĬ¤":5443,"ĠíĬ¸ì§ĳ":5444,"ëįĶê¸°":5445,"Ġì²ŃëħĦ":5446,"íĺĢìĦľ":5447,"ëĭ¬ì½©":5448,"Ġì»¤ë®¤":5449,"Ġëĭ®ìĿĮ":5450,"Ġë²ķìĽĲ":5451,"Ġ2020":5452,"ĠâĢĺ":5453,"ĠâĢĻ":5454,"Ġëĸłìĺ¤ë¥´":5455,"ĠíĹĪìľĦ":5456,"Ġíģ°ìĿ¼":5457,"ĠëĶĶì§Ģ":5458,"ĠëŀĦê¹Į":5459,"Ġê·¹ë³µ":5460,"Ġìº¡ì³Ĳ":5461,"Ġì§ľë¦¬":5462,"Ġ........":5463,"Ġë»£":5464,"ëģĿ":5465,"ìľ¤ìķĦ":5466,"ĠìĹĦì²ŃëĤľ":5467,"Ġëı¼ìĦľ":5468,"ĠìĮ¤":5469,"ĠìĮĪëĶĶ":5470,"ìĻ¸êµŃ":5471,"ëĪĦëĤĺ":5472,"íģ´":5473,"ĠìŀłìĪĺ":5474,"ìŀ¡ìĿ´":5475,"ìĸ´ëĤĺìĺ¤":5476,"Ġì£¼ë¨¹":5477,"²ĮëłĪ":5478,"Ġìľ¤ì§Ģ":5479,"ĠìĦ¹ìĭľ":5480,"Ġê¸°ëĭ¤ëł¤":5481,"Ġê³¨ëª©":5482,"ĠìºĲìĬ¬":5483,"ìĿ¸ëį°":5484,"Ġ60":5485,"ì¢Ĩê°Ļ":5486,"Ġë»Ķíķĺ":5487,"Ġìĸ¸ëĬ¥":5488,"ĠãħĨãħĤ":5489,"ĠãħĨãħİãħĮãħĬ":5490,"Ġíĳ¼":5491,"Ġë¸ĶëŀĻ":5492,"Ġëĭ¤ë©´ìĦľ":5493,"íĻįìĸ´":5494,"ĠíĹ¬íį¼":5495,"ĠëĿµ":5496,"ĠëĤ´ëł¤ëĿ¼":5497,"Ġëº¨":5498,"Ġëºı":5499,"ĠëĪĦêµ°ëį°":5500,"Ġê°Ģìł¸ìĺ¤":5501,"ìłķìĭłë³ĳ":5502,"Ġë©Ģì©¡":5503,"Ġì´Īëĵ±":5504,"Ġì»¨íħĲì¸ł":5505,"ë·Ķ":5506,"Ġìĩ¼íķĳ":5507,"ìĹĺë¦¬":5508,"ĠìĬĪíį¼":5509,"ì½©ëĭ¬ì½©":5510,"ĠìĹīëį©ìĿ´":5511,"Ġê²¨ìļ°":5512,"Ġì¡±ìĨį":5513,"¶Ģëª¨":5514,"ĠìĤ´ìķĦê°Ī":5515,"ľ¨ë¦¬":5516,"Ġìª¼":5517,"Ġíĩ´ë¬¼":5518,"ĠìĻłì§Ģ":5519,"ĠìĻłë§Į":5520,"Ġìıĺ":5521,"ĠíĿĶëĵ¤":5522,"Ġë°Ķê¿ĶëĿ¼":5523,"ĠëĭĪë¯¸":5524,"ĠëĭĪëĵ¤":5525,"ĠìĿ´ìĬ¹ê¸°":5526,"ĠìĿ´ìĬ¹ìļ°":5527,"ĠìµľìĨĮíķľ":5528,"ë±Ģ":5529,"ìĿ¼ë°ĺ":5530,"íĺ¸ëıĻ":5531,"Ġë¬´ëĦĪì§Ģ":5532,"ëĳ¬":5533,"ëĳĳ":5534,"ĠìĿ´êµŃì£¼":5535,"ê°ľëı¼ì§Ģ":5536,"Ġì°¨ëł¤ëĿ¼":5537,"íĿ¥êµŃ":5538,"íĥĢë¯¼":5539,"Ġëª¨ë¥¼ê¹Į":5540,"Ġìĵ¸ëį°":5541,"ĠëĪĪë¹Ľ":5542,"Ġì³Ĳëĭ¤ë³´":5543,"ĠìİĦ":5544,"Ġë·°":5545,"Ġê²¸ìĨĲ":5546,"ĠìłłëįĶ":5547,"Ġìĭ¸ìĿ´ì½Ķ":5548,"ĠíĢ´ëĵ¤":5549,"íľĺìŀ¬":5550,"ĠTV":5551,"ĠëĤŃë¹Ħ":5552,"Ġë§Ļìĭľëĭ¤":5553,"ĠìķĦë¬´ëŁ°":5554,"ĠìĤ¬ìĿ´ë¹Ħ":5555,"ĠìŀĲì¡´ìĭ¬":5556,"ĠìłĢì§Ģë¥¸":5557,"Ġìļ°ìļ¸ì¦Ŀ":5558,"ìĸ´ëĸ¤":5559,"Ġìĸ¸ìłłê°Ģ":5560,"íĵ¨íĦ°":5561,"Ġvs":5562,"ìĦ¹ìĬ¤":5563,"ĠëĦĪë¬´ëĤĺ":5564,"Ġì£¼ì°¨ìŀ¥":5565,"ĠìĪĺìŀ¬ë¯¼":5566,"Ġë§¤êµŃëħ¸":5567,"ĠëĨĢìķĦëĤĺ":5568,"ĠðŁĳį":5569,"ìķĪíĥĢê¹Ŀ":5570,"ĠâĺĿ":5571,"Ġë¸ĮëłĪìĿ´íģ¬":5572,"Ġìĭľê¶ģì°½":5573,"ìĿ´ëŀĺìĦľ":5574,"Ġì»¤ë®¤ëĭĪíĭ°":5575,"30":5576,"er":5577,"yp":5578,"¦¿":5579,"§Ľ":5580,"¨¸ë¦¬":5581,"°Ķ":5582,"¸Ķ":5583,"¹¨":5584,"ëİ":5585,"ëĽ°":5586,"ìµ":5587,"ìŃī":5588,"ĠYG":5589,"ģĮ":5590,"īìĿ´":5591,"ĭ¥":5592,"ĳëĮĢ":5593,"Ķ±":5594,"ķħ":5595,"ĽëĤł":5596,"Ľë¶Ī":5597,"ľê¸°":5598,"ŀĮ":5599,"Ġìį°":5600,"Ġë®":5601,"ĠíĤ¬":5602,"ĠìĿ´ìĸ´":5603,"ĠìĿ´ë¶Ħ":5604,"ĠìĿ´ìŀ¬ëªħ":5605,"ĠìķĪëĭ¤":5606,"ĠìĹĺ":5607,"ĠìĹ´ë°":5608,"ĠìĹĺì§Ģ":5609,"ĠëĬĶêµ°":5610,"Ġê°¸":5611,"Ġìŀ£":5612,"Ġìŀī":5613,"Ġíķĺë²Ħ":5614,"ĠíķĺíķĦ":5615,"Ġê³łìłķ":5616,"Ġê³łë§Į":5617,"Ġê³łë¯¼":5618,"Ġê³łëł¤":5619,"Ġê³łì³Ĳ":5620,"Ġê³łì¶Ķ":5621,"Ġê³łëĶ©":5622,"ĠëĤĦ":5623,"Ġë§·":5624,"Ġëĵ¤ìĿ´ë":5625,"ìĦ¯":5626,"ìĦ°":5627,"Ġê°Ģê¹Ŀ":5628,"Ġê²»":5629,"ĠìķĦëĭ¤":5630,"ĠìķĦìĭľìķĦ":5631,"ĠìķĦë²ł":5632,"ĠìķĦíĶĶ":5633,"Ġì§Ģìĥģ":5634,"Ġì§Ģê»":5635,"Ġì§ĢëĶĶ":5636,"´ë²ĮëłĪ":5637,"ìłĬ":5638,"ìłĸ":5639,"ìł¸ë":5640,"ĠëıĦëģ¼":5641,"ĠëıĦëĳĳ":5642,"ĠëĦ¨":5643,"ĠëĦĪë":5644,"ìĿ´ì¢ħìĦĿ":5645,"ì§Ģìĸ´":5646,"ì§Ģìļ°":5647,"ì§ĢìĹ°":5648,"ì§Ģíļ¨":5649,"Ġë°Ģëł¤":5650,"íķ´ëĿ¼":5651,"ĠëĤĺìĺģ":5652,"ĠëĤĺëŀĺ":5653,"ĠëĤĺë¬¸íĿ¬":5654,"ĮĢì¤ĳ":5655,"ë¦¬ìķĦ":5656,"ĠìĿĦëĿ¼ê³ł":5657,"Ġãħį":5658,"ĠãħĶ":5659,"ìŀĲìĤ´":5660,"êµ¼":5661,"ĠìĤ¬íĩ´":5662,"ľë¹Ħ":5663,"ľë³¸":5664,"ľë¹Ī":5665,"ĠëĦ¤ìĹ¬":5666,"Ġìĺ®":5667,"Ġì§Īëł¤":5668,"Ġì§Īë¬¸":5669,"Ġìĥ¤":5670,"ĠìĥĮ":5671,"Ġìĸ´ìĹ¬":5672,"Ġìĸ´ê·¸":5673,"Ġìĸ´ì¨":5674,"Ġì¢ĩ":5675,"ê°Ģìĭľ":5676,"Ġê¸°ê¸°":5677,"Ġê¸°ìĽĲ":5678,"Ġê¸°ìļ´":5679,"Ġê¸°ê´Ģ":5680,"ĠëĿ¼ëĭĪê¹Į":5681,"Ġê·¸ëĿ¼":5682,"Ġê·¸ëł¤":5683,"Ġë§Įìł¸":5684,"Ġíķ´ì¤":5685,"Ġíķ´ì¤ĺ":5686,"ìĺĽëĤł":5687,"ĠìĿ¸íķ´":5688,"ĠìĿ¸íķľ":5689,"Ġê³½":5690,"Ġë¹½":5691,"ĠìŀĲëĤĺ":5692,"ĠìŀĲìĺģ":5693,"ĠìŀĲë£Į":5694,"ĠìĻĪ":5695,"ìķĦìĺ¤":5696,"íĺĪ":5697,"íĺ¸ë¡ľ":5698,"ëłģ":5699,"ĠëĮĢê¸°":5700,"ĠëĮĢìĿĳ":5701,"Ġë²Īë":5702,"ìĿ¸ìĦ±":5703,"Ġëıķ":5704,"ĠìĹ¬ìĦľ":5705,"ĠìĹ¬ìłĦíŀĪ":5706,"Ġìłķë¦¬":5707,"Ġìłķëĭ¹":5708,"Ġìłķìķ¡":5709,"Ġìłķìļ°ìĦ±":5710,"ĠìĭľìĬ¤":5711,"ĠìĭľìľĦ":5712,"ĠìĭľìłĲ":5713,"ĠìĭľìĦ¤":5714,"ĠíĸĦ":5715,"ìĥģìĪĺ":5716,"ìĭłëıĦ":5717,"ìĭłíĺľ":5718,"ë³¸ëĭ¤":5719,"ë¬¸ë":5720,"ì¹´ë":5721,"ì¹ľëĭ¤":5722,"ìľĮ":5723,"ĠìĨľ":5724,"ĠìĪĺëıĦ":5725,"ĠìĪĺìłĢ":5726,"ĠìĪĺë©´":5727,"ĠìĪĺë°°":5728,"ĠëįĶëŁ¬ìĽĮ":5729,"ĠëįĶëĵ¬":5730,"Ġì²ľë":5731,"Ġì²´ëĮĢ":5732,"ĠëĤ¨ì¶©":5733,"ìłķíķ´":5734,"ìłķì¹ĺ":5735,"ìłķë¶Ģ":5736,"ìłķìļ°ìĦ±":5737,"ìĭľìĿ´":5738,"Ġì§Ħë¦¬":5739,"Ġì§Ħìļ°":5740,"ë§ĪëĭĪ":5741,"íķĺê³ł":5742,"ĠíĸĪìŀĸìķĦ":5743,"ĠìĥĿë¦¬":5744,"ĠìĥĿíĥľ":5745,"ì²«":5746,"ĠìĦ¸ê¸°":5747,"ĠìĿ¼ì§Ħ":5748,"ĠìĿ¼ìĦ¸":5749,"ĠìĿ¼ê´Ģ":5750,"ĠìĿ¼ìĸ´ëĤ¬":5751,"Ġê°ľíķľ":5752,"Ġê°ľìĦ±":5753,"Ġê°ľê·¸ë§¨":5754,"ĠìĿ´ëĮĢë¡ľ":5755,"ĠìĿ´ëģĮ":5756,"ìĸ´ì©Į":5757,"ê¹Įë¦¬":5758,"Ġíķłëŀĺ":5759,"Ġíķłë§¤":5760,"Ġíķłêº¼":5761,"Ġíķłëł¤ê³ł":5762,"Ġëª¨ìĭľ":5763,"Ġëª¨ë¥¸":5764,"êµ¬íķĺ":5765,"ãĦ²":5766,"ĠìĹ°ê²°":5767,"íķľì§Ģë¯¼":5768,"ĠìłĦê¸°":5769,"ĠìłĦìĭľ":5770,"ĠìłĦëĳĲ":5771,"ĠìłĦíĻĺ":5772,"ì£¼ìĽĲ":5773,"ì£¼ìŀĳ":5774,"ì¡¸":5775,"Ġì¡°ìŀ¥":5776,"Ġì¡°ë¡±":5777,"Ġì¡°ë³´ìķĦ":5778,"ë¹Ľ":5779,"ĠìķłíĶĮ":5780,"Ġêµ¬ë¦¬":5781,"Ġêµ¬ë³Ħ":5782,"Ġêµ¬ëıħ":5783,"Ġêµ¬ëįĶê¸°":5784,"Ġëŀı":5785,"Ġìĺ¤ë§Į":5786,"Ġìĺ¤íķ´":5787,"Ġìĺ¤íĥĢ":5788,"Ġìĺ¤ë¥¸":5789,"Ġìĺ¤ì£½":5790,"Ġë¬¸íķĻ":5791,"Ġë¬´íķľ":5792,"Ġë©±":5793,"ê±°íĥĳ":5794,"ł¤ê³ł":5795,"ìłĦíĻĶ":5796,"Ġíĥķ":5797,"ĠíĥĿ":5798,"ìĦ±íĺķ":5799,"ĠìĦ±ì§Ī":5800,"ĠìĦ±íĸ¥":5801,"ĠìĦ±ìĭ¤íŀĪ":5802,"Ġë¹ĦìĶ¨":5803,"Ġë¹ĦíĥĢë¯¼":5804,"Ġë°Ķìģĺ":5805,"Ġë°Ķë¥¸":5806,"Ġë¶Ģìłķ":5807,"Ġë¶Ģëĭ´":5808,"ĠìĨĮëĤĺ":5809,"Ġì¤ĳê³ł":5810,"Ġì¤ĳëĭ¨":5811,"Ġì¤ĳìķĻ":5812,"ĠìłĢê±´":5813,"ĠìłĢì§Ī":5814,"ĠìłĢê²ĥ":5815,"ĠìĬ¤íĥ":5816,"ĠìĬ¤ì¼Ģ":5817,"ĠìĬ¤ëŁ¬ìĽĮ":5818,"ĠìĬ¤íĮĮìĿ´":5819,"Ġê³µìĭĿ":5820,"Ġê³µê³µ":5821,"ìĿ´ëĿ¼":5822,"ìĿ´ëŁ´":5823,"ŀĺê³¤":5824,"Ġë¯¸ìĽĮ":5825,"Ġë¯¸ì¶Ķ":5826,"Ġê³¼íķĺ":5827,"ĠëĬł":5828,"ĠìľłìłĦ":5829,"Ġìľłë¶Ģ":5830,"Ġìľłì¶ľ":5831,"ë¶ĢíĦ°":5832,"ìĿ¼ê¸°":5833,"ìĿ¼ëĭ¨":5834,"ĠêµŃìłģ":5835,"ĠìĿ¸ëıĦ":5836,"ĠìĿ¸ëĶĶ":5837,"ĠìĿ¸ëħĦ":5838,"ĠìĿ¸ë¥ĺ":5839,"Ġì°¨ëĭ¨":5840,"Ġì°¨ëŁī":5841,"íĶ½":5842,"Ġë¨¹ìĹ¬":5843,"Ġìĥģìĺģ":5844,"íĦ°ë¦¬":5845,"ĠìŀħëĭĪê¹Į":5846,"ëħ¸ëŀĺ":5847,"Ġìļ°ê¸°":5848,"ëĦ£":5849,"Ġíķľëĭ¤ë©´":5850,"Ġë°ĽìķĦëĵ¤":5851,"íĺĦìłķ":5852,"íĺĦëĮĢ":5853,"íĺĦìļ°":5854,"íĺĦëª¨":5855,"Ġê¹Ģìĺģ":5856,"Ġê¹ĢíĿ¬":5857,"Ġê¹Ģíĺľ":5858,"Ġê¹ĢìĨĮìĹ°":5859,"ìĦłìĥĿ":5860,"ĠìłĢë²Ī":5861,"Ġì³ĲëĦ£":5862,"ìłĢë¦¬":5863,"ëĤ´ìļ©":5864,"ìĺĪìģľ":5865,"ĠëĪĦë¥´":5866,"ëªĩ":5867,"ĠìĺĪìģ¨":5868,"ìĤ°ë¶Ģ":5869,"ĠìĦłë¬¼":5870,"Ġë¶ĪìķĪ":5871,"Ġìŀ¥ê°Ģ":5872,"Ġìŀ¥ìĿ¸":5873,"Ġìŀ¥ë¥´":5874,"ĠíĻĶëĤĺ":5875,"ĠíĻĶëł¤":5876,"ê´ľ":5877,"ì¤ĳê¶Į":5878,"ĠìĪ«":5879,"ĠëĺĲíķľ":5880,"ĠìľĦì¹ĺ":5881,"Ġë¯Ģ":5882,"Ġë¯¼ë":5883,"Ġë²Ħëĵ¤":5884,"Ġìĭ¤ì¢ħ":5885,"Ġëŀĳê»ĺ":5886,"ĠëıĻìĸĳ":5887,"ì¡°ë³´ìķĦ":5888,"Ġê°Ĳëĭ¹":5889,"Ġê°ĲíĥĦ":5890,"ìķłë¹Ħ":5891,"ê³Ħì§ĳ":5892,"Ġìļķíķľ":5893,"Ġìļķìĭ¬":5894,"ëŁ¬ìī¬":5895,"Ġë¨¼ì§Ģ":5896,"Ġë°ķíķľë³Ħ":5897,"Ġë°ķëªħìĪĺ":5898,"Ġìµľê·¼":5899,"ĠíĭĪ":5900,"ĠëĦĪê±°":5901,"Ġìĺ¬ëł¸":5902,"Ġìĺ¬ë¦¼":5903,"Ġìĺ¬ëŀĲ":5904,"íĬ¸ì½©":5905,"íĥĢì§Ģ":5906,"ĠëıĮëĮĢê°Ģë¦¬":5907,"Ġê¸¸ê±°ë¦¬":5908,"Ġì¹ĺìļ°":5909,"Ġì¹ĺë§¤":5910,"Ġìŀ¡ìķĦë¨¹":5911,"Ġëĭ¬ë¦¬":5912,"Ġëĭ¬ë¹Ħ":5913,"Ġë²Įë¦¬":5914,"Ġìħľ":5915,"ĠìĦ¤ìķĦ":5916,"ĠëĴĪ":5917,"Ġë³¸ì§Ī":5918,"Ġê°ķìļĶ":5919,"íĹ¨":5920,"Ġê´Ģìĥģ":5921,"Ġê´ĢëŀĮ":5922,"Ġëħ¸ëıĻ":5923,"Ġëħ¸ë¸ĮëĿ¼":5924,"ĠëĿ¼ëĬĶëį°":5925,"ĠëĶ°ë¦¬":5926,"ĠëĶ°ëľ»":5927,"ë£¡":5928,"ë£©":5929,"ë£¸":5930,"Ġìŀĳìŀĳ":5931,"ĠìŀĳëħĦ":5932,"Ġë°©ìĨ¡ìĤ¬":5933,"Ġê²°íĺ¼ìĭĿ":5934,"Ġì¶Ķíķľ":5935,"Ġì¶Ķì¢ħ":5936,"Ġì¶ĶìŀĲíĺĦ":5937,"íĸīë³µ":5938,"Ġì¢ĨëĤĺ":5939,"ìł¸ìķ¼":5940,"Ġêº¾":5941,"Ġê°Ħì§Ģ":5942,"Ġì§Īì§Ī":5943,"íĤ¤ìĬ¤":5944,"Ġêµ°ìļĶ":5945,"ĠëĴ¤ì¡Į":5946,"íĭ¸":5947,"Ġìĸĳìª½":5948,"ĠëĤ´ë¶Ģ":5949,"ĠëĤ´ë²Ħ":5950,"Ġë°ĺìĿ¼":5951,"ĠëĳĲëł¤":5952,"Ġëª°ìķĦê°Ģ":5953,"Ġê°ľë¬´":5954,"Ġê°ľë³ĳ":5955,"ĠíĥĢìĿ¸":5956,"ì¼ľ":5957,"Ġë§Īë¥¸":5958,"Ġë¬¼ê±´":5959,"ëĦ¤ìĿ´ë²Ħ":5960,"ìĿĢìłķ":5961,"ĠëĪĪê¹Ķ":5962,"Ġìį¬":5963,"Ġìĭ¸ê°Ģì§Ģ":5964,"ĠíĬ¹ìĿ´":5965,"Ġëĵ¤ìĸ´ìĻĶ":5966,"Ġì¢ħë¶ģ":5967,"Ġë¦¬ê·¸":5968,"ìĸĳìĿ´":5969,"ìĸĳìķĦì¹ĺ":5970,"ĠìĭĿìĥģ":5971,"ĠíķĦìĪĺ":5972,"Ġëĳĺì§¸":5973,"ìĦ¤ë§Ī":5974,"Ġë¶Īë§¤":5975,"Ġë¶ĪëłĢ":5976,"ëª¨ëĵł":5977,"ì³ĲìĦľ":5978,"Ġ''":5979,"Ġì¶ľìĭľ":5980,"Ġë¬´ë£Į":5981,"ĠëĬĶëĭ¤ê³ł":5982,"íĭ°ì¦Į":5983,"¹ĦìĬ¤":5984,"ëįĶëĿ¼":5985,"Ġê·¸ëŀĺìļĶ":5986,"Ġë©ĶìĿ´":5987,"ë°ĶëŀĮ":5988,"Ġê¼¬ë¦¬":5989,"Ġê¼¬ìĭľ":5990,"íĻ©íĿ¬":5991,"Ġì»¤ìĦľ":5992,"Ġì»¤ë¦¬ìĸ´":5993,"???":5994,"ĠëıĮìķĦëĭ¤ëĭĪ":5995,"ĠìĬ¹ìĿ¸":5996,"Ġì°½íĶ¼":5997,"Ġìķ½ê°Ħ":5998,"ĠìĤ¬íļĮìķħ":5999,"Ġì¡´ì¤ĳ":6000,"Ġìª½ë°ľ":6001,"ĠíĮĲíĥĢì§Ģ":6002,"ëıħêµĲ":6003,"Ġê¸īìĹ¬":6004,"Ġê¸īìĭĿ":6005,"Ġëĸłëĵ¤":6006,"ĠëĸłëĤľ":6007,"ĠíĹĪìĦ¸":6008,"ĠíĹĪìłĳ":6009,"Ġì¡°ìĦłìĿ¼ë³´":6010,"ĠëĶĶìŀĲìĿ¸":6011,"íľ´ê°Ģ":6012,"ì²ĺìĿĮ":6013,"Ġíĥľìĸ´ëĤľ":6014,"Ġíĥľê·¹ê¸°":6015,"Ġìº¬":6016,"ĠìĦľë¹ĦìĬ¤":6017,"ìľ¼ë¡ľ":6018,"Ġ.......":6019,"Ġë§ĽìĹĨ":6020,"Ġê²Ģì¦Ŀ":6021,"Ġëĸ¨ìĸ´ì¡Į":6022,"Ġ;;;;;;":6023,"ĠìĮĵ":6024,"ìĵ´ëĭ¤":6025,"¬´ìĦ±":6026,"Ġìŀłìĭľ":6027,"ê°ĪìĪĺë¡Ŀ":6028,"ĠìĬ¬íį¼":6029,"ĠìĬ¬íĶĪ":6030,"ĠíĴĢë¦¬":6031,"Ġê·¼ìľ¡":6032,"ìįħ":6033,"Ġë³Ħê±°":6034,"ĠìĦ¸ëł¥":6035,"ĠëĬĺìĸ´ëĤĺ":6036,"ê´ĳê³ł":6037,"ĠíĨłì°©":6038,"ĠìĹħìĨĮ":6039,"Ġë§ĺê»ı":6040,"ìĸ´ëĤĺìĺ¨":6041,"Ġì¤Ģìĺģ":6042,"²ĮìĿ´":6043,"ì»¨":6044,"ì»µ":6045,"ĠìĭŃìĭľ":6046,"Ġë¹¡ìĦ¸":6047,"ìĬ¬ëŀĮ":6048,"ĠìķĦìĿ´ëĶĶìĸ´":6049,"Ġê¸°ëĭ¤ëł¸":6050,"ë²ĮìĿ´":6051,"Ġìĸ´ë¦°ìķł":6052,"ĠíĥĪìĺģ":6053,"Ġì«ĳ":6054,"Ġë°ľëª©":6055,"Ġë°ľëģĪ":6056,"ĠíĿ¬íķľ":6057,"Ġìĸ´ìļ¸ë¦°ëĭ¤":6058,"ªħë°ķ":6059,"Ġëī´ìļķ":6060,"Ġì¯Ķ":6061,"Ġë»ĶíŀĪ":6062,"Ġì½ľëĿ¼":6063,"ĠìĻķëĶ°":6064,"ìĽĥê¸°":6065,"ìĪľê°Ħ":6066,"Ġíĳľë³¸":6067,"Ġê°ģìŀĲ":6068,"Ġë°ĿíŀĪ":6069,"Ġë¹µë¹µ":6070,"Ġíļ¨ì£¼":6071,"Ġíļ¨ê³¼":6072,"Ġíļ¨ë¦°":6073,"ĠìĳĪ":6074,"ĠìĽĮëĦĪ":6075,"Ġìĺ¤ëŀĺìĺ¤ëŀĺ":6076,"ĠìķĦê¹Įìļ´":6077,"Ġì¢ĭìķĦíķľëĭ¤":6078,"ĠíĺľíĥĿ":6079,"ëĬĲëĭĪ":6080,"Ġëķľìĭľ":6081,"ĠíĿ¥ë¶Ħ":6082,"ĠìŀĶìĿ¸":6083,"ĠìŀĶëĤĺë¹Ħ":6084,"ìĺ¬ë¦¬":6085,"ĠìĿ´ìģł":6086,"Ġëİĥ":6087,"Ġê¹ĶëģĶ":6088,"ĠìĨĶì§Ģ":6089,"ë¸ħìĭł":6090,"ĠíĢĦ":6091,"ĠíĿĲë¦Ħ":6092,"ëĸ¡":6093,"ĠìĦ¼íĦ°":6094,"????????":6095,"Ġíģ´ëŀĺ":6096,"Ġmc":6097,"Ġ~~~~~~":6098,"íķ´ëıĦ":6099,"ë§İìĿ´":6100,"ĠíĺĦëĮĢì°¨":6101,"ë±ħ":6102,"ĠëıĦë§Ŀê°Ģ":6103,"Ġì°ĶëŁ¬":6104,"ĠìĥĿê²¨ìĦľ":6105,"Ġë°°ìĽĮëĿ¼":6106,"ëķħ":6107,"ĠíĦ±":6108,"ĠíĦ¸ë¦¬":6109,"ĠìķķëıĦ":6110,"ĠíĿĳìĿ¸":6111,"ĠãħĩãħĪãĦ¹":6112,"ĠSNS":6113,"Ġëĳ¬":6114,"ĠëĳĶ":6115,"ĠëĮķìĿ´":6116,"ìļ´ëį°":6117,"ë³´ëĵľ":6118,"ë¶Īë§Į":6119,"ĠíĿĺë¦¬":6120,"ĠëĵĿìĭ¤":6121,"Ġë§ĺëĮĢë¡ľ":6122,"ĠìĤŃìłľ":6123,"Ġì¤ĳê°ľìĤ¬":6124,"Ġì»´íĵ¨íĦ°":6125,"ĠëĤ´ë³´ëĤ´":6126,"Ġë©ĭìł¸ìļĶ":6127,"ĠëĿ¼ìĿ´ë¸Į":6128,"ĠìĪĺë¦¬ë¹Ħ":6129,"ĠìĨįìĥģíķĺ":6130,"ìĸ´ëĦĺ":6131,"ĠëĤľë¯¼":6132,"Ġìĸ´ì§Ģê°Ħ":6133,"ĠìĬ¤ì¹´ìĿ´":6134,"ĠìĽĶëĵľì»µ":6135,"ĠìĦľíĺĦì§Ħ":6136,"ĠëĪĮëŁ¬":6137,"Ġë¶Ģì¶Ķê¸°":6138,"ĠìĨĮë°©ê´Ģ":6139,"¸ë¥¸ê±°íĥĳ":6140,"ì§ľë¡ľ":6141,"Ġêµīìŀ¥":6142,"ĠìĶ¨ë¶Ģë¦¬":6143,"ìĹĺë¦¬ìķ¼":6144,"ĠìĹ´ë°Ľ":6145,"Ġíķĺë²Ħëĵľ":6146,"Ġì§Ģê»Ħ":6147,"ĠëĤĺìĺģìĦĿ":6148,"ìłķíķ´ìĿ¸":6149,"Ġìĺ¬ë¦¼íĶ½":6150,"15":6151,"19":6152,"?!":6153,"dt":6154,"is":6155,"ou":6156,"st":6157,"udt":6158,"¡Ģ":6159,"¤ì¼Ģ":6160,"¥Ĳ":6161,"°°":6162,"²ħ":6163,"¼ì§Ī":6164,"¼ìĨĲ":6165,"âĿ¤":6166,"ëī":6167,"ì«":6168,"ìĳ":6169,"ì¥Ĳ":6170,"íħĲëį°":6171,"ĠB":6172,"ĠC":6173,"ĠG":6174,"ĠH":6175,"ĠL":6176,"Ġe":6177,"Ġudt":6178,"ĤĢ":6179,"Ĥľ":6180,"ĥħëĭĪëĭ¤":6181,"ĦĪë":6182,"ĦĪë¬´":6183,"ħķ":6184,"ĨĢ":6185,"īģ":6186,"ĮĦ":6187,"įķ":6188,"Ķ¥":6189,"ľĮ":6190,"Łī":6191,"ł´":6192,"Ġìĩ":6193,"ĠìŃ":6194,"Ġë¤":6195,"Ġë¦¼":6196,"Ġë£Į":6197,"Ġë¦´":6198,"ĠìĿįëĭĪëĭ¤":6199,"ĠíıĦ":6200,"Ġíķ«":6201,"Ġíķ¸":6202,"Ġíķ¸ëĵľ":6203,"ĠìĿ´ë§Į":6204,"ĠìĿ´ìĹ¬":6205,"ĠìĿ´ìŀħ":6206,"ĠìĿ´ìĸ´ì§Ģ":6207,"ĠìĿ´íĭĢ":6208,"ĠìĹ¼ë":6209,"ĠìĹ´ë¦¬":6210,"ĠìĹĮãħĭãħĭ":6211,"ãħĬ":6212,"Ġê°¤":6213,"ĠíķĺìĪĺ":6214,"ĠíķĺíĬ¸":6215,"Ġê³łìĸĳìĿ´":6216,"Ġëĭ¤ìĭł":6217,"Ġëĭ¤ë¦Ħ":6218,"Ġëĭ¤ìĸĳ":6219,"ĠëĤĢ":6220,"Ġë§´":6221,"Ġëĵ¤ìľ¼ë":6222,"ìĦ¸ëĮĢ":6223,"Ġê°Ģê¹Į":6224,"Ġê°Ģêµ¬":6225,"Ġê°ĢìĬ¤":6226,"Ġê°Ģë³į":6227,"ĠìķĦìĺ¤":6228,"ĠìķĦíĭ°":6229,"ĠìķĦê»´":6230,"ĠìķĦìĽĥ":6231,"ê°ĵ":6232,"ê°Īë":6233,"Ġì§ĢëĤ":6234,"Ġì§Ģìŀ¥":6235,"Ġì§ĢìĽĮ":6236,"Ġì§ĢëĤ¬":6237,"Ġì§ĢëŁ´":6238,"ëĭŃ":6239,"ĠìĿĢíĸī":6240,"´ëĦĪë¬´":6241,"ĠìĸĮ":6242,"ìķĺ":6243,"ĠëıĦê¹¨ë¹Ħ":6244,"ĠëĦ¹":6245,"ĠëĦ¼":6246,"Ġíķľëĭ¹":6247,"Ġíķľê³Ħ":6248,"Ġíķľìª½":6249,"ìĿ´íķ´":6250,"ìĿ´íĺĦ":6251,"ìĿ´ìģľ":6252,"ìĿ´ìĬ¹":6253,"ìĿ´ê±¸":6254,"ìĿ´íĤ´":6255,"ìĦľëĭĪ":6256,"ìĦľìĿ¸":6257,"ìĦľíĬ¸":6258,"ìĦľìļ¸":6259,"ì§Ģë¥´":6260,"ì§ĢëĶĶ":6261,"ì§Ģìħĺ":6262,"¼ë¬¼":6263,"Ġë°¸":6264,"ĠëĤĺëĪ":6265,"ĠëĤĺëī":6266,"ë¦¬íĭ°":6267,"ë¦¬ì¹´":6268,"Ġê±°ëĿ¼":6269,"Ġê±°ë¯¸":6270,"Ġê±°ëł¤":6271,"Ġê±°ìļ¸":6272,"Ġê±°íĴĪ":6273,"ê¸°ê°Ħ":6274,"ê¸°ìĪł":6275,"ĠãħĦ":6276,"êµ³":6277,"ĠìĤ¬ë¦¬":6278,"ĠìĤ¬ìĪĺ":6279,"ĠìĤ¬ìłĦ":6280,"ĠìĤ¬ë©´":6281,"ĠìĤ¬ë§Ŀ":6282,"ĠìĤ¬ê·¹":6283,"ĠìĤ¬ëĤĺìĿ´":6284,"ĠìĤ¬ë¡Ģ":6285,"ĠìĤ¬ì´Į":6286,"ľëł¥":6287,"ĠëĦ¤íĭ°ì¦Į":6288,"Ġì§´":6289,"Ġì§Īë":6290,"Ġìĸ´ì§ľ":6291,"ê³łìĿ¸":6292,"ê³łíĸ¥":6293,"ëŀĸ":6294,"Ġë³´ì¡°":6295,"Ġë³´ì»¬":6296,"ê°Ģì¡±":6297,"Ġê²Įìĭľ":6298,"Ġê¸°ìķĦ":6299,"Ġê¸°ìĸ´":6300,"Ġê¸°ìĹ¬":6301,"Ġê¸°ëŁ¬":6302,"Ġê¸°ì´Ī":6303,"Ġê¸°ìĸ´ëĤĺìĺ¤":6304,"Ġê¸°ëıħêµĲ":6305,"ĠëĿ¼ëĿ¼":6306,"ĠëĿ¼ìĿ´íĶĦ":6307,"ĠëĿ¼ëĶĶìĺ¤":6308,"Ġê·¸ëĨĪ":6309,"Ġê·¸ëłĪ":6310,"ëĭĪìĬ¤":6311,"ëĿ¼ìĿ¸":6312,"Ġë§ĮëĤ¨":6313,"Ġíķ´ì¡Į":6314,"Ġìľ¼ëĿ¼":6315,"ëĤĺì¤ĳ":6316,"ĠìĿ¸íħĮ":6317,"Ġëį§":6318,"ĠìĿĺë¦¬":6319,"ĠìĿĺìĥģ":6320,"ĠìĿĺë¬¸":6321,"ĠìĿĺíĺ¹":6322,"ĠìķĪíĭ°":6323,"ĠìķĪìĵ°":6324,"ĠìŀĲì¤ĳ":6325,"ĠìŀĲì¹Ń":6326,"Ġëħ¸ë¦¬":6327,"ĠìĻĢëıĦ":6328,"ìķĦê°Ģë¦¬":6329,"Ġêµ¶":6330,"ĠëĮĢìĪĺ":6331,"ĠëĮĢíļĮ":6332,"ĠëĮĢë³¸":6333,"ĠëĮĢê°Ī":6334,"ĠëĮĢëĭµ":6335,"ĠëĮĢëĤ®":6336,"Ġê¹½":6337,"ëĭ¤ìĪĺ":6338,"ëĭ¤ëĬĶ":6339,"Ġë¥´":6340,"Ġì°¡":6341,"Ġë²½":6342,"ĠëĥĲêµ¬":6343,"ê¸Īë":6344,"ìĿ¸íĬ¸":6345,"ĠìĹ¬ìļ°":6346,"Ġìłķëĵ¤":6347,"ìĤ¬ê¸°":6348,"ìĤ¬ìŀĲ":6349,"ĠìĭľêµŃ":6350,"Ġìĭľì²´":6351,"Ġë¡ľë§¨":6352,"ì¹¸":6353,"Ġì£¼ìĿ¼":6354,"Ġì£¼ìĹ°":6355,"Ġì£¼ìľĦ":6356,"ĠìĪĺìĺģ":6357,"ĠìĪĺìŀĳ":6358,"ĠìĪĺìĹħ":6359,"ĠìĪĺì¶ľ":6360,"ĠëįĶêµ°":6361,"ĠëįĶë¶Ī":6362,"ëĵĢ":6363,"ĠëĤ¨ê¸°":6364,"ĠëĤ¨ê²¨":6365,"ìłķìļ°":6366,"ìłķì¤Ģ":6367,"ìłķìķ¡":6368,"ìĭľê³ł":6369,"ìĭľìĸ¸":6370,"ìĭľì¦Į":6371,"ĠìŀĺìĥĿ":6372,"Ġì§Ħì¤ĳê¶Į":6373,"ë¥´ë¥´":6374,"ë§Īì§Ģë§ī":6375,"Ġê¸ĭ":6376,"Ġê¸į":6377,"ĠìĥĿíĻ":6378,"ĠìĥĿê¸´ëĭ¤":6379,"ì²¨":6380,"ĠìĦ¸ìļ©":6381,"ĠìĦ¸íĥģ":6382,"ĠìĿĮì£¼":6383,"Ġìĸ´ë¨¸ëĭĺ":6384,"ì§ĦìĿ´":6385,"ĠìĿ¼ì§Ģ":6386,"ĠìĿ¼ê¸°":6387,"ĠìĿ¼ìłľ":6388,"ĠìĿ¼ìŀĲë¦¬":6389,"ĠìĿ¼ì°į":6390,"ë§ĮìĹĲ":6391,"Ġê°ľì¡°":6392,"Ġê°ľì²ľ":6393,"ĠìĿ´ë¹¨":6394,"ë¡ľì§Ģ":6395,"Ġê·¸ê±¸ë¡ľ":6396,"ìĸ´ì¤Ģ":6397,"Ġëª»íĸĪ":6398,"ĠìĽ¡":6399,"Ġíķłê»ĺ":6400,"Ġëª¨ìĿ´":6401,"Ġëª¨ìĿ¸":6402,"Ġëª¨ìĹ¬":6403,"Ġëª¨ìħĶ":6404,"ìŀ¥ëĤľ":6405,"ìŀ¥ì°½":6406,"ãĦ·":6407,"Ġì¹©":6408,"ĠìĹ°ìŀ¬":6409,"ĠìĹ°íķ©":6410,"ìĬ¤íĤ¤":6411,"ìĬ¤íĮħ":6412,"ìĬ¤ì½Ķ":6413,"íķľíĺľì§Ħ":6414,"ĠìĶģ":6415,"ìĽĲíĿ¬":6416,"ĠíĶĦëĿ¼":6417,"ĠìłģìŀĲ":6418,"Ġìłģìĸ´ëıĦ":6419,"ĠìłĦìĭł":6420,"ĠìłĦíĪ¬":6421,"ĠìłĦìĦ¤":6422,"ĠëķĮë¦´":6423,"ì£¼íĺģ":6424,"ĠëĶ¸ë¦¬":6425,"Ġì¡°ì§Ģ":6426,"Ġì¡°ìĹ°":6427,"Ġì¡°ê°ľ":6428,"Ġì¡°ìłĪ":6429,"Ġì¡°ìŀ¬íĺĦ":6430,"Ġì¡°ë§Įê°Ħ":6431,"Ġë§Īì·¨":6432,"ìĺ¤ëŀľë§Į":6433,"ë¹Į":6434,"ĠìķłêµĲ":6435,"Ġìķłë§¤":6436,"Ġìŀ¬ìĿ¸":6437,"Ġêµ¬íķ´":6438,"Ġêµ¬ì¡°":6439,"Ġêµ¬ê±¸":6440,"Ġêµ¬ë¨¼":6441,"ĠëŀŃ":6442,"Ġìĺ¤íĶĪ":6443,"Ġìĺ¤ëĭ¬ìĪĺ":6444,"ĠãĦ¸":6445,"ìĹ¬ì£¼":6446,"Ġë¬´ì§Ģ":6447,"Ġë¬´ê¸°":6448,"Ġë¬´ê³ł":6449,"Ġë¬´ìĤ¬":6450,"ìĤ´ë":6451,"ìłĦíĺķ":6452,"Ġíĥ±ìĿ´":6453,"ìĦ±ìĿ´":6454,"ĠìĦ±ìļķ":6455,"Ġë¹ĦìĬ¤":6456,"Ġë¹Ħíĺ¸":6457,"Ġë¹ĦëĪĦ":6458,"Ġë¹Ħê¼¬":6459,"Ġë°ĶìľĦ":6460,"Ġë°ĶíĢ":6461,"ĠìĨĮìĬ¤":6462,"ĠìĨĮë¦°":6463,"ĠìĨĮëħĢ":6464,"ĠìĨĮë¦´":6465,"Ġì¤ĳì¦Ŀ":6466,"ìŀ¬íĽĪ":6467,"ĠíĻĪ":6468,"ĠíĻ§íĮħ":6469,"ĠìŀĦê¸°":6470,"ĠìŀĦìĤ°ë¶Ģ":6471,"ĠìłĢëŀ¬":6472,"ë¯¸íĿ¬":6473,"Ġëħ¸ìĥģ":6474,"ĠìĭłëĤĺ":6475,"Ġìĭłì¤ĳ":6476,"Ġìĭłì²´":6477,"ĠìĭłëħĲ":6478,"Ġìĭłì²ľì§Ģ":6479,"ĠìĬ¤íĬ":6480,"ĠìĬ¤íİĻ":6481,"ìĨĮìĽĲ":6482,"ìĨĮíĿ¬":6483,"Ġê³µê°Ħ":6484,"Ġê³µíĨµ":6485,"Ġê³µíı¬":6486,"ìĿ´ë°":6487,"ìĿ´ë¯¼":6488,"ìĿ´ëĶ´":6489,"ĠìķĮì½©ëĭ¬ì½©":6490,"Ġë¯¸ìļ°":6491,"Ġë¯¸íĺ¼":6492,"Ġíı¼":6493,"ĠëĬĳëĮĢ":6494,"ĠìľłìĿ´":6495,"ĠìľłëĤľ":6496,"Ġìľłëª¨":6497,"Ġìľłì²ľ":6498,"Ġìľłëıħ":6499,"ĠìľłìĿµ":6500,"ëĵ¤ìķĦ":6501,"ë¶Ģì§Ģ":6502,"ĠêµŃìłķ":6503,"ĠêµŃëĭ¹":6504,"ĠêµŃêµ°":6505,"Ġì°¨íĬ¸":6506,"Ġë¨¹íŀĪ":6507,"Ġë¨¹ë°©":6508,"Ġìĥģì¢ħ":6509,"Ġëĭ¹ëĤĺëĿ¼":6510,"ë¯¼ìķĦ":6511,"Ġë°©ë¬¸":6512,"ì¦ī":6513,"ìľłíĬľë¸Į":6514,"Ġë³´ëĥħëĭĪëĭ¤":6515,"Ġìŀħëĭ´":6516,"Ġë°°ìĹŃ":6517,"Ġë°°ìĽĮìĦľ":6518,"ĠìĻĢëĿ¼":6519,"Ġìļ°ìĪĺ":6520,"Ġìļ°ìľł":6521,"Ġìļ°ìĹ°íŀĪ":6522,"Ġë³ĳìĤ¬":6523,"Ġê¹ĢìĦ¸":6524,"Ġê¹Ģìļ©":6525,"Ġê¹Ģì¢ħêµŃ":6526,"Ġê¹ĢìłľëıĻ":6527,"ĠìĹĦíķľ":6528,"Ġìĺģìĸĳ":6529,"ĠìĺģìĽħ":6530,"ĠìłĢëŁ´":6531,"Ġíİ´":6532,"Ġíİ¸ë":6533,"Ġì³Ĳìķ¼":6534,"ìłĢê±¸":6535,"Ġëĵľëł¤":6536,"ĠëĵľëĶĶìĸ´":6537,"Ġë¶Ħë¦¬":6538,"Ġë¶ĦëŁī":6539,"ìĺĪìĥģ":6540,"Ġë§ŀì¶Ķ":6541,"ëª¬":6542,"ĠìĺĪê³ł":6543,"ĠìĺĪìłķ":6544,"Ġì§ĳëĭĪëĭ¤":6545,"Ġì§ĳíķ©":6546,"ĠìĦłìłķ":6547,"ìĻĢìĿ´":6548,"Ġ23":6549,"Ġëį°ë·Ķ":6550,"Ł¼íĶĦ":6551,"íĺ¼ìłĦ":6552,"Ġë¶Īíĸī":6553,"Ġë¶Īíıī":6554,"Ġìŀ¥ê¸°":6555,"Ġìŀ¥ìĦ±":6556,"Ġìŀ¥ë³ĳ":6557,"Ġìŀ¥ìķħ":6558,"Ġìŀ¥ëĭ´":6559,"Ġìŀ¥ìľ¤ìłķ":6560,"Ġìŀ¥ìŀĲìĹ°":6561,"ĠíĻĶë©´":6562,"ĠëĦĺì³Ĳ":6563,"ëĭ¹ìĭł":6564,"ëĭ¹ìĹ°":6565,"ëĭ¹ìĹ°íŀĪ":6566,"íĿĳ":6567,"ĠíķľêµŃìĭĿ":6568,"ĠìľĦìĽĲ":6569,"Ġë¯¼ë§":6570,"Ġë²ĦìłĦ":6571,"Ġëĸ´":6572,"ê·¸ê²Į":6573,"ê·¸ê±´":6574,"Ġìĭ¤ìĭ¤":6575,"Ġìĭ¤íĸī":6576,"Ġìĭ¤íĹĺ":6577,"ĠëıĻëĤ¨":6578,"ĠëıĻë£Į":6579,"ì¡°ìĦ¼":6580,"ì¡°ìĬ¹ìļ°":6581,"Ġê°Ĳìĭ¸":6582,"ëĤ¨ê¶ģë¯¼":6583,"ê³ĦìĨį":6584,"Ġìļķíķ´":6585,"ĠíĽħ":6586,"ĠíĹī":6587,"Ġë°ķìĿ´":6588,"Ġë°ķìĽĲ":6589,"Ġë°ķë©¸":6590,"Ġìµľì¢ħ":6591,"ĠìĺĢìĹĪ":6592,"Ġìľ¼ìħĶ":6593,"ìĸ´ëĤ´":6594,"ê¸Ģê±°ë¦¬":6595,"Ġëªħëł¹":6596,"ĠìĬµê´Ģ":6597,"Ġìĺ¬ë¦´":6598,"ĠìķħìĹŃ":6599,"íı´":6600,"íĿ¬ì¤Ģ":6601,"ĵ¤ê°ĳ":6602,"Ġì¹ĺíĤ¨":6603,"ĠíĿ°":6604,"ĠëĬĲê¼Ī":6605,"Ġìŀ¡ê²ĥ":6606,"Ġìŀ¡ìĨĮë¦¬":6607,"ĠíĶĮë¡ľ":6608,"ĠìĦ¤ìĤ¬":6609,"ĠìĦ¤íĺĦ":6610,"ĠìĦ¤ëłĪ":6611,"ĠìĦ¤ê±°ì§Ģ":6612,"Ġíķ´ìķ¼íķ¨":6613,"ë°ķë³´ê²Ģ":6614,"ì°¨ëĿ¼ë¦¬":6615,"ĠìĹŃëĮĢ":6616,"ĠìĹĲê²ĮìĦľ":6617,"Ġëł¤ëĭĪ":6618,"Ġê°ķíĺ¸ëıĻ":6619,"Ġê³Ħê¸°":6620,"Ġê³Ħì¸µ":6621,"Ġì±Ķ":6622,"ìĹħìŀĲ":6623,"ĠëĶ°êµ¬":6624,"ĠëĶ°ë¥´":6625,"ĠëĶ°ê¹Įë¦¬":6626,"Ġìŀĳìłķ":6627,"Ġì»µ":6628,"ĠëłĻ":6629,"Ġëĭ¨ëıħ":6630,"ìĹŃëĮĢ":6631,"Ġ36":6632,"Ġë²łíĬ¸ì½©":6633,"ĠíĶ¼ìŀĲ":6634,"ĠíĶ¼íķĺ":6635,"Ġì¶ĶìĦĿ":6636,"Ġì¶Ķìŀ¡":6637,"Ġë¹łë¦¬":6638,"Ġë¹łë¥¸":6639,"Ġë¹łì¡Į":6640,"ĠíĤ¤ë³´ëĵľ":6641,"Ġìĭ¬íķ´":6642,"Ġìĭ¬ì§Ģìĸ´":6643,"ĠëįĶëĿ¼êµ¬ìļĶ":6644,"Ġêº¼ë¦¬":6645,"¼ë§Į":6646,"Ġë°ľëĭ¬":6647,"Ġë°ľê²¬":6648,"Ġê°Ħë¶Ģ":6649,"Ġê°ĦëħĦ":6650,"Ġê°Ħì²©":6651,"ê¹ĢìĦ±":6652,"ê¹ĢíĿ¬":6653,"Ġì´Ľë¶Ī":6654,"êµĲìľ¡":6655,"Ġìļ©ê°Ĳ":6656,"ê³µì§Ģ":6657,"íĭ±":6658,"ĠëĤ´ëĿ¼":6659,"ĠëĤ´ëħĦ":6660,"Ġë¬¸ìłľì§Ģ":6661,"Ġë°ĺë§Ĳ":6662,"Ġê°ľë¹Ħ":6663,"Ġê°ľëĺ¥":6664,"Ġì¶©ìĭ¤":6665,"ĠìĿ´ìĥģë¯¼":6666,"ê²¨ìĽĮ":6667,"ìĶ¨ìĿ´":6668,"ĠëĶ±íŀĪ":6669,"ĠíĥĢìŀĦ":6670,"Ġë¿ľ":6671,"Ġë§Ŀíķľ":6672,"Ġë§Ŀê°Ģì§Ģ":6673,"Ġíİ¸ì§Ģ":6674,"Ġë§Īëķħ":6675,"Ġê·¸ëŁ¬ëĭĪê¹Į":6676,"íķĻêµĲ":6677,"Ġë©°ì¹ł":6678,"Ġê°ĪìķĦ":6679,"ĠíĽĦë°°":6680,"ĠíĽĦì§ĦêµŃ":6681,"ĠìĭľëħĢ":6682,"Ġë°±ìĿ¸":6683,"Ġë°±ë§Ī":6684,"Ġì²ĺë°ķ":6685,"íģ¬ë¡ľ":6686,"Ġíĺ¸ìĿĺ":6687,"ê°ķëĤ¨":6688,"ê¶Įëł¥":6689,"Ġìīĳ":6690,"ìĿĢíĺľ":6691,"Ġê·Ģì¡±":6692,"Ġì½ĶìļĶ":6693,"ì¶ľìĤ°":6694,"ë©ĺ":6695,"ĠìĨĲìłĪ":6696,"ê»į":6697,"ĠíĬ¹ìłķ":6698,"Ġëĵ¤ìĸ´ìĺ´":6699,"Ġì¦Į":6700,"Ġë¦¬ëĿ¼":6701,"Ġë¦¬ìĸ¼":6702,"ĠëĭµëĭĪëĭ¤":6703,"ĠìĻ¸êµĲ":6704,"Ġ1000":6705,"Ġê´ĳìĭłëıĦ":6706,"ĠìĭĿìĿ´":6707,"ĠíĨµìłľ":6708,"ĠíĨµíķ´":6709,"ĠíĨµíķ´ìĦľ":6710,"ĠëĤłìĶ¨":6711,"ĠëĤłëĽ°":6712,"ĠìĤ°ìĹħ":6713,"ĠìĪľìĦľ":6714,"ĠìĪľì§Ħ":6715,"Ġ48":6716,"ĠíĮĶë¦´":6717,"ĠìĺĪë¯¼":6718,"ĠìĺĪë¹Ħ":6719,"ì³Ĳìķ¼":6720,"ĠíļĮìŀ¥":6721,"ĠíļĮë³µ":6722,"Ġíĭ°ëĤĺ":6723,"ìīĲ":6724,"Ġë¯¸ë§Į":6725,"Ġë¯¸ëħĢ":6726,"Ġë¯¸ëł¨":6727,"Ġë³ĢíĻĶ":6728,"Ġë³Ģê²½":6729,"Ġë³ĢíĸĪ":6730,"ĠìĻĦìĦ±":6731,"Ġíģ¬ë£¨":6732,"Ġíģ¬ë¦¼":6733,"ĠëĤĺìĻĢìķ¼":6734,"Ġìĺ¨ëĤĺ":6735,"Ġëıħìĭł":6736,"ëįĶëŁ½":6737,"Ġë©Ķìĭľ":6738,"Ġë©Ķëī´":6739,"Ġë©ĶìĦ¸ì§Ģ":6740,"Ġê¼´íĨµ":6741,"ìłģëĭ¹íŀĪ":6742,"Ġì²ŃìĨĮ":6743,"Ġì²ŃìĤ°":6744,"Ġì²Ńì¶ĺ":6745,"Ġíĺ¼ìĤ°":6746,"ĠëĬĲëĤĦ":6747,"ĠëłĪìķĮ":6748,"Ġì»¤íĶ¼":6749,"ĠìĬ¹ìŀĲ":6750,"Ġëª©íĳľ":6751,"íĳľìłķ":6752,"ĠíĦ°íĬ¸ë¦¬":6753,"ĠíķĻëł¥":6754,"ĠëĨĢìĿ´":6755,"ĠëĨĢëĿ¼":6756,"ĠíĮĲê²°":6757,"ĠâĢ¦":6758,"Ġì·¨íķĺ":6759,"Ġì·¨íĸ¥":6760,"Ġê½ģ":6761,"Ġê½ī":6762,"ĠíĹĪìļ©":6763,"ãħĩãħĪ":6764,"Ġë³´ìĹ¬ì¤Ģ":6765,"ëŃĺ":6766,"ë°±ìĭł":6767,"ëħ¸íĬ¸":6768,"ëħ¸ê°Ģëĭ¤":6769,"Ġì¼Ģë":6770,"ĠìłĲê²Ģ":6771,"ìłĢë²Ī":6772,"Ġë¸ħ":6773,"ĠíıŃíĥĦ":6774,"ĠìĦľë¥ĺ":6775,"ìľ¡ìķĦ":6776,"Ġê²ĢìĹ´":6777,"Ġëĸ¨ìĸ´ìł¸":6778,"ĠíĪ¬ê¸°":6779,"ĠíĪ¬ìŀĲ":6780,"ĠíĪ¬ìŀħ":6781,"ĠíĪ¬íĳľ":6782,"ĠíĪ¬ìĦ±ìĿ´":6783,"ìľ¤íĻĶ":6784,"ĠìķĦë¬´íĬ¼":6785,"ĠìĮī":6786,"Ġë¶ģê´´":6787,"Ġë¶ģì¡°ìĦł":6788,"Ġìŀłê¹Ĳ":6789,"ĠìĬ¬íĶĶ":6790,"ì¹´ìĺ¤":6791,"Ġ--":6792,"ëĥĦ":6793,"Ġìį¨ìķ¼":6794,"Ġê·¼ì²ĺ":6795,"íļ¨ì£¼":6796,"łĪìĿ´ëĵľ":6797,"ì»´":6798,"ì½ĺ":6799,"ĠìĭŃëĭĪê¹Į":6800,"Ġë¶Ļìŀ¡":6801,"ìĺ¨ëĭ¤":6802,"Ġì¦Ŀë§Ĳ":6803,"ìī¬ìĿ´":6804,"Ġìľ¤ìķĦ":6805,"Ġì§ķìĹŃ":6806,"Ġê¸°ëĭ¤ë¦´":6807,"ĠëĥĦë¹Ħ":6808,"ë¯¸ëŀĺ":6809,"Ġì©Ĳ":6810,"ĠíĥĪíĩ´":6811,"Ġì«ĵ":6812,"Ġì¹´ì¹´ìĺ¤":6813,"ĠëĶ°ëĿ¼ìĺ¤":6814,"ìĭ¸ìĽĢ":6815,"Ġì²´íĹĺ":6816,"Ġìĸ´ìļ¸ëł¤":6817,"ìĿ¸ë§Ī":6818,"ì£½ìĹ¬":6819,"Ġê¹ĢëıĦ":6820,"Ġê¹ĢëĮĢì¤ĳ":6821,"ĠìĤ´ë¦¼":6822,"Ġìĸ´ëł¤ìĽĮ":6823,"íĬ¸ë¦°":6824,"Ġì½§":6825,"ĠãħĨãĦ¹":6826,"ĠìĻķì¡°":6827,"ì¢ĮíĮĮ":6828,"Ġë¹ĮëĿ¼":6829,"Ġë¸Ķë¡ľ":6830,"Ġê¾¸ì¤Ģ":6831,"Ġì§Ģì§ĢìŀĲ":6832,"ĮãħĮ":6833,"ĠìĮįëĨĪ":6834,"ĠëĿł":6835,"ĠëĽ°ìĸ´ëĦĺ":6836,"Ġê³łìĨĮìĺģ":6837,"ĠìłĪì¹ľ":6838,"Ġë°Ģë¦¬":6839,"Ġì¤ĺìķ¼ì§Ģ":6840,"Ġê¸°ìĪłìŀĲ":6841,"Ġì¢ĭìķĦíķ¨":6842,"ĠëĤ´ëł¤ìĺ¤":6843,"Ġì¶ľìĹ°ì§Ħ":6844,"Ġê½ĥë±Ģ":6845,"Ġíĩ´ìĤ¬":6846,"ĠëĨįëĭ´":6847,"ĠìĪ¨ê²¨":6848,"ãħħãħĮãħĬ":6849,"Ġë©Ģë¦¬":6850,"Ġìļ´ìłĦëĮĢ":6851,"ĠìĥĪë²½":6852,"ĠìĥĪëĤĢ":6853,"Ġì´ĪëĶ©":6854,"ì¼ĢìĿ´":6855,"Ġsm":6856,"ìĿĦê¹Į":6857,"Ġê´ĢëĳĲ":6858,"ìĺ¬íķ´":6859,"Ġê´´ë¬¼":6860,"ìŀĶëį°":6861,"ĠìŀĬíĺĢ":6862,"Ġì¹ĺë£Įìłľ":6863,"Ġë±ĥ":6864,"Ġë±ī":6865,"Ġë°ĶëĿ¼ë³´":6866,"Ġë¶ĢëģĦëŁ¬ìļ´":6867,"Ġë²Ħëł¤ìķ¼":6868,"íıīê°Ģ":6869,"ĠëĤĺìĺ¨ëĭ¤ëĬĶ":6870,"Ġë¡¬":6871,"Ġë¡±":6872,"ĠìĹ¿ê°Ļ":6873,"Ġì¡±ë³´":6874,"ë¬´ëıĦ":6875,"ĠìĨĶë¡ľ":6876,"Ġê°ĪëĿ¼":6877,"ê¹Ģë¯¼":6878,"ĠìĤ´ìķĦëĤ¨":6879,"ìħīìħĺ":6880,"ëĸ¨":6881,"ĠìªĦ":6882,"ë¹¨ë¦¬":6883,"Ġê·ĢìĹ¬ìļ´":6884,"Ġì¥¬ìĸ¼":6885,"ĠìĦ¼ìĬ¤":6886,"ëŃĶê°Ģ":6887,"Ġë¸ħìĭłìķĦ":6888,"ì¯Ķ":6889,"Ġkbs":6890,"Ġíĺ¸ëĵ¤ê°ĳ":6891,"Ġë¬´ìĦľìļ´":6892,"Ġë¬´ìĦľìĽĮ":6893,"íĻķìĭ¤íŀĪ":6894,"ĠíĻĶìŀ¥ìĭ¤":6895,"ĠíĿĶíķľ":6896,"Ġíģ´ëŁ½":6897,"Ġíģ´ë¡ł":6898,"Ġë¶ĪëŁ¬ìĦľ":6899,"ĠíĶĦëłĪ":6900,"Ġê³Ħì§ĳëħĦ":6901,"Ġëª°ëł¤ìĻĢìĦľ":6902,"ë©įì²Ń":6903,"Ġì°Įì§ĪìĿ´":6904,"Ġë³¸ëĬ¥":6905,"ë§¨ëĤł":6906,"Ġë°©íĥĦìĨĮëħĦëĭ¨":6907,"Ġë§Īë¦¬ìķĦ":6908,"ĠíĴĪì§Ī":6909,"Ġì°¾ìķĦë³´":6910,"Ġëļ«":6911,"ĠëļĿ":6912,"Ġê¹ĬìĿ´":6913,"ĠëĵľëŁ¬ìļ´":6914,"ĠëĿĦìĽĮ":6915,"Ġjyp":6916,"ĠìĤ¬ê·Ħ":6917,"ĠìĤ¬ê·Ī":6918,"ĠìĤ¬ê·Ĳ":6919,"ĠëĮķê¸°":6920,"ì¿łìĭľ":6921,"Ġìķµë²ĮìĿ´":6922,"Ġëª¨ìŀĲëĿ¼":6923,"ëħ¸ë¬´":6924,"ëª»ìĥĿê¸´":6925,"Ġ?????":6926,"Ġíħħ":6927,"ĠìĶĮìļ°":6928,"Ġìĵ¸ëª¨":6929,"ëĨĢëŀĢ":6930,"ëļľê¸°":6931,"Ġë·Ķ":6932,"ĠëĤĺíĥĢëĤĺ":6933,"ĠíĥĪëĿ½":6934,"Ġìĺģíĸ¥ëł¥":6935,"ĠëĤ´ë³´ë":6936,"ĠPC":6937,"Ġno":6938,"Ġì£¼ìĿĺìŀĲ":6939,"ĠìłĦë¬¸ê°Ģ":6940,"ĠíĹĽìĨĮë¦¬":6941,"ĠëŁ°ëĭĿ":6942,"Ġíľĺë":6943,"ĠìłĪëĮĢë¡ľ":6944,"ì°ĲëĶ°":6945,"Ġëª»ìĥĿê²¼":6946,"Ġë©ĺíĥĪ":6947,"ĠíĽĪíĽĪ":6948,"Ġì´ĮìĬ¤ëŁ½":6949,"ĠìĭľëģĦëŁ½":6950,"Ġê±¸ëŁ¬ìķ¼":6951,"ĠíŀĻíķ©":6952,"Ġê¹Ģë¯¼íĿ¬":6953,"Ġì§¬ë½ķ":6954,"ìĸ¼ë§ĪëĤĺ":6955,"Ġê¹ľëĨĢ":6956,"ĠìķĮìķĦë³´":6957,"Ġíķ´ë´ĲëĿ¼":6958,"Ġíİĺë¯¸ëĭĪ":6959,"Ġíİ¸ìĿĺìłĲ":6960,"Ġì½ĺìĦľíĬ¸":6961,"Ġê¾¸ë¯¸":6962,"ê½ģì´Ī":6963,"Ġpd":6964,"ĠìŁĪ":6965,"ĠíĪŃ":6966,"ìĽ¨ìĿ´":6967,"ĠìĪĺì¹ĺìĭ¬":6968,"ĠìĿ¼ìľ¼íĤ¤":6969,"ĠíŀĲë§ģ":6970,"ĠíĲģ":6971,"Ġëĭ¤ëħĶ":6972,"Ġìļ±ìĿ¼ê¸°":6973,"Ġì¤įìĭľëĭ¤":6974,"ĠëıĪë²ĮìĿ´":6975,"Ġìłķìľłë¯¸":6976,"Ġëª¨ì§Ģë¦¬":6977,"ĠìłľëĦ¤ìĭľìĬ¤":6978,"ìłķìĭłë³ĳìŀĲ":6979,"ĠìŀĲìĺģìĹħ":6980,"ĠìĭľìĬ¤íħľ":6981,"êµ¬íķĺëĿ¼":6982,"ĠìłĦëĳĲíĻĺ":6983,"Ġìľłë¶ĢëĤ¨":6984,"Ġê¹ĢìĺģíĿ¬":6985,"ĠìĪ«ìŀĲ":6986,"íĹ¨ë¦¬":6987,"ĠíĢĦë¦¬íĭ°":6988,"Ġíģ´ëŀĺìĬ¤":6989,"Ġíķ¸ëĵľíı°":6990,"ĠìķĦíĭ°ìĬ¤íĬ¸":6991,"Ġìĸ´ì§ľíĶ¼":6992,"ĠìĿ¸íħĮë¦¬ìĸ´":6993,"ĠìĪĺìĺģë³µ":6994,"ĠìĥĿíĻľë¹Ħ":6995,"Ġê°ľì²ľìłĪ":6996,"Ġìľłëª¨ì°¨":6997,"Ġë¯¼ë§Ŀ":6998}